// conv2_weights weights - INT8 quantized (scale=0.004801)
// Shape: [64, 32, 5, 5], Total entries: 51200
// Load in Verilog: $readmemh("conv2_weights.mem", mem);
// Dequantize: float_weight = int8_value * 0.004801

26
e6
fb
f8
0e
c9
e1
fe
f1
fe
18
0e
19
00
05
e8
ec
f5
e6
eb
11
ea
00
0f
13
13
ef
f4
fc
fe
03
0a
fd
0c
f1
03
23
16
1f
ef
0d
13
f7
e3
0e
01
f8
1b
18
19
fc
f3
2f
15
0b
23
04
1f
ec
fa
23
db
02
fb
d3
24
e8
ee
e1
f6
1d
00
fd
30
e1
e2
f2
f8
dc
03
ea
cf
e8
db
eb
14
08
0c
16
0b
0a
23
44
15
10
4a
33
3b
39
46
ed
df
fd
fa
eb
17
cd
eb
f6
ea
f4
19
24
f5
d8
05
f9
39
2b
ef
dd
1b
fe
29
19
e7
18
42
19
0a
08
1f
26
00
23
11
f4
14
14
29
03
f5
15
e0
ec
08
09
de
09
09
dc
1f
f6
cd
01
05
40
23
f2
0b
06
e6
27
d5
ed
de
e9
f9
15
27
1f
ec
27
38
3e
09
fd
08
23
1f
0d
1d
01
cb
ff
de
ef
16
0c
11
fb
13
17
0d
2f
fb
12
0c
36
16
11
0d
f9
d5
dd
0f
e7
d8
fb
e8
f1
ef
de
00
f2
fe
0a
14
f1
02
1c
fe
1d
0b
d6
28
24
fc
20
0b
09
dc
1c
eb
f4
dd
d4
24
f8
01
1e
1f
fb
0a
f3
f4
03
1c
06
db
2d
e6
ff
fe
18
08
28
f2
10
e0
e7
15
da
01
f8
33
f7
fd
04
ff
17
f5
dc
e0
03
d5
1e
c3
d8
f0
e8
de
d2
06
2c
12
05
2e
0b
01
fb
fe
0e
2b
01
0e
04
fa
1b
0a
f0
e7
f6
02
0f
00
21
11
f9
1a
f8
09
ff
ea
f8
cf
0f
44
f9
d4
cb
e2
f2
eb
cd
e7
ff
f4
13
e2
fe
f5
04
f4
fa
06
13
0f
05
07
44
2e
33
2b
e9
15
2c
07
10
04
47
33
30
02
da
09
4c
07
ec
e4
e5
eb
e4
cc
dd
ff
ed
fa
0f
e4
03
fb
f3
f4
00
1b
da
28
fb
e0
27
fe
0d
ff
07
0c
d1
ec
f4
e3
04
10
e9
f7
0a
29
3c
10
e6
c3
41
19
19
d2
fa
1a
3c
f3
05
e8
e8
1f
f0
15
f4
03
0d
dc
0a
f2
09
1f
fb
e8
e9
e7
f5
d8
d1
0c
0f
09
1e
1f
05
fa
0e
1d
ef
db
20
5f
fa
20
1d
3e
25
0b
f2
09
d8
14
f3
d3
24
fa
e3
27
ff
0a
20
14
f7
2a
e9
29
29
f7
d5
05
25
08
2d
12
ff
f8
fb
29
10
22
0d
09
fd
fc
15
fc
18
11
ee
02
fb
db
08
01
06
f9
11
10
1e
f7
05
f6
1a
f2
ce
02
f3
36
e5
c8
00
ef
24
10
09
e8
e1
10
eb
01
fb
fe
fc
0d
2c
21
de
fb
1a
e3
0c
ef
f7
03
15
ef
14
f5
dd
d2
01
eb
08
18
25
0c
eb
f7
1b
f5
f9
18
1a
04
14
23
10
1e
fc
fe
db
0e
19
02
11
0a
d8
01
f7
fe
f9
1e
fc
0e
01
4d
f4
1a
10
f8
0f
0f
1b
0f
e9
fd
33
06
00
dd
1e
38
08
e6
0b
07
39
1e
fc
23
f9
0f
ed
0d
2a
0f
da
d5
14
f6
07
d1
37
fc
0a
0d
e1
ee
fc
fe
fe
28
1f
fb
b5
13
2a
17
e0
e2
fa
e4
0f
ff
e7
07
f7
0e
06
02
19
1b
ff
f3
eb
27
19
16
b8
e2
1c
fa
e7
df
01
0f
f1
00
fb
f4
0b
27
20
1f
e4
05
2c
62
27
c6
1e
2b
29
df
e1
1c
e9
1c
0e
f9
e5
07
d5
02
fb
e2
f5
d5
1a
24
08
fb
1c
02
2b
ec
fb
14
f2
db
28
06
e2
28
f4
e5
ce
dd
02
1c
12
16
d1
0c
00
f0
ce
11
29
25
f5
e4
ef
e6
0a
d9
19
f8
dd
cd
05
fc
0f
f7
f4
22
f3
f8
01
10
ec
0c
18
fe
05
1d
04
0b
f9
04
34
0e
31
00
09
ed
fe
03
fc
f6
e4
e4
0a
16
f8
d3
14
ed
09
06
11
17
f5
dd
0b
50
e6
03
04
e2
f2
e1
14
11
14
e7
ef
f5
f9
0d
ea
df
f3
4d
12
08
18
c6
fd
f7
13
11
ed
e2
06
04
e4
f6
0e
08
f0
27
ef
fa
08
10
e5
20
c6
0d
f6
ee
f2
01
f0
34
ed
0d
fe
1c
ee
05
f1
f1
02
04
e2
13
dd
04
fe
ea
cc
d7
fb
de
c2
da
03
0e
23
f2
43
02
20
0a
f4
41
09
30
ec
e4
e0
e0
f3
ea
f6
df
e4
dd
13
b4
e0
17
1b
16
f2
0a
e0
f8
d0
f7
16
11
08
ff
05
28
e4
d7
e6
ea
1e
0e
2e
0f
f9
f8
00
1a
0a
29
16
08
ff
18
e8
2b
16
10
01
ff
14
16
27
0e
f8
0b
f5
db
24
23
09
cc
02
f6
39
eb
1e
da
f7
24
ec
f6
e0
d9
ef
19
08
f0
11
f2
18
07
ef
e7
d7
fe
21
ec
ec
07
eb
24
2f
fa
fd
d7
de
04
11
d1
03
17
fd
10
ca
eb
ed
0b
e8
08
f8
cb
2e
36
0b
1d
16
1b
1c
29
0a
0a
4b
f4
f6
fc
13
08
f2
09
fc
ec
06
f1
41
df
f0
0b
09
12
eb
dd
1b
11
fa
f4
f6
2c
e9
e0
24
e7
01
c2
eb
05
1c
ee
e3
f0
12
ed
fc
05
ea
05
fc
09
18
1f
f6
fd
17
01
15
04
04
0f
f6
37
08
fb
f2
ef
b8
ed
0e
d1
20
e8
10
26
1e
08
d2
1e
f5
1c
fd
2b
10
db
ef
e3
d3
08
cd
db
d7
2a
12
23
06
fa
28
ff
03
07
0d
2a
32
17
fb
05
fc
11
12
2b
fa
1b
18
22
0a
2d
dd
0d
05
2f
cb
04
1a
fa
0e
0c
05
ea
d8
19
de
e0
de
11
ec
21
00
09
de
06
f9
17
d8
db
e1
3b
09
21
05
ec
2c
07
0f
09
34
27
16
f0
de
fd
23
e8
dd
fc
ef
c2
c6
f4
cc
d8
fd
00
e5
e5
16
de
2a
11
31
2e
e9
1b
00
22
03
ef
db
0e
03
25
dc
de
30
ea
c6
1f
28
23
0d
61
05
0b
ee
cb
0d
34
0e
e5
d6
ff
05
cd
ef
d8
df
e2
f3
08
e5
dc
fe
1a
fd
0f
01
39
f9
18
23
20
fc
f8
26
09
41
d0
e2
e8
fb
e2
1f
37
15
1f
ec
20
1c
4e
fe
fb
0a
38
39
ca
ff
05
2d
f9
01
12
0d
fb
0e
05
fe
24
c6
15
e4
0c
f5
e0
0a
15
06
fc
f0
00
e5
e6
f3
1a
e8
f4
ea
f4
25
10
f2
e4
e7
e9
00
ee
06
fe
2e
f4
fe
d7
2a
1a
ec
02
29
23
2b
da
15
25
20
ee
0b
ff
23
d2
f7
0d
ed
13
17
fd
14
ec
0b
f8
f5
aa
11
12
ea
f8
08
0a
0c
e5
f2
06
01
e7
da
d7
11
1f
f8
fe
18
06
26
ff
1a
fb
19
24
0d
09
f4
14
f8
16
0f
0b
00
28
00
05
03
35
04
11
f4
ea
fa
05
fd
04
ea
f0
0a
1d
ef
10
03
fa
fd
fd
1d
24
18
17
34
01
1a
03
17
01
fa
f6
19
08
fd
01
e7
f7
05
10
e5
fd
0c
53
0d
0f
eb
20
32
d2
f5
f9
f3
0f
14
ff
f9
d9
de
18
27
04
00
11
04
1c
fd
0c
0b
04
ee
28
0d
f0
15
e7
05
e6
04
01
06
08
0c
14
d3
14
06
db
30
d6
0d
18
dc
35
02
ed
ee
fe
11
f4
04
f8
20
14
ed
fd
0b
0f
08
b2
01
0c
0a
f6
f7
18
f2
f4
ee
13
ef
17
1f
f7
fe
00
09
0e
0b
06
14
12
11
04
26
0a
ff
16
13
07
31
05
34
12
fb
f1
fd
04
fa
05
ea
0f
02
fa
ed
fe
f2
d6
07
e8
09
f9
13
19
d0
e8
15
e8
1e
f5
f2
2d
fa
0a
e3
0f
fd
e8
eb
fe
13
fa
18
0f
16
f1
0d
48
15
e2
01
f4
fb
1b
13
f0
f3
10
1b
28
0e
0f
25
00
df
bd
01
0a
1b
24
32
ff
08
f7
3a
32
16
f1
0d
1a
38
02
ea
04
f6
0f
02
fa
2a
f7
10
22
d6
17
f1
2a
05
ef
fc
12
06
f5
fe
03
ff
ec
04
20
0f
11
24
e3
f6
05
d7
ca
2c
07
1c
dd
e3
12
2b
eb
0c
ed
04
0e
06
e6
30
02
06
d9
ed
ee
e3
f5
f1
eb
f6
f3
ea
ec
24
f9
0f
2c
27
16
19
00
69
e5
32
15
34
ee
fa
1a
2a
03
18
f0
00
fe
eb
03
bb
10
e5
0a
01
cf
f6
fc
dc
28
00
08
ca
db
08
f8
11
17
f5
f5
fa
16
01
d3
f1
0e
1c
e5
ec
28
e7
a8
d8
e7
0b
1f
03
e2
05
0a
3f
d4
ef
08
fb
ee
12
13
eb
fb
ff
f7
fc
e5
f5
e2
09
11
11
07
be
cf
f4
f2
f0
ec
1e
f6
f0
e5
e9
10
e9
e8
0b
03
fe
d1
bb
02
02
01
dd
21
f4
11
f3
29
2f
e6
2b
2d
12
14
e6
dc
22
fb
3b
53
f9
e8
12
1c
25
e7
0e
06
06
f2
eb
e9
f1
fc
f6
e5
de
ef
14
06
01
0d
0d
0d
cf
df
06
f7
24
ea
ea
e6
1e
18
e4
28
f8
09
fa
06
d7
e1
1a
1f
fe
09
f0
0a
06
c0
eb
05
ee
d2
f8
dd
1a
14
10
08
17
13
18
e4
0e
0f
ff
16
eb
02
f8
31
07
df
d7
f1
fb
e1
f0
05
df
ee
ef
d5
1c
e1
e1
d2
df
31
eb
0e
2c
e6
0d
fd
15
fa
31
0f
09
01
ee
fb
1b
f2
f0
fe
23
02
f4
11
0a
f7
03
d1
23
0b
ff
23
f3
1b
fd
f0
0e
e9
2e
f2
11
08
ea
fa
14
e4
e5
24
28
e3
14
d5
f0
0e
13
02
14
02
02
25
20
1b
d8
1a
15
02
fd
09
e7
1d
ff
00
fa
f0
17
27
19
0b
05
fa
11
e0
06
06
eb
f3
07
f6
c7
1c
fe
f6
c3
07
4c
ef
fa
19
05
f5
03
24
fe
10
06
0d
03
12
32
3c
0c
25
e6
ee
0b
fd
2f
15
23
fb
24
ec
dd
06
16
19
f4
ed
11
da
d6
f3
ed
cd
c7
e3
db
0b
01
39
05
19
0c
0b
0e
f5
24
f8
ca
f6
18
10
eb
36
19
f9
08
cf
18
fe
1a
d7
f0
01
0d
06
f7
ef
27
3c
0a
00
d7
0d
0c
ef
0f
e3
1b
15
15
02
e0
10
e8
c9
1b
f9
e3
08
4a
10
f7
e8
f5
f9
1f
1a
e6
d8
1a
21
f8
e8
ed
0e
e0
0d
00
0c
0b
20
1f
02
00
06
e3
13
0d
d2
e9
35
1f
ef
00
05
e8
08
04
21
29
f7
16
25
f3
ec
0a
00
e0
e1
f7
10
e1
09
0e
0e
0f
19
0b
1f
fe
ec
e9
f6
f9
f1
ce
d8
f9
08
38
28
f8
04
07
3f
e5
20
15
09
0f
f8
fe
2b
41
0c
ff
f7
24
11
d8
b7
e2
0f
f4
f4
ee
f7
0b
31
2e
07
18
0b
e3
0a
d7
00
16
2d
12
00
d6
de
f6
1b
f1
13
11
45
05
38
ec
1b
14
e2
f9
f0
e5
fe
ec
12
c4
ea
ed
23
dd
fc
f0
fd
0e
e7
d7
1f
fa
09
fa
fb
04
0e
e2
f6
02
ec
04
0a
fc
e7
32
09
d6
f6
e4
f1
ee
dd
e4
de
29
f0
e1
fa
0c
e2
f7
e5
e9
da
12
e3
08
f4
eb
01
1b
f3
f8
e2
0b
e7
ee
fd
15
08
ff
d7
1c
00
21
1d
d6
09
c0
ec
00
0b
38
0a
02
18
1a
26
f6
04
d5
fb
1a
e0
23
e4
d5
bf
f2
28
06
1c
0f
f7
21
e0
1a
f0
f0
e7
10
ea
08
0f
ca
fb
d7
00
d8
ed
04
24
26
0f
ed
f4
f7
e4
12
fe
d6
d0
ff
cf
18
04
1a
eb
10
de
eb
1e
28
e7
06
27
03
27
06
ed
31
0b
11
f0
fe
c3
f2
0c
21
e6
ca
1c
3c
f3
d3
0a
2f
f7
0b
e0
f0
fb
0d
e8
e5
01
f4
fb
d6
57
eb
03
46
29
29
0e
03
1e
ff
01
15
e1
e3
f2
0c
18
d1
22
e5
d9
10
20
f2
ea
d8
db
21
fa
1b
02
ef
52
18
e7
f0
fe
0f
32
e6
08
fb
f6
05
d6
2e
18
e0
30
df
1f
01
d8
e6
09
bf
ef
f3
17
fb
0e
0e
13
08
d2
d0
e5
1a
fb
0f
20
02
e6
14
f7
c4
08
fc
f2
16
e0
1d
cd
f0
df
19
e9
18
54
0d
f5
04
f7
f5
ee
ef
dd
c9
00
e5
e9
e3
af
09
0c
f4
ab
cf
17
1a
c1
d6
1b
d2
ca
13
19
04
3f
36
e1
2a
23
1c
21
1e
fc
1c
e4
21
df
fc
19
12
de
03
04
e1
0e
fa
e0
f2
0e
37
2c
2a
ea
24
ff
01
e8
d8
10
16
fc
fc
ef
f0
fc
0a
f0
f8
02
e1
04
03
03
35
f3
d1
12
e2
46
14
29
14
01
0a
10
e2
ff
ed
26
19
fb
09
f5
f7
01
ea
e3
fd
bc
f2
ff
0e
08
ef
0d
f2
11
1b
13
01
bc
f1
15
13
e5
df
11
e8
f4
06
34
f0
fc
db
0d
54
07
0c
f0
12
22
f0
04
a7
d5
f9
e9
fa
f3
f5
0b
e1
fe
e1
1a
14
cd
df
f2
e3
ff
2c
fe
0d
d8
21
1d
ef
1c
14
0f
29
19
0e
ec
f4
0e
f3
05
bd
09
f5
15
24
2d
13
10
06
05
0a
f9
de
f2
f2
f7
04
f6
ff
1f
f7
00
ea
1a
f0
0c
1f
e1
0d
1e
dc
d1
e7
09
1e
d8
12
d3
f6
04
e8
f8
d6
fc
e6
f6
ed
e7
dc
09
1b
2a
f5
e7
cb
ed
10
1e
01
fa
ff
ca
2d
fc
11
ff
08
0d
07
e8
ff
df
ea
16
0e
e0
f1
fe
ee
fb
d6
cf
10
07
2c
ed
f3
19
dd
21
20
0e
cf
11
c9
1f
04
22
ea
15
0c
24
d5
d3
22
02
da
1a
f4
07
f6
0e
02
e5
e4
15
0a
32
19
16
fe
f0
18
1a
23
05
d4
e8
04
0c
0a
1f
20
18
11
e2
13
d5
c8
f8
eb
ef
d8
e4
ef
13
d3
e4
ed
04
28
0d
be
f2
17
f5
ed
ec
e1
33
14
1a
0a
f6
0a
e3
21
e1
da
f7
14
d8
f5
f0
fe
d7
1b
2a
04
19
09
13
d6
00
05
0d
e0
d2
d0
db
df
03
13
19
d2
1d
14
1c
a6
1e
1c
3e
e2
ff
fb
fa
fe
e9
ef
0c
0f
2e
df
2a
02
bd
b5
d3
12
e1
e9
3d
15
09
1a
f5
28
2d
15
13
05
43
f8
dc
0c
25
1c
dd
b1
26
0e
03
dd
1f
dd
f8
f5
d8
f9
1a
f3
e1
12
02
0f
25
23
f9
0a
16
01
1b
f0
df
04
07
1d
12
09
d8
d9
10
d9
ef
e6
fd
47
d7
14
ec
1c
26
e3
16
27
2f
fc
eb
f2
f6
29
fc
fd
dd
11
cc
f0
fa
c9
e6
05
3e
f6
fe
f0
06
f9
e6
e4
26
37
10
0a
fe
ee
bc
ef
14
f8
fd
f1
f7
da
2e
e5
1b
f8
e4
fa
ca
df
eb
ff
e2
0a
18
f7
0a
34
3f
f0
fd
18
ff
01
15
1e
fa
e2
11
fb
e1
f7
ee
f9
01
34
e0
0c
f2
df
35
ed
cb
d2
e4
06
11
f2
d2
18
fb
c9
df
13
fe
f8
b6
29
1e
1f
4d
f2
f2
15
22
37
e6
bf
2b
15
0d
fd
ea
f7
05
27
d7
d9
f9
1e
10
0c
1d
0f
ce
02
03
2f
13
02
01
09
f3
21
e4
f1
10
23
21
01
e6
ee
28
04
03
e0
0d
0f
f4
f8
29
ef
ee
f4
05
12
10
1e
0a
27
f0
e9
20
0e
39
da
1f
e5
15
03
08
f5
05
e4
23
19
25
1a
e6
06
fb
16
04
fe
0c
fe
cf
12
23
00
0a
d1
db
3b
2b
10
df
cf
02
f0
df
04
de
2e
e2
ef
d6
04
1a
12
0a
35
fd
f8
0e
f9
4e
08
1a
ee
f3
df
1f
1c
1d
4a
18
06
07
fc
11
f9
0d
d6
ed
18
d6
1b
f1
23
18
e7
d5
3e
06
37
c1
dd
05
f3
20
fa
fb
ec
d7
fd
dd
f8
1b
0e
eb
11
e2
e0
cc
e9
14
db
0a
fa
ea
d1
0d
ef
1a
fd
24
03
f2
f5
2d
08
fc
bd
e1
01
12
f4
e0
d5
fa
04
e0
f8
da
1c
0d
ea
e5
fd
0e
01
de
05
07
c4
fd
1a
df
f1
e3
f6
16
ff
f7
ec
f6
1e
e4
df
1a
04
10
27
05
c5
02
dc
09
18
2c
2f
f9
06
f0
fb
fa
15
fb
09
d7
11
06
31
f8
09
05
ca
f9
6d
2a
14
ca
0d
0d
ee
c9
f5
04
05
13
04
fa
0d
f7
0f
b3
dd
d3
0b
02
df
09
da
fc
f4
38
f7
ed
01
fc
fd
e0
24
fe
f0
03
dc
02
f4
e1
c4
4b
31
d4
e7
ea
ec
f9
1a
25
f3
cb
ee
1b
ea
2f
dd
eb
f8
09
0f
14
f2
f2
01
e4
e8
0b
f0
26
24
0c
01
fa
e6
eb
0b
ff
33
08
3c
19
dc
f8
13
ea
34
f0
eb
15
16
12
1c
10
39
f9
f0
12
da
ff
df
e7
e3
bb
f4
3c
f1
fe
f7
19
4e
db
15
09
23
d3
d3
1e
10
1e
ff
35
cf
01
df
08
12
f7
f5
e8
49
df
f0
15
f7
e6
f8
05
12
00
13
1d
fe
31
14
e6
f2
f8
11
e9
e3
f4
22
01
16
1e
fe
d4
26
fc
fd
f6
10
e7
f5
09
fd
e7
ec
1c
19
2e
ec
ff
07
07
e7
fe
f1
f1
10
00
b1
d8
e5
ec
d4
fb
1c
b2
e5
07
19
02
fb
fa
0d
d2
06
f7
01
f6
c5
15
e0
fa
f5
1c
02
ec
07
d5
fd
ef
d2
f9
0f
d6
f5
ee
4e
46
37
f9
01
30
24
20
00
fd
1c
23
2b
ee
ec
42
18
19
df
f5
f3
18
f1
f8
00
00
e9
fc
05
f0
f8
02
f7
06
da
2d
f1
0f
fc
f1
26
12
0b
2e
13
2f
0b
21
ff
1e
fc
e9
1a
fc
08
26
0b
04
12
27
01
21
d4
06
08
e2
eb
d5
2a
23
30
00
fa
16
fc
ae
bc
f2
05
e8
a5
e7
f1
20
10
0d
fd
da
30
e5
d1
f1
ce
c3
c7
cd
df
03
1f
e0
01
19
09
ff
f8
f2
f3
de
0c
00
1b
1f
ff
e6
e0
0c
15
ea
e2
15
0f
11
ff
14
27
1b
cf
f6
18
fe
03
db
1e
1f
f0
1a
e1
f9
1c
03
d8
e2
14
e6
e9
f0
e6
ec
ff
39
08
f4
f3
f5
05
e3
c8
19
21
f5
09
b8
ed
0f
2c
db
e8
db
ec
1e
d0
dc
e9
cd
f7
e2
cb
15
f9
db
f1
ff
13
fc
02
0f
17
ff
e4
0e
ae
f5
e2
04
f7
e9
08
15
07
ee
c9
07
02
07
f6
17
07
27
1f
08
fd
02
f8
25
13
df
2d
16
ee
24
dd
c2
0d
2d
fb
d1
f0
ee
10
05
cb
08
ce
0c
f3
07
fa
ea
c5
f5
01
2f
1b
f6
08
f4
1f
ea
f8
2d
1f
00
fd
f9
24
06
fb
1d
fe
17
06
f8
f0
e8
12
1c
f6
15
fc
0c
db
fe
0c
f7
00
0b
0a
07
03
0b
2e
04
10
fe
00
f4
10
2a
2a
01
3a
d3
2c
cd
df
51
f7
45
03
05
08
24
f2
ec
08
f6
1c
08
20
0b
b5
fe
c8
0c
fb
f2
dc
dd
09
f7
0f
e6
c4
e6
06
ec
e4
04
fc
e2
ea
f2
ef
e3
0e
df
04
f0
ea
ee
08
0c
e9
d0
1f
11
c8
1a
e7
0e
f6
f5
2a
0f
f8
e1
09
ee
34
11
3a
14
e9
fc
ea
12
f5
1d
00
f8
1d
2b
f5
f9
fe
fd
0b
0d
e8
d8
0e
0d
38
00
db
f7
18
f7
14
2f
14
27
1d
07
e8
fc
1f
24
0e
f8
dd
e5
b3
e2
27
15
07
06
0b
0a
f1
e6
fd
03
16
d2
3b
e9
08
ed
1d
01
05
0b
e6
05
ea
fb
27
e5
21
45
fd
08
14
fa
e6
11
05
f4
05
d4
f3
f4
15
f4
01
e6
dd
02
06
f2
fd
e1
1a
16
fa
d9
13
11
d6
ca
09
f7
f8
2d
0d
02
fa
12
23
f6
d7
b7
fa
0d
f0
0f
f1
f2
0d
06
d2
e9
20
20
ee
05
ef
e8
e1
16
19
00
00
f0
02
f5
10
ff
f3
f3
df
f2
1a
f4
f1
05
cf
16
c9
06
d5
0c
16
d9
f3
e2
f9
f6
05
ed
cb
df
cf
08
cf
02
f0
e9
eb
f2
35
1e
c3
07
26
04
10
f7
03
f8
f1
ca
03
dc
28
fc
07
08
ef
fe
fe
14
24
d1
eb
2e
1e
f2
e0
05
0e
21
2d
db
c9
0e
2f
0a
cf
01
15
04
fa
ee
fe
ea
ee
d4
d4
cd
e7
f1
d8
df
cc
ff
2e
29
d6
dc
08
28
1f
fe
07
2e
1a
11
3c
36
0a
3a
03
1b
10
24
3a
19
33
ec
f3
20
04
01
f7
19
ed
f4
15
00
fd
fe
20
00
0b
1e
10
23
37
12
ef
f1
0c
fe
f3
06
d8
da
01
0e
f1
e1
e1
11
05
e1
f7
d9
10
2f
f7
03
03
07
2a
03
ff
02
08
01
08
04
fa
13
ca
fa
f3
2c
d7
f9
e1
25
e8
36
39
04
12
e0
41
1a
15
f6
06
2a
08
01
1e
1a
0e
d7
13
e3
03
2d
f3
0b
09
0d
03
23
1c
f3
c8
0f
27
12
f5
f8
04
04
0d
10
17
ed
fe
f5
31
10
0f
ff
ff
2a
06
1c
f4
f4
1c
20
1e
e9
11
0e
0b
eb
05
11
14
1e
27
c0
e0
e6
24
3a
01
ed
c9
fa
15
06
dc
fc
40
10
0a
0e
fa
e1
28
12
02
e6
f0
ed
f1
df
fb
ed
32
12
07
1a
e9
e8
38
24
f6
f6
2a
06
02
17
35
21
4a
1f
1a
09
12
fd
19
fb
e7
fa
07
fb
ea
d3
b8
02
0c
aa
24
fd
07
e7
e5
33
f9
16
16
f0
1c
0d
ee
ec
f3
1e
2a
07
12
e2
e6
0c
15
10
ea
f7
f3
0f
06
2b
f5
17
16
20
11
fe
07
18
d6
f7
14
16
1d
2e
2d
d7
ef
e5
f9
09
f8
14
c6
e9
0b
17
ec
d1
b7
fd
f0
1e
db
f3
19
0a
e8
ec
26
01
0f
28
06
e5
ea
e8
33
29
15
f0
09
0a
14
00
1f
f8
f0
03
04
f5
ed
02
f3
11
0c
e6
37
02
0c
07
e5
05
09
25
0d
f9
f5
f1
09
23
e2
17
03
12
21
f0
e9
fe
d8
0d
f4
03
e9
ea
10
0e
03
f9
13
42
0b
06
ff
22
e5
01
2e
0f
05
08
14
f7
e9
d1
fc
e7
f0
2c
cf
fc
f3
22
30
f7
39
06
06
f8
f2
2e
f9
16
ec
f1
ea
fe
26
f1
fa
f8
0a
53
f1
06
07
f2
18
13
f4
c4
e6
f9
ff
0a
09
0f
ea
e9
25
09
01
11
fa
22
26
f6
18
04
eb
f5
fb
20
f5
1e
0c
d1
f9
15
0e
12
02
0d
f8
22
04
3e
12
dc
0c
11
f3
0f
0c
04
05
2a
0e
51
1c
eb
2a
40
13
18
fe
3b
e0
01
f2
f8
13
fc
ef
dd
0f
49
fa
da
03
df
2e
17
bf
22
ee
f5
26
2f
db
25
3d
15
14
0c
fc
f9
2a
fc
37
05
11
1d
0d
27
db
24
11
0a
11
0d
12
0c
13
f8
e9
23
3b
eb
1a
f6
fe
f3
05
05
28
f6
07
fa
e9
1f
d8
fa
e5
08
0f
d0
0b
09
0f
f9
0e
31
41
04
ee
f1
0e
22
1b
0f
f7
15
c6
e5
e9
e6
02
04
f5
e8
09
08
eb
f9
f5
24
16
0b
f0
fe
1e
17
19
00
1a
00
ef
f6
cd
fc
e5
18
1c
ed
ec
da
d6
e4
cc
da
00
f0
e7
f1
ef
15
ce
db
14
06
db
fa
03
14
fd
09
00
f4
e8
08
fd
fc
00
14
d7
05
22
10
f3
f4
fa
00
26
ff
e6
d3
10
16
17
06
29
09
0b
e0
05
ed
17
05
29
fc
ef
10
06
2c
d8
0f
1c
23
30
1c
22
0f
f1
28
e2
ca
d8
27
01
ec
05
f8
0e
1b
e2
12
36
0c
f9
db
1d
fe
f1
f2
30
23
e0
0f
e3
eb
0e
f8
10
e9
06
0e
05
2c
08
23
fc
0d
ca
01
21
24
f4
0a
34
09
30
20
f0
0f
22
f1
cc
f2
02
1e
eb
d7
0e
0b
03
05
27
0b
02
ef
f0
f4
02
f2
02
3c
ff
06
1b
f3
04
ff
eb
ca
20
04
3e
12
02
f1
eb
1f
0e
e3
09
ea
0b
dc
00
1d
06
ee
12
08
25
fa
0a
e2
f5
3b
15
0d
fd
11
ed
f9
02
f8
f0
f1
04
10
f9
11
19
da
0a
0f
fb
ca
e7
e0
0b
0a
f4
f5
0c
0a
e3
f4
f6
07
2a
12
ed
e7
ea
09
08
eb
f8
dd
0f
fa
e6
11
03
12
09
ee
fa
19
22
ec
dd
2a
34
03
03
22
0d
1d
fc
23
4f
ed
fd
f6
da
e8
17
0a
08
fd
30
0e
27
13
ef
20
e6
33
15
f3
09
fe
05
0d
ff
2d
e0
09
db
f7
00
dd
fb
00
dd
fb
08
19
1d
1b
08
12
e9
f1
ce
ea
fd
e6
16
f2
e3
08
3f
f6
f9
fb
ff
10
f6
ea
1c
25
ee
d0
f8
e8
d5
ed
f9
e1
02
0c
1d
0b
fd
ef
f6
0a
1d
19
ec
3c
04
00
f2
fc
01
0b
0c
f0
fe
f2
d2
f5
01
c4
06
06
fa
e8
fe
07
24
33
1d
0b
f4
18
cd
e4
0b
d8
11
f6
dc
f5
0b
19
f2
db
f4
d3
ee
f0
01
db
dd
0d
1d
13
00
f9
27
01
18
fb
0c
03
33
00
e7
1b
09
f3
0f
de
e8
ed
0f
05
01
e8
fe
f3
e2
04
aa
06
26
d6
e8
29
df
e7
0a
fb
f4
c5
e0
20
09
f6
f6
eb
ec
0e
f9
da
04
d7
e9
05
17
fc
f7
cf
e4
f7
eb
f4
0d
15
0a
1c
0a
31
36
22
1f
d1
08
1f
0d
25
f5
0f
dd
40
f8
ef
d6
ea
1b
f7
e1
e9
14
eb
02
fe
c9
00
fd
f4
d8
fc
df
0e
0e
3d
e2
e0
0e
e5
14
e7
12
fb
ec
f9
14
25
d5
f0
26
1d
fc
12
f9
f8
08
02
fa
f6
bc
10
07
03
03
c9
bf
02
05
0f
f4
16
fb
04
13
02
ea
28
00
05
16
40
08
f1
1f
26
04
07
ef
fd
f9
e9
f6
00
ef
f9
e9
f8
22
de
00
ff
00
13
ed
06
e2
e6
1c
32
1d
2f
0a
fe
16
02
d1
1b
10
0f
d7
11
16
22
fe
0a
f0
fd
23
eb
ff
fc
f8
cc
03
fa
ce
17
fd
06
e3
f8
01
ef
24
f5
05
1d
39
f8
df
e1
49
0a
07
ee
0c
2e
dd
27
1c
e9
e2
f9
16
ef
21
00
0f
f1
03
fe
f5
f0
d7
30
08
07
16
07
e8
ec
23
ef
f6
2a
f3
fe
18
14
08
40
f9
d8
1b
f9
44
25
dc
00
fb
f4
25
e7
f4
36
d6
fb
ff
f0
0f
04
1b
1d
17
f5
1d
08
ec
ee
f3
e1
15
32
cf
f2
ff
d9
fe
f8
e0
1b
d3
17
f9
09
e8
f6
ef
0c
12
09
f8
28
ec
c9
0d
01
1c
10
0d
1c
13
10
09
ed
fe
bb
ec
ea
31
f0
0b
f3
ee
08
f2
01
0d
19
f7
d2
e5
1f
23
fa
1c
d6
06
fc
d9
0f
2c
03
f1
23
14
fb
03
cc
22
06
f1
f3
0e
1a
f8
d0
17
e4
0a
05
e8
ed
06
d7
de
de
09
f2
07
df
41
d8
d3
fb
c3
0c
09
0f
04
e0
04
ef
29
f7
1b
f9
01
f6
10
0b
f6
0c
17
26
24
02
01
f0
ed
da
d9
02
cf
de
f8
df
14
ff
0c
c3
be
0b
d1
f8
f2
ca
e3
e0
16
1d
f8
f9
2d
ef
08
da
fd
09
04
13
fa
d1
d7
cb
de
e3
f2
d8
13
0d
f6
e7
df
e4
1f
f6
13
dd
28
0c
ea
0a
e7
0f
07
da
1e
01
f3
fe
0a
08
e8
e4
ff
0b
ef
2b
e5
de
dc
1b
22
17
fc
fe
16
25
2b
01
f0
de
e2
08
02
06
08
ea
00
10
d9
1f
14
dd
ed
d1
e6
ea
06
f1
e7
d7
ec
e3
14
d6
f6
f8
fc
2d
c4
20
0b
0a
29
33
01
30
13
29
f6
e7
1a
e7
12
04
f6
fd
03
c2
d4
f5
31
1f
0d
f0
11
f9
16
08
cf
f6
c4
06
fa
f0
10
d0
fa
03
05
05
cb
ff
ec
26
0b
04
f7
52
1d
f2
05
18
0c
e3
fd
f6
f6
0e
30
03
30
25
f3
f9
e4
39
25
ec
0b
e7
44
1c
fb
21
03
e0
ee
01
31
d3
f1
cb
f2
f2
d7
ec
bf
da
f6
43
ef
fd
05
e7
13
fa
00
2c
d7
e5
f7
e9
1b
09
05
f3
0c
dc
13
07
21
bf
ff
1a
00
d8
fa
cb
cd
f0
f2
ed
f1
13
f0
d6
09
e9
02
d6
32
fc
eb
e0
16
ce
da
dc
dc
06
dd
ab
e8
e5
cc
e3
fe
f2
d9
b5
d0
f3
01
0d
03
0d
47
0a
04
d7
e5
21
fe
f6
29
f4
17
fc
e0
fa
fb
f9
f6
e9
fd
06
cb
00
06
04
fa
2d
f8
d1
2a
1a
e0
f1
17
35
e5
01
da
02
f9
06
eb
2d
d5
ee
fe
11
ef
ec
f0
1f
f4
0a
f2
0e
d4
20
40
18
f7
04
13
ea
05
e6
da
e7
16
0c
f9
f8
25
c7
d8
24
19
1e
53
f4
0e
fb
03
ff
01
0a
1c
18
18
d4
d7
22
d6
d5
d2
fa
1d
25
15
27
f0
df
d0
25
18
08
e7
f2
04
04
00
0a
01
00
02
2a
0f
f5
0e
0a
dd
f3
ed
23
09
17
18
ea
05
de
f2
0a
1a
06
14
fb
12
09
24
d5
f4
22
17
f4
d5
02
ce
fb
1c
09
08
14
18
02
e0
e2
04
14
e6
01
f3
de
f8
28
ff
04
0c
0d
49
d3
06
eb
e8
e2
0f
eb
ec
22
f5
2c
f4
0e
05
47
05
0a
0f
22
e7
09
f8
ea
15
01
f5
0c
fc
1a
d6
ed
c2
04
0e
f3
08
bc
de
fa
ff
05
d1
03
d7
0a
ee
de
22
ff
e9
20
03
fc
c2
08
0c
dc
13
0b
41
28
00
f5
16
19
29
07
00
dc
20
fb
22
06
07
16
0e
0a
da
fd
05
28
ee
f8
07
ee
06
e9
d7
2e
14
c8
ea
01
ff
e4
01
1b
f4
ca
f0
d1
26
fb
e4
f4
ef
ee
07
f0
32
12
f6
16
0e
18
1d
e2
03
3b
08
f7
e7
0d
ea
f6
ce
a4
02
0c
f8
fb
07
21
28
0c
21
e6
eb
e3
24
00
cc
fa
17
0a
03
d5
03
ec
02
fb
d6
d7
35
f3
02
0b
fa
ee
25
08
d9
07
10
25
1d
f3
f1
15
fc
0c
17
d4
ee
0a
f6
18
ac
d0
3c
ee
f4
05
1f
27
12
1f
f8
07
e8
f9
1d
d6
1e
f3
12
15
0b
02
e9
e4
c5
d6
f9
f6
ff
16
27
c9
f8
08
08
31
ef
f4
ec
0c
f8
14
0e
d1
09
d2
c8
b5
10
17
d2
02
cd
d6
2c
e5
d4
25
37
ff
0b
1a
22
fd
01
f6
1e
0c
14
14
f1
f5
2f
0f
14
f7
d0
dd
04
ff
ef
ee
e0
00
fd
03
ec
09
0b
1c
23
e7
fa
46
de
01
24
13
25
ec
e3
17
ea
1e
0d
d4
0c
2a
0d
ce
e6
01
fd
e2
d6
e5
de
f1
0b
16
fd
e9
0f
f9
f2
ff
21
10
15
f6
12
02
22
ed
de
fb
d0
1a
e6
08
1f
23
f9
f4
e3
07
da
f6
17
d6
e6
f4
e6
fa
f8
18
09
1e
14
ff
f8
12
e9
00
f2
17
08
0f
fe
f9
03
4e
05
0c
0c
c1
f8
16
da
f1
00
0e
1e
fe
0d
12
df
ef
1a
0a
ee
e4
c6
12
07
e6
18
cd
07
06
f2
0b
08
10
e4
ec
1c
18
ed
eb
0c
08
d9
df
08
ec
22
f8
00
f2
0a
26
e7
0f
e5
01
09
dc
09
f3
fa
fb
15
01
dd
0a
10
0c
fc
bc
f5
06
d6
0d
f4
e8
e4
f9
dd
e5
a6
cd
ca
e9
25
ff
21
ee
f2
10
f0
1b
f8
f3
08
fb
ed
df
f1
f5
de
08
0f
01
cb
d3
d0
0b
ec
f8
c3
fd
0e
29
03
fa
fc
04
0d
f7
3a
0d
16
f4
db
12
0b
d3
f3
fb
de
dc
ea
f2
08
f5
25
ff
24
f2
d2
ff
df
db
da
0c
ff
db
f6
07
da
01
1b
fe
17
ec
f3
07
fc
f2
18
08
01
09
04
c9
1d
05
fe
3a
21
ed
eb
e9
eb
09
d8
02
f8
15
f9
07
1a
01
e8
1a
1a
2f
04
0a
1a
28
1e
02
ee
2a
e0
dd
39
10
06
fd
04
cf
f5
fd
2b
12
26
31
ea
fb
35
04
cb
30
c3
0a
e4
00
ed
1c
02
e4
e1
0f
19
02
d4
07
cc
e3
0b
eb
b9
d3
b7
01
ed
df
f6
e8
21
e3
d5
16
f4
15
2c
e2
12
fb
cd
14
0a
03
da
19
e4
ef
d4
09
51
0e
d8
ef
11
3a
21
1e
23
f7
0b
0f
0e
fb
18
f6
da
f7
18
07
d4
dd
ea
de
1e
2c
f8
17
06
1a
25
dc
12
f6
ff
dd
15
fd
04
fa
06
13
15
0c
ed
03
d7
e6
de
ea
0c
f6
ef
01
db
1a
de
fa
13
00
09
28
d1
12
12
05
fb
05
15
17
25
18
1f
f4
ef
fe
dd
f2
01
f5
f6
fa
11
14
f3
0d
1f
f8
04
16
f4
0d
11
0f
fd
2f
ec
d8
df
05
2b
04
07
f0
e5
fc
11
2b
0a
22
48
2a
2b
0a
d1
0f
0f
02
1b
0e
12
d0
07
f8
06
1b
eb
dc
02
fe
f1
f8
be
f5
02
fa
13
d2
db
00
17
07
f4
e4
2c
0f
1b
fb
fd
22
11
11
ef
01
15
04
03
05
0a
e4
c6
ee
f1
0e
f9
df
ed
02
f6
18
e2
eb
03
bc
e0
00
07
ca
fc
fc
0f
10
10
05
ed
0a
ee
e4
1a
18
eb
d4
2c
32
0c
0d
08
12
f8
1b
ed
42
e9
f6
d5
10
0c
e3
08
1a
37
12
e7
f4
eb
01
d6
f8
e8
e2
de
e1
d2
e4
e7
16
e4
9d
ea
e9
df
f0
f1
23
18
f3
e5
f7
14
20
17
ff
cd
f3
df
fc
f8
f3
fa
20
38
08
dd
f0
0c
02
f2
ef
0c
f7
0f
f3
0f
10
3e
49
35
ec
09
db
1d
f6
ea
26
21
35
27
fd
f6
ec
32
23
eb
f3
e9
12
e1
11
e6
37
fc
e2
0a
fa
d8
f9
fd
ee
02
f4
3d
fd
08
25
03
01
0c
2b
02
18
2c
fc
16
11
22
fd
e3
36
06
1e
0d
e1
01
fb
34
18
f8
dd
dc
ed
13
1f
ca
e2
04
0e
17
f0
e6
0d
dd
e1
e4
d9
f1
c5
d3
ef
cb
fa
19
1a
18
2e
07
31
04
f5
09
e3
12
d9
27
e5
ed
f0
ce
2f
06
fe
00
0d
e5
f5
ee
08
13
e7
0e
34
f1
fd
fc
0a
0f
0c
0b
e9
e7
dc
ce
c7
f1
02
10
10
e2
f1
0d
cb
aa
1d
fa
1d
fd
0b
e6
14
13
1a
10
f1
28
27
1b
2e
da
22
07
30
06
05
d2
f5
f6
11
08
0c
2d
1d
29
15
0e
1f
00
16
1a
10
1e
07
08
25
0a
07
06
09
4b
06
ee
e1
ec
ef
fe
0b
3e
01
ef
21
19
17
e8
f1
17
0b
f9
f3
c3
2a
11
11
3b
38
06
17
0b
32
2b
c7
e1
18
0e
01
11
d5
d4
13
ec
d8
da
03
35
f6
e0
e4
f0
df
0f
2d
2d
1a
e7
00
f1
f5
f1
24
e9
d0
2e
ec
ee
f9
ed
e0
cd
04
18
ec
f0
fa
fb
08
0f
13
19
39
00
fd
e3
f6
eb
0d
dd
f4
ed
e0
dd
f7
e2
02
c0
0f
01
1b
ff
0a
f0
e8
fb
23
09
30
e9
f0
e7
05
13
0c
30
1f
25
0b
3d
2e
0e
08
0b
f8
05
11
d4
f1
05
e2
d1
f9
be
f7
e3
fc
e6
17
dc
18
f1
0f
eb
da
f6
ed
08
c1
0f
04
f0
08
f4
fa
ef
de
ee
d6
fa
0a
f5
d4
d3
0b
22
f1
da
cf
dc
0b
fc
01
ba
e6
e3
e9
e9
f9
d6
d2
de
f6
17
ef
e4
c7
ae
1c
2e
07
00
e2
db
1c
20
42
f4
dc
24
0c
3e
1d
f3
08
fd
ff
10
3f
fc
f1
1c
00
2a
e0
fe
c1
e7
cb
0a
ec
00
fe
d2
07
0a
ef
f5
e2
dc
c2
fa
07
2a
e9
12
24
04
14
06
33
00
ec
21
e4
07
06
17
e5
0b
33
0c
35
fb
e6
2a
f1
0a
0c
03
0e
19
0c
08
01
1e
13
0f
ef
ff
f2
06
d7
11
e0
e8
17
e0
07
f0
ff
22
25
41
01
df
da
2b
31
04
f6
17
27
32
f9
00
e1
00
fa
fd
f3
fd
0b
f8
d6
fb
ed
40
1a
f7
f2
e6
fd
10
f0
f7
c1
28
03
e0
f3
f9
cc
fb
06
fd
d4
fb
d3
12
f2
d6
d7
f1
07
16
0e
f0
cc
24
1a
14
ed
1c
1c
1a
f3
05
00
0d
f6
0a
1c
16
b8
d4
e6
01
f6
cb
e3
d0
cd
eb
11
d3
0c
db
0b
f5
f8
10
0e
13
d4
fa
fd
0f
c5
b2
12
e9
02
d0
b5
e8
e4
00
d8
fb
ef
ed
04
21
04
ed
04
e3
f7
da
fe
0a
f6
04
ee
d1
11
ca
e0
f0
fa
e9
1c
0b
0c
d4
f8
ec
e2
13
f9
fc
0f
03
1b
fb
18
0a
04
e2
13
2d
ff
0f
ed
d5
06
09
02
20
3c
d4
25
14
1f
2f
1b
23
07
fd
06
0c
0e
d1
01
18
4b
13
46
de
1d
23
d7
f9
4e
f8
03
25
26
20
08
19
11
02
11
cb
15
ee
0c
fc
07
10
00
13
f7
e0
ec
03
ff
10
f9
21
0a
2d
26
34
fb
19
1c
1f
f7
07
25
23
ef
05
1e
15
2c
dc
e6
13
e4
d0
10
ea
16
e1
1b
fe
f9
17
f8
ef
ca
fb
11
ff
ea
c7
dc
f2
f3
13
ec
d2
f0
f8
fd
09
f3
dc
23
d8
ff
20
1f
25
e5
07
b3
ff
f1
f5
0f
ed
07
02
0d
0d
f4
13
05
2b
e7
0c
08
0b
fa
0b
04
0a
20
fd
1d
0f
f8
06
fb
0b
02
2c
f5
f8
e1
1a
fc
1e
e0
05
1b
08
0d
0e
f9
15
2f
04
09
ff
11
ff
ee
04
01
0c
f5
eb
08
16
fb
21
12
fb
21
2c
eb
10
16
fb
f1
0f
33
e4
14
0e
43
02
15
ef
d5
07
06
08
f3
ce
f5
e7
ec
f7
21
ef
c7
24
f4
fd
e4
e8
f9
cd
09
e0
d5
d8
f9
d7
da
04
00
aa
e2
03
05
0b
dc
ec
e4
1b
f6
1d
e5
f5
fd
fd
16
f6
0f
f6
0d
f8
ed
1e
3a
01
eb
19
c2
f0
0b
1a
fc
2c
14
0c
fc
0d
33
15
10
d2
12
e8
ea
03
e3
22
de
23
c4
fb
f9
dd
bf
0e
f7
bc
df
13
e0
3e
0a
00
02
e1
db
ef
0d
0f
ee
0c
04
e5
01
d1
fe
0e
ed
d1
14
05
05
27
df
0b
19
ec
1d
fc
e0
db
d3
0b
e8
b7
e7
f8
1d
d5
fc
0f
cf
19
06
e4
f7
ec
e6
0e
f0
f7
df
0f
13
ec
e9
02
1d
f4
f4
cc
f6
0c
f0
f4
ef
97
e6
e1
fc
e6
e5
16
ff
db
08
ed
e4
00
07
ef
f5
eb
cb
f8
b6
c6
db
c3
e7
1a
e2
c6
db
32
f6
d6
db
fc
ee
0b
15
19
ff
f1
03
e3
f5
0e
13
2c
df
02
24
22
02
dd
fb
30
1f
f9
24
08
df
08
20
f7
3d
15
05
11
28
18
0f
f1
ea
0c
27
3d
20
0f
2b
e2
0d
1e
15
2c
0d
15
d4
32
1c
34
0a
ed
08
1c
fa
02
20
22
ed
f7
3c
07
0f
e8
11
f3
08
16
f5
28
13
0a
d5
0a
0d
ef
29
19
07
e7
0a
0a
e7
07
3e
58
36
e3
cd
f7
ea
e7
08
df
e8
31
17
1c
d7
fd
16
20
1d
09
e5
07
f0
0b
2b
19
df
ef
e3
34
0d
fd
b8
fb
0c
21
ee
e4
08
2d
05
f3
f6
19
cf
d3
3c
fc
ba
e7
28
ff
1d
07
13
2c
29
02
f2
06
eb
28
e7
ec
f2
2e
23
f3
ee
d9
1b
d6
0e
cc
de
d7
e4
bd
d7
21
37
1a
e7
ee
eb
15
f8
d8
ff
05
f0
fc
e5
fc
f9
f7
e7
04
e1
0d
08
ea
1a
1e
0c
21
22
ef
48
f8
ff
f2
08
39
13
e0
25
f4
01
07
f5
04
17
fe
0e
d8
f9
18
e8
0d
fb
d8
07
e2
03
f0
10
09
b9
d4
e7
fe
0b
de
fb
dc
fb
df
ec
02
0e
f9
ff
f8
b1
f4
15
d5
36
18
01
08
e0
03
e6
f7
da
ea
09
f0
fd
d5
04
f5
da
1d
28
ec
fd
15
dc
ef
f2
1d
fc
d7
18
10
e9
fe
fa
0b
2d
34
00
21
db
fc
e5
18
f9
cd
31
2b
15
dc
fe
ff
22
08
d8
f3
00
1c
05
3c
ff
ce
08
13
05
0b
e0
e5
09
f2
e8
ea
f6
20
f8
05
06
19
11
23
23
11
fa
09
19
f4
f0
fa
15
fe
0d
0e
27
1b
2f
02
23
f4
f2
f0
ee
f5
1f
ec
ed
12
e5
f5
da
ff
08
c9
df
ef
ef
d6
03
e2
22
ed
01
16
f6
d6
f9
1f
d5
12
00
01
03
00
f5
0d
0f
d5
0b
0a
e1
03
00
fe
01
e4
2f
0b
fb
fc
f9
f0
f8
14
ff
14
0f
f9
07
f3
04
f1
d9
09
f9
cf
ae
df
d3
00
be
07
f2
13
f2
f9
d3
f2
28
e9
f7
0c
35
f8
15
e8
1e
ff
07
db
ee
39
33
15
e0
fc
08
ee
f2
b0
1b
f6
21
e5
ec
19
17
24
3c
35
2c
07
19
1a
bc
40
de
de
03
55
43
01
e4
f4
f6
f8
0e
f0
27
ea
f4
e9
23
e9
01
19
f8
0e
f4
f9
e4
1e
11
26
d1
d7
f7
15
1e
1b
c7
1c
ee
07
d2
ee
12
fe
27
0b
fe
eb
da
fe
16
f1
02
1c
19
09
fd
1a
04
0e
dc
04
38
01
0c
0a
10
1e
18
f9
f4
1d
fd
0c
27
f5
ce
06
fc
d9
07
0d
e4
24
2b
ec
01
22
ea
ed
eb
f9
30
32
04
f7
04
f2
0f
07
db
e2
d3
f6
26
fe
e3
e6
1d
07
27
1c
eb
05
13
39
24
16
f9
f7
18
31
f5
17
09
16
0c
16
f7
ea
ea
ff
f3
12
21
18
0d
db
2a
c8
dd
ff
f6
24
e3
d5
e9
e8
eb
f3
e6
e8
00
0a
2d
fe
25
17
f7
18
28
18
07
f3
ea
14
0d
18
0d
07
05
f7
e4
f2
f0
f4
2e
02
fb
0f
e3
f2
12
18
f2
01
f5
f8
12
03
ee
fb
0b
1f
1d
f8
1a
0f
02
23
f6
c8
fd
d6
00
d9
ed
12
15
28
d3
c6
d2
ed
f1
e4
1c
21
28
3f
d5
04
f6
23
1c
de
fc
11
1d
24
fc
33
18
0a
e1
34
f6
0e
ff
11
d9
10
21
1f
2d
ea
0f
31
17
ed
e0
d6
11
1a
25
f9
e1
ea
0c
21
fa
16
05
1b
05
f1
f1
10
d5
fe
02
09
15
e7
2a
00
e4
f7
fa
ee
1e
de
22
eb
cd
10
00
1e
f1
1e
f8
02
f6
07
02
fa
f6
1d
30
06
f1
13
fc
19
e5
0a
df
f2
f4
d7
d1
c5
e0
27
d6
00
df
d3
e9
f3
ee
f3
01
0f
e3
f8
f9
f9
de
f4
02
46
31
ee
fb
d7
de
ee
ed
ea
e0
04
49
22
01
b2
11
23
ff
12
c7
15
1e
1d
3b
f3
10
b6
15
15
0a
fd
de
08
21
13
fc
1a
ed
f4
05
f1
f1
24
2a
f2
06
d8
14
27
2c
f7
1e
fb
18
18
1f
03
e6
00
06
21
0c
0b
36
08
27
07
0c
f3
33
0f
ea
d8
ea
d3
f6
ea
d5
0a
ea
e4
18
dd
fa
e1
fb
01
ea
f2
e4
e6
f1
f5
13
0a
e4
f8
0e
44
fa
e3
d7
cc
ae
dc
03
e3
e4
f7
c7
e6
e0
05
ea
dc
ec
fe
10
dd
d0
fe
fc
39
21
fa
dc
00
21
2a
1c
d8
10
2e
36
18
1c
f8
24
f5
49
fe
12
25
08
3c
03
0e
01
ee
16
fd
0b
ff
15
f1
0d
ed
f7
dc
26
02
1c
14
f8
07
19
08
fc
17
32
f6
0d
05
18
e0
0f
f9
fa
ef
d0
08
eb
05
1b
09
f9
e0
0d
de
df
09
ab
0a
d8
ce
bf
00
01
d8
fd
2a
d1
0a
16
0f
40
f0
13
02
fe
05
0b
f1
22
17
02
dc
29
03
da
04
e8
04
f0
e5
1e
12
1c
0b
01
f8
05
bb
0e
07
fd
fb
e9
05
ea
05
f6
36
f6
bd
df
1e
f8
37
ee
33
2e
14
18
27
15
dd
0a
07
1d
f1
1a
17
f5
25
31
e3
0a
f5
fa
df
11
f2
fe
bb
1a
cb
d7
0f
f9
d7
d3
f3
28
f6
f8
00
e9
22
e4
e0
24
47
2c
f1
e4
02
02
3e
fe
e8
e4
eb
18
e5
f9
e3
0f
01
0d
dd
19
08
e1
0a
d1
f2
ef
1e
20
01
fc
25
f0
00
d2
0a
05
33
d7
fd
c4
03
0b
05
e0
fc
16
07
0a
ca
20
d6
0d
18
f5
11
ea
f1
f3
02
07
d0
ed
26
e5
f7
e2
b3
11
d5
d3
b2
f3
09
0d
1a
e5
e9
06
02
dc
dc
f1
d1
11
05
0d
11
e6
14
13
3c
ee
09
f4
07
1e
19
0f
0d
fd
0c
e2
02
0c
f5
dc
f4
f8
d8
03
d3
0a
ef
f1
ef
cf
d7
13
0e
ea
f2
d6
1b
3e
2e
3a
0f
24
1e
3d
2a
18
0d
e0
b1
da
36
e6
08
f5
09
32
fc
f5
21
04
fe
db
0f
04
03
df
0d
de
08
f2
f5
3d
19
fb
f3
11
e4
20
1d
04
f2
3e
23
30
00
e8
dd
ec
dc
2a
fc
06
06
22
ef
11
1a
e9
d3
ed
ea
0a
fe
07
fc
d7
13
11
f3
d4
cd
f0
c3
ce
b8
c8
38
ea
c1
e9
f4
e9
06
2b
0f
20
02
0e
ee
19
e5
de
07
31
16
0c
2f
25
02
0a
f7
09
f7
0b
16
ec
1f
f4
cc
e1
07
02
12
fe
03
27
f3
ef
0f
e4
0b
fb
11
e8
e2
a4
ed
26
ff
07
e8
0c
fe
10
fc
fc
e1
0d
01
4c
33
0a
fc
11
1d
25
10
0b
12
f8
07
d8
0c
f7
ed
04
cb
d8
d1
ea
0b
f0
05
cd
fd
33
c8
09
fc
d5
11
f2
07
01
e9
f3
da
08
08
06
e2
d8
05
00
0b
ea
ea
04
2e
f6
44
1e
0a
e6
ff
01
fc
1e
0b
03
0b
f1
11
0f
c8
fc
f2
dc
f2
0b
01
0b
ea
f1
d2
e8
d8
0d
ef
fb
15
fb
f5
e6
df
dc
2d
25
0b
f6
fe
f3
d0
f2
ed
f2
15
f6
fc
f4
23
f4
25
05
29
15
f4
2b
f5
e5
eb
f6
05
fa
0c
ee
f5
d8
f6
20
05
e0
e1
12
0d
24
e4
33
17
31
11
e8
f5
fa
1b
e2
19
fd
03
e8
00
39
29
17
fb
a4
0f
f7
0e
13
de
15
e8
19
1f
fc
ef
49
d6
e0
b5
20
08
c3
0c
ea
0a
23
12
2d
1c
ef
fb
e3
fc
56
0a
25
0a
f8
05
08
43
fd
fb
12
d5
f4
0c
0d
1f
ff
23
fa
ee
2a
15
fb
05
ed
10
1e
1f
26
16
f6
24
20
23
15
15
0d
e5
20
e0
0c
2b
18
fd
fb
10
2d
0f
fd
28
e8
19
e5
1b
02
06
eb
da
b4
f0
e7
0e
d9
f0
eb
02
aa
da
fe
f7
07
ee
06
fa
16
1f
fc
35
03
0b
16
02
23
f5
0e
df
fa
f3
ff
30
04
0a
ca
db
c5
bd
1a
28
09
c8
e3
fa
11
35
f7
ef
f1
ff
10
ff
d4
00
02
d8
e5
dd
07
0e
df
03
0c
f3
27
13
0f
06
ee
12
12
f6
12
18
ef
30
c8
0c
02
0d
10
fa
fc
03
08
04
e4
fc
fd
da
0c
0d
1e
d7
f7
12
ff
32
0a
0b
22
e4
dd
0c
21
fe
f6
03
fb
20
f7
08
0b
f9
da
e9
cf
ec
0b
16
02
ea
e9
08
e0
fa
e7
f1
e8
d1
09
e8
dd
f6
ed
e0
29
33
0b
1d
d4
07
fe
db
ea
09
e4
ed
c3
06
f7
11
cc
f1
02
fa
ef
1d
f4
f3
01
fa
04
d1
e3
16
f6
0a
d6
f6
f0
df
f3
ff
d8
14
17
ee
ec
da
e9
ed
f8
f6
ff
d3
03
2c
07
f3
15
0f
f3
fc
fc
fa
fc
d8
16
1e
25
4c
0b
35
2d
f5
05
05
01
ee
32
05
04
f9
09
1c
19
d3
fd
02
17
0b
ea
fc
29
01
20
fa
18
f5
e4
f2
dd
fb
ea
04
c6
fd
ec
fe
d4
df
10
e5
c3
e3
24
22
d7
03
d7
05
fb
0d
ff
ef
19
08
f9
0b
11
02
d3
06
ef
15
02
de
e7
05
11
f0
e6
11
12
ec
f7
f0
13
26
fe
dc
ed
fd
ff
09
fe
f0
f1
11
20
06
00
2c
2b
08
08
08
1f
35
2d
04
0e
e8
f5
12
11
11
e0
ca
b9
e4
1c
e8
e3
ed
f5
1c
e3
0d
c1
25
03
fb
f6
ff
06
f0
eb
f9
07
fc
ed
ff
19
04
17
1c
ed
f2
e8
16
0b
fa
1e
cc
f1
3f
ef
29
04
fa
32
19
ec
f1
e6
ec
ec
14
09
f1
29
e1
0f
f3
ec
15
0f
fc
f1
d6
fc
18
09
01
f8
16
27
0e
eb
08
3f
18
37
12
0c
28
00
37
1f
12
2f
ea
e5
27
00
f9
16
1e
c7
ee
fc
25
f9
e3
f0
ea
11
2e
0f
26
05
e2
e6
04
00
0c
f5
c8
02
fd
18
09
14
f5
01
2b
3f
20
0e
2c
f3
20
28
11
fe
db
05
15
e3
1d
f5
1b
2e
04
0d
14
e2
01
38
11
1d
fe
fe
09
14
e5
ed
f7
0c
00
f4
f9
ec
f4
1c
39
d3
f9
f8
1b
1b
e4
e5
e7
10
fd
fb
e8
03
d2
e4
f0
ac
bd
db
ff
d0
e0
f0
ea
fd
e9
17
16
35
0f
f4
04
07
33
14
1b
df
1d
14
ec
13
1d
f6
ef
0b
0c
b3
11
11
e9
e7
f5
16
f9
04
dc
02
e8
dc
f1
d5
09
f3
fa
f6
2a
d6
27
30
12
15
d8
06
29
09
0d
19
35
f3
ee
0b
32
03
e5
d2
25
2a
16
f1
fc
12
d1
e4
0f
41
00
00
03
05
25
fc
07
dd
08
33
c6
ff
f6
f6
0c
f2
08
ee
e5
d3
02
13
e3
e4
0f
23
e4
25
30
1c
ed
0c
37
1b
0d
f2
02
2a
fc
dc
18
2f
33
fd
f1
ee
df
bc
15
16
30
e7
d6
f0
db
b3
2d
14
e9
f2
02
dc
11
fa
05
11
f9
25
1a
2f
d5
eb
0e
01
f6
f5
fa
de
0d
f9
2f
0f
0f
10
11
09
02
e9
1f
c7
10
f8
de
e3
e0
f0
09
ed
11
ea
e5
d8
28
10
0d
06
12
16
f1
19
fe
2a
21
14
00
f8
d6
fc
ee
d1
15
0e
e5
10
e5
06
05
05
1d
02
f3
17
fa
0d
ec
1c
11
fb
ed
1e
e9
f0
f3
f5
10
2c
0d
e5
03
08
1a
1c
05
f4
0f
02
04
0f
cd
24
23
02
be
cb
16
0a
23
e0
e9
fc
12
00
e1
1c
fd
e4
21
10
f9
31
18
18
19
1e
2a
28
ee
00
f5
1a
40
e9
27
df
ed
d8
01
0d
26
1e
0c
22
f7
0e
03
08
0e
fb
fb
ed
2e
1b
eb
d1
04
12
12
1a
10
31
1d
f6
13
0a
0b
32
02
de
f8
de
f2
dc
fb
05
f6
09
0e
14
11
f9
30
18
04
20
f5
d4
cc
f6
f4
02
fe
04
0d
09
29
13
10
10
db
f8
1d
0e
17
f9
f1
37
3d
10
fe
fe
04
2d
12
f2
dd
f8
2f
f3
e9
d3
0d
23
03
0c
1b
20
f7
22
18
fc
03
1d
01
da
12
07
05
0f
eb
27
33
0f
07
09
07
0f
00
f7
1d
ff
17
f7
d9
2e
06
f0
c9
fc
07
13
04
fe
f5
14
19
16
05
f9
16
f7
f5
05
f5
0b
fc
f3
0a
de
e8
f4
ec
08
dd
fa
03
15
c9
fe
e6
11
03
f1
0f
f4
12
e7
0f
13
04
20
f7
f2
ff
2d
fb
11
ee
f5
00
03
e2
13
12
f8
01
03
07
f1
09
20
0e
22
0a
1a
19
e3
e7
04
11
19
01
e1
0a
0b
d0
08
50
00
27
2d
0f
ff
ee
47
17
ea
ec
08
18
08
08
00
f6
e4
08
12
0f
1d
08
d8
fb
f4
fb
2e
41
00
0a
22
f2
11
ea
2c
36
14
11
17
14
d2
e1
f7
46
1c
04
2c
fd
08
04
e1
31
20
e7
17
ea
1a
0b
f6
0f
f8
2a
e5
eb
cc
0e
fb
d7
e0
0f
f3
0a
da
16
0f
0a
1a
f1
f7
07
3b
14
19
e3
07
f5
0a
1a
07
11
e6
14
0b
f0
f0
f3
f0
f8
16
04
f4
0d
17
ad
c2
f1
d4
0f
de
dc
de
21
dc
01
02
0e
16
07
28
12
03
1b
10
0e
35
1d
0c
fb
12
06
1c
13
36
05
15
16
ee
4a
1a
cd
dc
03
eb
04
01
dd
b2
00
0a
01
d3
e4
da
0a
0d
e0
02
05
de
f4
18
21
12
11
fc
f4
04
fb
fc
df
e9
d1
f6
07
0c
fa
f5
05
19
17
f6
02
fd
d0
f3
01
f1
e9
ed
1e
11
d8
30
e2
1f
03
2a
0b
0b
3f
19
1a
ec
ee
12
21
1d
4a
0e
2c
25
02
0a
ff
fd
0f
0c
fa
13
ef
17
05
fd
0a
0b
e2
ea
1d
13
e0
dc
e4
2a
ed
13
38
ed
13
21
30
18
06
08
30
0b
1a
04
e1
22
e4
15
3c
52
f4
ee
ee
20
24
14
f7
20
0e
35
0b
e1
07
0b
da
f7
ee
d7
ee
e1
e5
d5
f9
e4
d4
fc
12
dd
e9
ed
f9
08
cb
ff
ce
f2
ee
d2
05
e4
dc
ed
f3
ef
ed
f4
24
e4
1a
fc
ef
01
e4
d0
bf
03
f6
e1
e7
c6
d3
fe
0f
0b
ff
16
f5
1d
f0
fa
00
39
0a
09
4c
04
f1
ed
05
e1
fe
f8
4e
fe
30
f1
f0
09
f2
13
01
c2
ec
f9
eb
e0
09
f2
e9
f2
03
07
f5
05
ed
2f
c7
04
ea
f2
fc
e5
00
f1
fe
07
fb
35
0e
ff
f4
e5
e6
15
f7
ea
07
25
e4
c7
e1
f0
eb
f6
24
ec
18
ff
f5
01
14
d6
e6
f9
1e
23
e7
ea
0a
0a
f4
20
e4
f4
dc
e0
14
f9
1a
03
09
c8
0e
ea
d8
01
09
07
06
ee
18
05
0c
f7
ce
17
07
00
df
f9
20
0e
06
f5
f5
f9
f5
ea
eb
da
ef
f3
ee
ed
01
ee
e3
f1
4c
07
ce
23
ee
37
f4
cc
17
d4
08
e0
f7
e6
e5
f4
d6
f8
2a
eb
1f
fb
da
fa
0f
0a
08
00
1b
dd
0b
1f
d7
21
fa
c7
00
fb
18
c5
db
10
0d
16
02
0a
ef
29
02
04
1b
2d
cf
f7
3a
ea
e3
14
10
18
ee
0b
19
10
fe
08
dc
eb
f6
19
04
1e
12
10
36
e4
f8
09
20
1d
fc
f2
f5
f0
df
01
03
da
d4
00
0a
c6
f0
12
29
01
3e
1c
fa
2f
0b
f1
e9
f7
ff
fe
31
f5
13
e7
02
39
19
ed
02
fe
ed
0d
4b
40
de
0b
18
04
01
07
ec
ed
d5
e0
05
01
fc
0c
e3
37
f5
1a
f7
12
fa
02
0c
0f
06
00
07
04
fe
27
0e
14
04
ef
03
f4
1c
04
eb
eb
e7
06
f0
d3
fa
18
e6
1d
11
f8
05
07
23
10
04
0a
ff
19
0f
e7
1e
05
1e
1e
d5
17
eb
f3
12
2e
d8
27
0b
1a
14
29
52
ea
0f
0e
03
0d
1d
1d
fa
ee
d5
0c
f5
ed
17
03
fa
fd
1f
eb
0c
38
1f
f4
2d
f5
05
d9
f8
ff
fe
09
18
17
e2
ed
e2
0b
08
06
fc
cf
f6
fd
ff
c6
fb
13
07
04
2c
09
0c
34
0f
ea
da
38
ce
fb
20
e4
f8
00
a4
0a
ec
f3
1a
0f
1a
c0
27
f3
d8
16
00
10
f0
1a
f9
c9
21
14
db
f1
e9
f2
02
b9
f2
da
00
05
f3
07
06
f8
23
06
e7
ff
f8
08
f9
cc
f9
ee
1b
0c
d1
e5
09
31
e8
ec
e8
13
df
db
e5
fa
f1
13
1a
02
dc
fd
0d
03
ce
1a
fa
15
05
b4
bb
00
10
06
db
ea
fe
f9
ce
ff
dc
e9
fd
d2
09
17
f2
ea
36
2d
e0
00
02
e3
f6
24
fc
d6
dc
07
ec
1d
ef
f2
0d
20
d3
e0
1e
ee
01
1d
e6
05
f6
1b
0d
ec
ed
df
07
f9
17
f4
ff
1a
f0
f4
ed
29
e9
e0
f5
f1
14
fa
ed
f5
f2
06
ef
d4
f3
00
ec
19
14
14
28
f5
e0
e3
36
1c
00
cf
e5
00
13
c0
d0
15
1f
09
14
f2
f3
00
14
ed
ef
09
31
fc
14
f5
ff
ed
31
11
06
31
fb
26
23
10
05
11
0f
32
1f
f6
1b
17
23
ea
fb
e1
f3
e9
f7
1e
f4
eb
d1
e7
e9
e0
e8
e6
20
d7
fa
1d
04
e7
ef
f3
19
00
02
01
27
f4
d9
07
11
38
07
fa
0e
18
d1
08
00
da
01
22
ed
ed
18
1c
fd
d8
f5
07
2b
d9
fe
ff
fa
f4
f0
ea
df
fb
01
16
28
f5
fd
d2
bf
f8
d7
0f
ee
e8
b7
18
01
1c
17
e5
f2
c8
e4
f3
cd
e1
f1
f6
1f
04
e3
24
21
0a
ea
22
20
19
24
11
2f
e5
e9
11
f0
1e
0a
1c
2f
02
18
34
25
1f
2a
13
ef
f1
11
d2
ed
15
25
1d
25
e3
2e
13
e2
cf
02
ce
c9
d7
f3
fd
ff
fb
dc
12
fc
01
bb
05
15
05
1b
0c
17
f2
0e
f8
30
39
17
0b
09
27
17
03
1b
e3
fe
cb
ef
fb
1c
ef
0a
08
00
0c
e2
02
d6
07
e5
08
e9
db
c0
10
1a
fd
d8
e3
dc
f4
f8
18
f1
1b
07
f8
2b
fb
38
08
ce
18
b4
0f
fe
24
fc
31
12
10
f1
12
07
f0
0f
0e
17
29
02
40
0c
18
24
cc
13
e1
20
0d
c1
ec
19
0d
1a
1c
f5
12
12
05
fd
e2
c4
15
1c
00
e7
ef
f6
0f
22
35
f9
0c
d2
ea
10
27
0f
d7
1c
17
fe
07
c0
03
06
fc
f9
f9
f3
0c
fc
bc
fe
14
dd
06
1b
09
14
15
f9
12
09
0c
20
06
11
de
e8
0d
f9
f4
dc
17
22
bc
d7
f6
58
4a
0a
ff
1d
20
10
2f
ec
11
0b
de
2d
38
e7
07
04
25
0a
10
d7
11
1c
fa
f8
ed
0a
28
c0
10
17
26
23
ff
31
0f
0d
fe
ed
16
c9
01
f4
0d
1a
2c
0d
f6
20
e8
14
f7
19
41
0e
ea
0e
16
c7
04
16
2e
f5
1e
d8
26
10
fb
ec
06
e7
02
20
fc
0f
1c
ef
0a
0e
fa
f9
ea
f7
22
ef
00
01
0e
0f
fd
e9
07
df
f2
06
53
1c
f2
f6
e5
34
07
c7
de
e7
e1
fb
da
e3
e8
db
0a
e2
0e
e8
07
e9
ed
f1
e6
0d
1b
13
1c
f3
3c
37
05
0a
e6
0a
14
17
13
ff
ed
2f
1e
f0
d9
ea
1f
2d
fe
fa
29
02
27
1e
03
2f
36
da
fb
f1
00
ed
f1
13
1b
e8
21
df
27
f4
04
ed
ca
0c
fb
0a
19
3e
fa
06
34
01
17
12
ee
fe
00
24
05
dd
df
32
ee
ee
f8
e8
0e
00
f4
0a
e5
18
1c
03
1f
47
25
22
0c
cb
1e
42
1a
fa
f6
21
c1
18
34
44
e5
fc
e2
e5
15
f2
e6
08
f5
02
1d
e8
da
f0
1b
f9
14
e5
ef
1a
17
23
c8
e8
05
0d
ee
0f
13
fc
21
3f
08
da
ff
09
f1
05
fe
fe
d1
f4
ed
00
05
f8
0b
25
05
20
09
e8
ed
db
e0
fa
db
1e
ef
19
1e
f7
27
de
fc
e3
08
16
01
e1
f3
12
07
1a
f3
95
1a
12
0e
02
eb
24
f7
f8
0b
e9
3d
fc
05
2d
f5
27
05
01
fa
f3
11
e1
19
f5
0d
f2
c2
32
d7
ee
cb
0b
07
05
eb
ec
cf
f4
ea
24
ef
f4
f6
e4
eb
12
f3
ef
c2
cb
cf
ae
c6
d9
fc
0a
15
13
18
01
0f
d8
08
05
e2
d3
e2
d9
e5
ea
e2
01
ed
d5
0e
f5
09
e8
c6
f7
00
1a
01
ec
e3
24
09
1c
d5
cb
ee
e9
df
1a
e1
fc
ec
e2
07
09
07
ee
00
dc
ff
fc
13
03
d4
0f
e2
11
10
e9
28
df
2b
05
fa
23
fd
f7
2b
01
e6
e5
ea
17
19
ed
d9
db
01
d8
fc
fe
f2
d7
0c
d9
fc
ff
f9
fd
f0
15
e2
03
db
05
db
e2
f1
dd
31
ca
fb
09
fa
03
27
12
f3
f3
22
26
ca
f3
d7
06
fb
0a
05
bd
d5
13
dd
18
e9
11
2b
2b
1c
29
05
00
f5
ff
f7
07
19
00
1c
41
18
db
ef
d5
26
d1
07
d2
25
30
17
2b
16
ff
1e
13
fd
f7
ff
16
cb
fe
48
27
e0
fb
0e
04
d3
e8
f1
1b
33
e8
fa
d9
fc
2b
eb
1a
24
28
ed
f9
ef
1f
f5
14
18
fc
e9
0a
00
e7
2e
ee
14
de
f0
2a
fa
ff
e6
c3
e7
0e
f2
fb
0d
fd
1c
0f
d0
d2
1c
04
fc
fa
21
f1
1e
18
ce
f6
d7
e6
f3
1e
01
05
24
f3
f0
01
46
f9
21
16
04
05
df
c8
eb
17
f4
21
09
f1
f1
1e
0f
f6
f4
f5
fb
ca
d2
e1
02
d1
e6
e3
c7
08
04
f7
19
04
0b
f7
24
fa
1c
04
e8
c1
fe
f4
1b
ed
1d
f0
bc
d1
d2
bc
c2
ed
f3
27
ec
e2
04
d0
2b
ef
d5
e8
1a
e9
03
1e
2c
e5
e8
ba
cf
f8
f4
db
d4
e0
fc
13
0b
c0
13
f1
36
0c
cb
c0
fd
fa
f7
16
e8
06
fe
ee
cd
18
18
e2
c5
fd
f6
e7
f8
b7
00
d3
d4
f5
10
19
05
d4
18
f7
e1
cb
f6
11
fb
33
ec
02
1b
4d
1e
dd
07
d8
ed
15
00
1a
ca
e0
de
04
3a
01
e9
dd
07
3f
f7
c1
da
e5
17
08
fa
d7
2b
35
f3
06
0c
20
f9
1e
fb
e4
f8
0d
03
d0
19
df
1b
d2
0d
12
24
c9
d4
ea
e1
f2
ef
bf
0f
f8
e5
15
da
f0
d6
19
b4
19
f4
ba
17
fd
e5
f6
3a
32
0e
13
e8
c1
c3
e2
fd
17
fe
be
20
39
18
2c
f6
0e
1e
0a
d6
dd
0e
f5
01
eb
13
0d
c9
ee
f4
2e
04
fe
ec
e4
fa
ff
11
e1
e2
08
03
08
e2
39
1f
03
08
f0
e9
07
05
0e
cd
1c
00
0d
26
0b
f7
c5
39
d6
fe
0d
15
f3
fe
c6
12
08
16
fc
25
f7
f2
df
e2
f8
33
ff
f9
f7
1e
09
0d
1b
d3
00
04
49
e0
31
e7
29
f8
ea
d7
e5
ef
f1
f2
e7
e6
fd
1f
07
e4
e1
08
05
01
f2
f8
e2
32
f6
13
f5
fa
e1
1e
f0
04
ff
e1
db
12
f4
f3
ed
15
2c
19
e8
f3
2d
15
03
e7
d4
0c
0c
ec
13
15
1d
d4
f6
f2
0c
0e
f3
1f
c6
2e
fc
10
04
0a
11
e5
f7
04
f5
f1
e0
05
fd
14
ea
f4
d6
ea
0c
ca
ba
16
e3
e1
0c
d0
04
e1
18
e4
44
03
39
ee
0f
ed
22
26
f8
36
ea
f6
02
e7
1e
f9
fe
e9
1b
19
db
fd
e5
15
e7
eb
0f
39
ce
f2
1b
11
1e
ef
ac
0f
e7
de
f9
ca
e9
ed
24
f8
fc
e0
25
38
18
eb
1d
01
14
b7
03
01
27
04
0c
f2
26
00
1f
08
f9
16
44
fa
e8
13
f8
13
26
ff
f9
e7
12
41
f8
2c
2d
fc
f6
09
fd
fd
14
e2
f5
c4
0e
d3
da
0f
11
ee
d9
d9
c8
0b
de
0f
0b
de
e1
f8
09
22
00
fd
ce
d1
e3
05
b9
06
e3
ed
fa
2a
c2
e2
f8
f6
0e
25
09
ec
03
17
f1
03
dc
10
f6
21
12
f2
18
22
13
eb
cc
00
fd
1c
e4
0b
fb
fe
e2
cd
06
f7
ee
ee
0b
ca
0e
d4
e8
e7
e4
dc
13
0f
07
f7
f5
f4
05
2a
e3
04
24
13
df
23
f4
e9
dd
15
06
e5
ec
fe
f7
d7
04
fc
08
ea
dc
e8
06
09
fc
f5
06
cd
e9
fb
fc
07
0a
f1
ce
2a
1d
07
0a
ff
2d
ef
2a
f0
1c
e9
0c
fd
08
f0
c6
17
fa
e4
16
fa
df
f1
1c
ee
07
06
08
3b
2f
fb
f7
01
0b
fd
ed
d5
1a
12
2b
06
e6
f5
ec
01
36
0a
00
35
e5
d5
f3
f4
c8
e5
01
bc
99
b2
03
ee
c7
f7
f5
17
08
f8
f2
f3
ff
16
ee
1d
ee
e4
e5
d9
f5
06
36
0b
fa
fb
be
fe
ca
d9
0a
0b
4b
e2
e5
1b
df
e2
f7
0d
07
0a
05
21
19
0d
f3
30
18
e7
01
f9
04
07
fb
e5
e5
0e
39
f7
e5
d4
41
2d
0e
12
1a
1f
0d
d8
11
fa
10
30
29
12
b5
e1
0d
e4
02
f7
23
10
f8
ee
07
0d
f6
fd
fa
26
f4
ee
1b
08
f1
fa
e2
f7
cd
cf
19
e7
f0
fe
df
08
fe
fc
0e
11
fb
cc
eb
2e
e6
fb
00
1d
e3
fe
24
e3
b4
16
e9
14
dc
eb
e9
26
e0
d3
fc
34
00
fe
0f
f7
de
0e
e6
f3
ec
10
0b
0a
0d
16
0a
36
21
d6
1c
22
11
1a
f6
f4
31
1c
18
f7
0a
03
15
eb
fe
fe
13
e1
fe
f9
e2
15
05
ea
ee
f2
ee
f2
f8
c7
c5
ea
11
cb
e6
f3
2b
ef
01
07
c6
fe
10
09
ee
01
30
ee
4f
e4
28
1b
10
11
eb
47
0c
0b
f8
09
fa
46
cd
15
14
15
e8
13
fe
fd
ea
f3
19
ee
f6
2c
20
dd
db
e6
0b
0d
f6
cf
fd
f4
f8
c6
de
25
01
0d
19
15
1f
37
ea
10
10
1a
0d
23
27
39
ee
1a
35
32
34
28
31
1b
f8
ff
fe
e0
06
e7
e0
10
09
0f
05
55
0c
21
39
1b
53
0e
df
e2
f2
fa
1f
3d
ef
e9
0d
d1
31
13
f8
f8
13
ed
0d
11
04
1f
ef
e5
d3
d5
db
04
de
e6
fe
ec
b4
11
cf
25
fe
08
1a
db
0e
06
27
05
f7
f2
11
00
1b
fa
cc
0a
28
d9
ee
15
f8
1c
18
ee
1d
fe
14
ca
25
2c
07
ee
ea
02
0b
0b
f8
f1
25
e5
34
0e
2d
e6
de
f7
1b
27
f4
eb
17
d2
fe
d3
0d
00
e2
3a
11
03
0b
11
42
05
14
08
ff
1e
e5
24
09
cd
cd
f6
0d
b2
eb
0c
0e
12
3c
03
04
0a
19
1a
bd
03
d5
14
ee
11
14
0c
13
fd
24
08
d6
bc
de
01
29
21
ea
0e
19
01
24
11
0d
dd
d4
db
ed
23
d0
bf
19
01
fe
fe
3b
07
0e
04
e9
05
07
fd
f0
c3
09
ff
f3
f5
13
37
1a
10
0e
39
f1
e9
f3
1a
31
3e
ff
1d
1a
f9
09
fa
00
fe
13
19
20
12
3e
db
0c
0f
2e
13
00
2a
40
12
ef
05
11
cf
d4
e1
ea
0f
fd
e7
ee
10
f5
fc
e4
0b
20
1c
12
27
d4
d7
2a
02
2d
fc
1f
06
10
ff
e5
ec
35
e4
ed
e8
f5
1c
00
1a
cd
f1
20
13
e0
ed
f1
3e
f3
f4
ea
ef
f4
03
e4
e3
0e
d9
d2
12
d7
d3
48
25
03
f2
f9
f1
1f
ff
13
32
e3
07
15
f4
bb
08
e0
2d
00
e3
fe
ed
d7
df
0d
1c
1b
f0
ef
fd
01
2b
24
0e
f4
e3
ef
15
1c
b2
ed
e5
04
27
f0
e4
10
ef
d7
19
f7
f1
07
f4
0c
fb
04
e2
ea
fe
ec
dd
f9
01
33
df
f8
fe
f1
dc
04
f1
03
e1
00
ec
0a
08
03
e0
c7
0c
20
0e
d0
e8
3c
12
09
0b
f6
dc
d8
f0
f8
00
f6
fb
0d
12
0d
f2
fb
ef
08
00
0d
cc
cd
d9
3c
fc
e0
fa
09
12
fb
09
27
fe
f7
17
f4
05
23
ee
ed
19
02
ed
d4
1c
16
e7
f5
c8
f8
f8
04
00
f9
2a
d9
f3
e9
fb
e4
f8
f4
0a
f3
09
f6
fc
de
11
07
ff
ee
10
2f
f7
1f
09
18
47
2e
33
f4
f8
f1
f7
00
ef
04
ec
04
df
ec
03
da
14
20
11
0a
01
e9
08
03
08
14
03
dd
dd
c8
ef
f3
0d
11
e4
04
05
00
f4
1b
f5
4e
15
56
1a
0c
08
09
22
10
16
e8
11
01
00
f8
dd
06
10
ef
c5
e3
29
0b
29
1f
cc
2e
15
10
08
19
f2
fc
24
01
25
0f
03
e7
d2
c4
f4
25
c2
f3
cd
f9
09
19
ea
e9
02
fd
12
fb
fa
ef
1a
26
15
05
0e
f7
21
e6
fd
f2
0e
eb
c8
31
00
de
02
fa
f4
d7
e7
ee
03
1c
f6
f6
f0
11
19
16
18
21
61
e7
e3
de
0d
11
ce
cf
e4
06
f6
09
ff
f5
fb
17
14
e0
09
f1
f3
05
fe
d2
e9
0c
0e
e7
16
0c
ed
fd
07
f5
f4
14
16
d9
e5
e6
f9
c7
01
e8
f3
ed
d4
f8
f6
14
fc
eb
1d
f7
02
f4
21
e9
0a
fc
1e
e7
ea
f6
03
0f
e0
0b
13
27
1e
31
05
dd
24
f7
43
ea
05
0f
1e
1a
18
ed
e4
25
15
d1
02
f9
11
01
02
1d
18
e0
13
0f
ef
de
fe
f1
f3
02
1b
01
d2
c4
dd
27
f7
e0
de
ff
f0
fd
00
db
ef
ee
19
00
f9
0d
e3
d2
d5
df
d1
e3
e9
f1
f3
ff
14
fd
f7
07
14
d7
d8
20
26
f9
cb
e3
24
23
f7
f4
20
f5
05
02
f5
21
e6
0d
1c
00
15
e9
0d
d3
06
ed
00
d9
e0
e2
1f
09
e9
e6
e7
e2
f2
04
fe
d4
02
e8
11
e4
fc
24
f2
f5
ff
15
06
20
dc
ca
3c
10
db
0a
ed
fa
fd
fb
0e
29
0f
ea
eb
22
ef
f2
12
47
2c
cf
ff
04
fe
e4
df
04
f7
e1
d5
00
f8
13
25
f8
22
f1
f6
df
ea
e4
e1
f5
00
0a
e4
fc
07
fa
18
14
f1
28
22
26
02
c2
cf
fe
c8
f8
e7
f4
1c
fe
f8
d4
02
1f
fe
df
cb
03
f9
10
e7
14
22
ee
fc
18
07
19
f5
01
10
e9
0d
ec
12
15
ca
03
fe
ee
07
f1
cb
17
e9
d1
12
db
f5
06
ea
f8
fe
10
0d
25
e2
fb
12
2e
0a
d8
de
e2
03
22
fd
03
f7
e9
06
d3
09
00
d5
f7
f8
02
1c
3b
2c
e9
1f
f1
25
34
fa
19
f1
0e
0f
fb
02
10
fa
0e
f8
19
f3
cf
f6
f9
f4
39
e8
e6
f2
ce
f9
00
e5
04
d7
18
08
0c
c7
01
ff
07
02
0e
f5
12
fa
08
01
02
09
12
0e
14
e0
11
01
e0
d8
0d
c3
14
2c
e1
1e
e9
01
dd
f1
22
1d
12
0f
09
26
0e
0f
e9
1d
15
1d
00
00
0b
f4
f8
1a
2f
ff
0d
fd
e1
0e
16
e8
e7
17
f9
20
f3
08
12
18
1c
ee
02
fa
f0
01
1d
e5
f6
dd
00
0c
f8
e3
02
fd
16
e8
e4
ec
ef
ea
ea
14
28
e8
f3
2f
29
04
19
04
3a
23
08
dc
ef
02
ea
cf
ff
e9
1a
1c
f5
25
02
12
f0
07
ca
ff
0f
18
f2
f5
d0
12
09
09
fb
ed
21
12
e5
f5
d1
ef
f6
e0
f0
eb
1a
09
fc
15
0e
f9
0f
02
dc
0a
ce
f0
dd
f6
e1
fd
19
ff
fa
d8
c4
1c
fb
0e
e3
dc
1c
0b
f4
e1
0e
fc
e7
0b
fc
ee
f3
c3
04
1c
e4
e2
de
e0
0d
4b
e2
f7
cb
10
fc
c6
f5
dc
de
09
02
f0
08
17
2f
c6
f4
ef
09
0e
de
bf
19
23
f9
e6
c7
fc
f9
22
0c
1d
07
0c
19
16
15
f2
03
dc
cc
eb
f8
ee
d2
c4
f6
31
1f
03
e5
f1
01
ed
e6
fa
f0
fe
fa
f2
0e
0e
16
ff
13
e3
ef
d4
e5
02
fe
27
04
03
21
0c
22
1f
1f
cf
0e
de
f4
fa
21
2c
07
c7
1d
df
20
f3
0b
e6
0f
00
ed
e7
23
d5
d0
f8
0a
f3
14
23
08
0e
17
32
27
fe
e0
f1
06
f0
d8
d0
d6
00
e7
09
e7
e8
fd
e3
d8
0f
0e
0a
25
f9
e4
dd
e9
fa
ff
0d
04
09
0a
e3
03
1e
12
e4
f4
20
0f
f9
cc
d6
ff
25
28
4d
00
f2
01
16
df
da
00
ff
fe
fb
e0
10
04
d2
0b
13
0d
d8
f7
f4
fd
c9
00
08
2c
0e
19
e2
0e
17
1a
cc
ed
df
ed
ff
f2
d4
f1
f5
e4
fd
07
f7
de
ec
02
01
0e
24
01
1a
ed
d8
1a
f8
d8
de
f4
e9
ec
01
fb
d7
0c
dd
be
fb
10
c6
c0
fc
d0
0f
00
05
df
cf
f7
ee
40
d0
d5
ea
00
05
0a
ab
c7
0c
20
f7
f4
ed
ea
23
e7
f6
0d
ee
ca
1f
01
da
f7
00
15
18
df
ff
0e
0e
02
00
29
fd
07
0f
20
f3
09
f4
26
db
23
fd
23
fc
fa
14
cc
02
ed
1f
fa
fd
0e
fd
f0
23
fc
0c
0d
06
15
f6
44
f6
e9
1d
1b
f2
ec
de
1d
1a
c9
f1
00
10
fb
d9
d5
e0
21
0d
ef
cb
bf
12
fb
f4
21
0d
07
19
13
fc
0a
10
f2
e8
ff
1a
05
df
fd
1b
e0
07
fa
1e
e7
1a
d7
ed
da
00
d6
23
30
fd
02
f0
06
fd
f9
07
0c
10
13
f5
0a
34
18
13
fb
f9
11
06
1b
e0
e5
f2
e6
fa
0a
de
fd
f9
01
02
03
1a
2c
1a
ee
fc
10
23
20
fb
db
f3
fd
e0
12
f3
fc
ff
17
0c
11
27
13
1f
ed
0e
f2
17
e2
13
00
ed
de
26
02
ef
00
fa
1a
ff
e1
0f
e2
13
13
06
fc
fe
f3
e5
f4
f3
17
12
fb
f1
0a
fd
0e
1a
f1
08
e9
e7
ef
27
02
ed
0d
ee
14
e1
f6
24
17
d8
05
07
11
05
f0
f4
2c
f5
f5
11
25
0b
2c
1e
0c
03
22
46
f7
d6
e1
00
ef
f8
ef
f6
0b
ef
09
db
c8
c3
dc
24
1f
0f
ed
09
0e
f7
fa
f2
e9
1d
df
d2
eb
14
1d
23
07
2f
25
ed
fc
03
fe
f9
00
f3
f0
ef
cf
ea
14
bb
cb
15
14
14
0c
08
0d
12
dc
06
00
21
12
e3
18
35
f5
0b
f5
ea
f9
12
f7
12
06
08
02
d6
23
f0
17
1e
d5
ea
01
16
f5
0e
07
49
1f
25
21
12
1e
10
00
fb
0e
2a
2b
fe
fd
1a
0a
ef
2a
d8
05
02
ee
37
ed
fc
05
1e
0c
3b
f4
ff
1f
da
29
fe
03
e3
08
d3
18
1f
14
19
ed
0e
f4
fd
13
09
03
e3
17
22
f3
f1
f6
00
10
18
e3
0e
09
f7
db
ce
0b
fc
f4
f8
09
1a
1a
ef
fd
0f
fe
16
f0
0c
25
11
fb
f7
e8
fa
04
da
ed
f8
11
e5
00
21
f8
10
f9
e3
0f
fa
18
f5
e4
0d
dc
ed
02
fb
eb
32
31
08
2e
ff
f4
1e
02
32
0a
c2
e7
24
0e
fe
f5
fd
fd
04
db
0a
e9
04
2c
ff
13
f4
df
13
05
f7
18
0e
00
25
f6
f9
18
24
21
e5
0a
f9
2f
31
11
14
0d
f2
05
fe
2b
e7
fe
31
ea
06
0e
e5
26
30
f7
ff
15
f9
1b
f2
14
fa
0d
0c
17
27
03
10
ee
11
1e
23
0f
ef
ff
ea
fc
13
e4
10
fe
ed
f9
f2
0e
24
f9
ff
f9
f2
04
ea
f2
f2
30
12
28
f0
cb
32
01
1f
0d
e2
13
11
1c
eb
14
19
11
f6
0b
fa
07
ee
2f
fe
fe
ff
22
09
f9
e3
0a
f3
00
f3
fd
27
e1
dd
fe
e4
ed
14
18
dd
34
f1
2b
24
e1
fe
08
28
25
18
fe
16
16
41
1c
a7
09
e9
df
25
25
28
10
00
1f
e6
02
1b
ec
e7
0a
e3
fd
08
0f
1f
12
1b
0b
06
04
0e
09
15
f7
f8
1d
1b
f0
e6
e3
08
f1
0b
1c
14
02
f2
fa
05
0c
04
31
d6
12
1d
07
de
18
f1
fe
f4
d7
2c
0e
f0
c6
28
fb
e0
03
29
1d
18
4c
0f
2b
4a
3d
29
ff
1d
2e
20
20
00
da
f8
f0
0e
ce
fe
0f
fe
fd
f4
06
21
34
11
1a
fb
e7
e2
20
19
1a
1d
06
f7
19
1c
10
fc
f7
0e
04
20
ff
28
28
08
12
07
db
07
de
ce
dc
da
f8
e3
ec
e0
fd
ec
f9
00
0d
03
13
ee
ff
04
08
fe
1c
06
dc
0a
e9
24
ec
be
fb
fd
f3
13
fb
ec
0f
0a
ce
1a
0a
f5
e9
00
2b
f1
08
2f
2b
1c
ef
1b
12
46
22
17
34
fb
09
01
fd
13
fd
ec
fc
25
00
f4
ee
f6
ff
e7
d5
c3
1e
14
fa
c6
d5
13
de
17
f4
11
d9
0b
05
0a
13
36
f2
28
ff
01
32
e1
00
00
f5
f3
38
fd
e9
fb
3a
2a
12
f0
0d
ee
0b
05
0a
26
24
1e
08
fd
ee
0e
2e
ff
e2
d7
fe
eb
f6
e2
e6
f7
fb
f9
ea
13
eb
09
f4
ff
13
ee
f5
14
e0
16
0c
f7
21
23
fe
1a
e6
13
e9
03
16
20
f8
e9
d9
05
23
dd
bb
0e
24
02
e0
fa
0b
01
00
11
16
e9
ec
d2
f9
ee
03
da
0a
0c
f8
e1
fb
da
df
d9
fa
f4
08
ed
ef
e5
f2
e7
12
e9
24
0e
1a
39
0a
e4
ea
e3
f7
f7
0b
05
21
f7
b2
ee
14
d8
22
0e
d7
d7
fe
0f
1d
1b
22
f6
51
e9
c5
e9
18
ef
02
e5
0f
07
0c
03
0d
d2
f4
eb
23
fb
f6
12
cc
bc
12
ed
10
0d
2c
13
35
f0
0f
f7
e3
14
e8
f3
01
e8
e2
03
18
01
f3
0e
0d
02
08
f1
d7
f4
eb
1b
10
ed
1b
27
07
ef
e7
e0
0b
37
f2
f5
17
1e
dc
d7
00
fe
0d
f4
ea
08
00
d9
c6
33
1b
e1
0a
09
ea
f4
ea
f8
24
01
f4
ed
12
05
fe
14
e1
ee
fe
fc
1d
fd
00
0c
f2
19
23
01
14
2e
16
22
ff
21
e1
25
12
0d
d8
fd
18
ea
30
00
f0
1a
05
fc
ff
e2
e9
fd
02
e8
0b
20
13
d8
15
f5
e7
e2
43
3b
fd
fe
fd
e3
e0
e1
20
f0
f3
09
d8
f9
eb
23
0a
fe
37
ed
07
0b
05
16
1b
ed
ea
02
04
0f
ef
ca
e9
ec
d7
fd
eb
f3
f8
b0
12
16
14
21
00
08
be
ec
3b
ec
18
21
f7
f7
cc
e7
36
e5
25
c5
12
dc
f9
32
e6
19
29
28
e1
2c
03
17
2a
00
ed
1a
3b
cb
ff
e7
38
e2
26
f2
e3
f3
3a
fd
07
d6
fc
03
08
2a
d8
c5
23
f1
f3
1c
2f
01
17
2e
39
fd
05
e6
07
f5
11
35
f9
09
ff
29
07
ec
06
09
06
ff
19
0c
17
fc
14
2b
0e
14
fd
05
1d
10
02
37
ff
db
0b
f1
f4
e6
00
05
e3
ed
15
09
01
02
0a
da
06
fa
01
f3
f9
f7
e6
e6
21
eb
ff
f7
e3
ea
f9
06
f6
ef
1b
0c
16
ed
08
25
e9
ff
08
e1
14
ea
00
31
07
e9
13
26
14
d1
09
18
08
1d
e9
f1
04
fd
10
fe
0f
25
31
0c
09
1a
2a
13
dd
f0
fe
07
12
f6
fc
14
2d
01
26
c4
1f
b8
f7
18
f3
d2
ce
d3
1e
0f
0a
df
e4
13
0c
27
20
2d
0a
05
07
32
e5
1d
18
e5
02
16
fa
1f
1c
21
0f
e5
07
02
0f
00
0f
0d
2b
ef
ff
da
dd
1c
db
28
0c
f3
26
04
f2
f2
14
27
df
dc
d7
00
00
f3
1a
09
e8
11
fa
ea
da
1d
da
ec
12
ca
fa
11
0c
c3
f9
e3
f8
1b
0e
f5
c0
f2
fe
df
e4
ec
13
09
da
c6
e1
44
18
03
d3
b6
1d
2d
15
bd
fb
47
44
03
ed
f8
19
1f
02
26
d3
39
23
1c
eb
09
ee
08
08
06
eb
d8
e4
0c
f6
fe
dd
10
02
d1
f6
f2
d2
d8
f2
ec
03
d6
fd
08
07
f9
19
1a
f7
ee
02
e3
f7
1f
2b
54
24
22
f1
c6
00
0c
fd
14
ee
fd
ed
d4
ea
f1
cc
d9
fe
18
f2
00
f6
07
29
fa
e1
f8
fd
16
19
0e
12
e9
fb
0f
ea
f8
e6
f2
06
01
04
0b
f9
da
de
e8
12
fb
19
e9
00
fb
d7
0c
f6
e3
e4
ec
f6
eb
1d
fb
fd
f5
fd
2e
28
f8
de
18
25
f7
12
e5
01
03
f0
18
f5
f8
ef
d3
e9
ed
12
08
ff
b9
ef
0c
e8
08
0b
be
21
f5
11
f9
06
c3
d8
d3
c9
fa
17
0b
06
aa
d8
05
f0
0a
c1
ba
e2
04
02
fa
cf
08
f3
19
ed
f8
17
de
cc
eb
00
f5
e7
17
34
fc
dd
1d
06
f4
13
13
1c
f8
f0
f7
33
d6
0a
02
2d
3f
fe
2b
00
16
c7
11
fc
eb
17
fe
0d
e1
d2
19
0f
12
f2
e4
0e
32
25
f0
f1
ed
21
0e
f2
db
0e
11
de
cb
f3
f0
08
12
e8
12
ef
0c
15
1b
e6
03
0c
15
1d
ec
17
0d
fd
1d
01
f9
ee
b8
1d
35
ef
f1
00
fd
e0
f0
cc
27
14
fe
0b
32
ed
f7
f5
f0
fa
0d
09
d5
16
f2
01
05
ec
13
e6
db
01
0d
1e
02
fd
15
b3
f9
16
0f
1d
e7
d5
21
12
0a
23
07
24
c4
0b
f8
2c
f9
14
e1
c8
ec
23
c7
1e
0e
f6
17
35
31
f9
1d
17
2c
21
ea
e7
fe
de
fd
14
29
f8
02
f5
f2
2b
f2
20
05
f0
eb
01
05
db
09
f0
03
04
c9
c9
d6
32
39
ec
20
02
2e
1c
ee
07
34
19
02
f7
16
0c
0d
1e
f7
31
f2
39
05
f9
24
22
2a
4c
36
21
0c
29
1c
e7
3e
06
cf
df
fe
0b
c2
f2
cf
f3
cb
07
11
e2
ea
00
17
1c
13
2c
e9
f7
28
1c
2d
25
e2
ef
00
e4
f6
ee
ff
06
d2
de
ea
08
df
32
c4
04
ee
df
fa
0c
11
e6
ef
f0
e0
df
fd
24
12
11
05
08
48
0d
fb
14
08
e0
05
45
1a
16
06
32
2a
02
f7
e3
0d
00
04
04
cd
ca
d8
ff
d4
e5
e5
ca
cb
c8
cd
c6
11
f4
08
09
1d
04
ee
1e
f0
3a
0e
12
fe
02
0d
f4
19
0d
fa
f1
07
1b
ec
dd
0d
1b
37
f7
16
28
1c
fc
eb
ee
e6
17
ed
03
ee
d7
0e
16
0b
d1
f6
0b
d4
ff
d3
fc
2e
e2
12
e5
ea
0a
d8
15
fe
11
16
c4
0f
ed
d7
f9
f3
c0
f2
29
2c
22
09
f9
0a
ec
1a
23
ff
19
e6
24
16
3b
f5
15
00
e1
fe
13
f0
ed
12
22
fb
17
06
05
e5
fc
0c
f3
ff
e1
07
11
df
e9
2b
03
28
df
f4
1d
ee
09
dd
eb
d8
19
dc
f9
cf
0e
ce
11
f8
07
3a
15
ee
01
11
05
e3
e8
22
04
d5
24
15
2b
08
f9
15
ef
0b
15
0b
21
fc
ec
f2
00
ea
05
18
11
d4
fc
f1
ef
f7
ff
ff
eb
f7
17
e9
ed
1b
04
23
2b
1f
02
0b
13
fe
fe
f5
13
e0
fc
e7
ee
db
10
0e
fa
f1
fd
15
d8
15
fe
1a
04
1d
19
14
07
f2
f6
e7
d4
00
f3
f8
dc
f4
0a
f8
28
0e
2c
15
fc
02
eb
0e
16
17
28
2a
22
f0
22
f9
f2
ec
f5
f0
e8
fb
fe
12
f6
ea
26
ef
36
c6
f6
ee
0e
04
ed
fc
fc
e6
fb
0c
ef
f1
0b
eb
fc
c4
e2
e8
e2
f4
da
e7
ed
f5
0c
01
13
1e
28
fe
0a
1d
e5
11
c4
f6
dd
df
ff
c8
e5
e9
05
b3
f2
1e
e8
f3
03
0b
fd
05
0e
14
e4
06
ee
d4
fc
13
f8
25
db
0e
1e
07
f9
ef
d5
fe
e9
b8
fe
cb
07
2e
0c
28
14
f5
05
17
19
1f
eb
04
17
e1
26
1e
0a
de
f9
07
0d
ef
ff
26
fc
f0
ea
c7
01
05
0e
fa
0d
10
1b
eb
fe
06
d0
d2
01
fe
17
f6
fa
de
1a
07
11
26
11
e0
24
28
f9
03
07
17
02
15
10
16
16
0f
35
fc
de
ea
05
0f
c4
09
e8
cf
da
12
1f
e3
ed
f1
ff
f4
e7
2a
12
de
ea
0b
0f
f9
f9
d9
04
f5
0d
03
df
04
e4
e5
1b
e9
17
dc
07
13
14
04
10
10
0a
11
f3
f8
ed
f0
d7
e0
21
04
1f
d8
12
f1
02
32
e6
0c
2e
37
ef
de
f2
ee
06
2e
1d
25
ed
0c
14
da
19
14
0a
e5
08
0a
14
21
ec
10
fa
f9
fb
d2
f9
c4
29
02
0b
ff
ee
f0
eb
fa
eb
fd
07
e6
e2
e1
e0
10
dc
e9
f5
f6
e5
31
13
42
f2
03
f9
0c
fb
08
fb
eb
fb
f4
11
f6
e7
df
e3
eb
1b
fa
00
15
06
04
18
da
f8
fd
1a
1d
f5
45
ea
f7
0d
09
23
14
14
fb
0a
ee
16
1b
fb
18
09
0e
18
19
0b
2e
f3
0a
f3
0b
29
00
0c
0a
e4
ed
01
cf
21
29
f8
ee
18
07
d8
0d
f0
26
ef
08
cd
eb
f0
07
25
09
f6
0b
fa
f3
ea
ed
f6
30
1d
f2
f9
d5
f0
d5
04
29
f8
09
fd
17
10
15
33
ec
02
ee
e1
eb
ec
0c
0c
1a
04
dd
fc
0d
ea
eb
eb
ee
02
f4
1c
f3
e9
f9
0a
10
00
f0
34
15
08
ea
0e
18
2c
13
e2
08
f4
f0
0a
01
01
2d
3e
e4
fb
ca
e5
08
f2
f6
26
ea
d5
0c
17
f3
f4
f0
24
f1
02
f0
fe
fc
eb
d8
d9
ee
02
02
f6
ca
19
fc
fd
16
fe
f4
d3
16
42
0e
16
fe
07
07
13
e3
f5
f9
10
1a
1e
2f
ed
24
10
15
03
ed
e6
07
e8
e9
0e
ed
00
0b
1c
e7
f2
dc
cc
02
ff
d5
cc
de
0d
ef
06
24
02
25
fb
d5
f9
1a
08
f5
08
fb
0b
04
ff
f6
08
f6
09
ec
16
14
22
e9
08
ee
ed
0d
d0
fa
e3
03
28
06
0a
f5
07
b4
f0
03
1a
ba
f9
de
03
43
13
ff
0f
e1
dc
e7
35
26
0c
dc
fa
1a
d4
0a
15
f8
29
36
06
f8
3c
f2
e9
22
22
06
f7
e4
16
f9
d6
ee
e5
0d
06
03
ce
e7
13
f4
0e
09
24
fe
df
fb
dd
f7
0c
e5
f7
fe
0a
1e
d2
fb
e7
01
c9
03
17
f6
0c
ed
10
0c
fc
f8
09
22
0a
f5
09
21
eb
11
bf
e4
0c
0d
22
df
ee
ef
fe
f1
31
ee
0b
d9
2a
2e
0d
e1
eb
f5
03
07
0b
fa
01
1e
0e
f9
fe
05
25
e4
03
03
f4
cb
0e
f1
07
f7
f2
04
fb
fd
12
ec
0f
3e
04
1b
e3
08
29
fe
f8
08
e7
18
f2
fa
d4
1b
20
0e
06
de
19
ef
f5
0a
d6
01
0a
0c
01
f1
37
04
21
08
01
f0
0e
fc
c7
0e
0e
0c
f7
f5
ed
00
1a
0d
03
00
db
11
db
0f
f2
fc
c5
e8
0f
ed
15
f7
0a
31
27
0f
f1
e3
34
12
0b
eb
02
f0
ef
e4
1d
30
1f
2c
ff
d1
c0
18
17
39
f5
2b
e4
fc
df
fd
f5
e2
fc
07
23
d9
01
10
f5
f6
37
31
1e
0d
0b
19
11
f5
23
1b
00
10
e5
0b
c9
16
f8
0a
f4
e3
25
0c
11
1f
28
2c
00
ff
ef
da
e7
bb
f5
d4
e9
fd
01
2d
09
19
06
f2
16
09
0f
1d
12
1c
ef
13
19
e6
f7
09
17
ca
0f
f7
fb
fc
01
11
05
08
04
07
0f
12
1a
03
d0
fb
c8
09
e7
ef
f5
df
f2
1e
36
fe
11
f9
07
2e
25
e7
21
0f
ed
fa
29
29
ef
13
f6
20
25
ee
1b
f3
1a
01
35
2a
f1
16
0c
f0
cb
42
6e
13
e7
e9
08
32
02
e3
14
25
2e
3b
12
fd
16
1a
1b
12
f1
f0
df
03
f6
e9
11
e8
ed
f5
fb
10
23
d7
05
f8
00
d0
da
04
01
ea
fe
00
20
02
f7
0f
dd
3a
0d
fb
ec
fe
40
03
ed
1d
1d
1b
27
03
f2
da
03
19
12
e2
16
dd
12
27
fc
05
ec
03
1e
fc
02
e9
1a
fd
16
f1
cf
f5
db
2b
1e
cc
d6
dd
18
0c
0f
db
f9
f2
19
f2
17
17
30
12
1c
32
28
2a
3d
e3
07
19
1b
ff
df
0f
18
33
fb
e5
37
2d
35
0d
18
16
fb
d7
e4
3e
1d
10
28
21
3c
06
e8
d9
f6
02
05
fa
c8
d0
1e
1a
10
fc
f5
2b
22
0c
14
ef
38
11
f2
dc
f3
19
10
fb
e1
e7
10
17
fe
f1
1f
17
3f
28
ff
da
f5
1a
0f
2c
25
fc
fd
1a
02
f6
ed
eb
ee
fa
21
fc
13
fa
eb
d1
21
2b
29
3c
ca
06
10
f1
e4
e7
ff
e6
0d
f9
fc
12
18
f8
f7
fc
0e
f9
f5
fd
01
21
da
3f
ef
cb
ef
06
2c
00
0f
f7
0d
00
08
12
e2
25
09
10
0e
14
04
f1
c8
f3
c7
f1
fe
2c
e3
12
0b
0c
0e
08
02
f4
25
f3
0d
11
ff
2b
ee
24
ff
22
0c
fa
fc
e6
f9
04
01
04
05
fe
e4
12
1c
10
1a
14
06
02
12
07
1a
08
19
df
0a
f8
f5
e6
c7
eb
d4
1c
38
f8
eb
f2
08
dc
f5
fb
e8
d3
ff
00
04
02
ec
cf
22
21
e0
01
f7
2d
0b
01
f6
1f
0f
20
f9
24
4e
f4
21
29
2a
24
19
e5
11
fa
09
07
f6
0e
14
23
21
f6
04
15
03
0b
cb
f7
e8
f9
dd
ec
01
00
13
fe
08
de
e7
19
05
20
f4
f8
ff
f7
10
ed
cb
fa
16
f1
fd
3d
28
b4
e9
cf
19
24
d3
f0
3a
df
0d
d9
31
de
f2
29
25
18
0a
ce
33
1e
06
20
ff
f6
f2
0c
ef
e9
03
4b
07
f2
e5
fb
e8
01
cf
d7
0e
d0
15
27
ee
f4
e4
c4
f5
0b
4c
08
e7
e5
f2
0d
e4
09
fb
09
cc
3a
de
f7
d2
e9
fe
03
e3
1a
15
40
ff
10
f9
2f
fa
14
18
f9
25
10
ee
f4
e7
e2
ff
26
0f
f9
03
03
25
05
27
f5
e7
b0
06
0e
c3
08
09
fa
1f
05
22
f2
e1
f2
e9
19
05
d9
03
2f
e8
12
0e
c9
f5
e0
ff
d4
05
1a
03
e4
ec
d7
f8
f5
0d
e6
d5
f3
fa
09
f2
d5
f2
fd
1c
05
c6
f5
07
11
03
05
0f
0f
f1
1a
f1
16
f7
e3
2a
39
3c
e8
18
44
0e
1e
12
30
ef
d4
0c
f7
14
ef
0a
22
fa
0f
4b
0a
29
0e
11
e3
e9
ec
12
23
d0
23
dd
ee
fb
f3
fb
13
f5
f2
da
eb
00
0f
e7
07
ee
ed
fb
07
f9
0d
ff
eb
03
e1
f7
13
d1
fb
05
e8
bd
10
ee
0d
e4
d3
f6
ea
06
eb
bd
15
f8
d3
10
ee
e5
f7
f9
fc
13
13
37
11
d9
08
08
de
d5
cb
f3
f5
da
3e
03
d3
f6
e5
fc
da
0f
02
f7
1b
c9
1b
fd
13
0b
27
19
f0
25
15
27
3e
38
15
0a
1b
f9
28
08
f8
20
14
25
10
03
e2
f6
22
2a
06
51
f7
ff
f6
e4
e6
1c
fd
1b
29
1f
06
47
22
ec
0f
17
19
3f
e4
d7
09
1b
07
24
2a
51
ea
d2
ef
3d
54
db
25
10
e9
1e
cc
09
f7
1d
ff
ed
25
22
c8
0f
20
e7
fa
fd
04
02
fc
f0
10
25
da
05
e3
da
fc
dc
29
0c
26
f4
e1
0e
27
08
07
ff
fa
f4
20
cd
0d
1a
fb
f6
36
cd
39
1e
e0
1c
15
f0
f0
e3
fe
fd
25
d7
fd
0c
25
08
1f
1f
1a
e3
d1
fd
0a
10
1c
07
21
08
03
18
2a
f1
fc
ee
ee
06
22
fb
ff
fa
19
0a
0f
d0
f5
0e
25
fc
18
de
01
0f
04
1d
10
e1
eb
e7
e9
05
1e
e7
dd
f3
1a
16
1f
03
0e
d1
ed
f4
c3
da
13
db
ec
e4
cf
0b
e1
1a
02
f5
11
e5
ed
19
0d
e0
24
fd
d1
d3
0f
e2
dd
fe
e2
f4
03
ec
dd
0b
de
d5
34
fd
d2
ef
d9
0d
16
d8
19
fc
df
03
f4
12
fd
0c
11
e8
f2
f6
07
05
f9
0f
16
20
10
fb
f0
f4
fd
e0
da
0d
eb
e5
e9
09
ec
fd
bc
01
1a
d6
0b
fc
19
12
f6
03
df
01
ee
02
2e
01
f5
da
0f
0d
18
01
11
16
3d
00
24
37
e3
d9
0a
ec
f1
e7
c6
ef
20
d4
14
ed
24
00
ec
09
13
10
f0
e9
f1
e4
0f
ff
ff
05
0f
ea
f5
e8
f9
ec
dc
07
f3
14
c7
ee
eb
12
19
f3
17
21
f7
17
eb
f3
e7
f9
10
e3
e2
01
b5
0e
18
d0
f8
e3
f7
02
13
f8
e4
f5
03
f9
0c
0e
f4
04
f4
1e
fb
02
fb
18
16
13
ec
02
0b
0c
1b
f1
e4
26
f7
14
01
01
05
b4
f7
1a
00
dc
f4
35
f6
f9
28
2c
03
1b
08
04
18
07
13
10
48
1f
11
29
24
0f
18
1c
18
fd
20
17
0c
e8
01
e4
17
ef
01
06
14
e2
f5
fa
de
cf
01
be
f6
16
fc
c6
25
14
08
f2
fd
13
f5
f3
24
03
31
dd
0a
20
f7
0e
fc
01
25
f3
fb
12
ed
ed
30
0d
c1
f3
05
df
d3
f3
d6
e5
1e
00
e2
0a
16
cd
0c
02
fd
f1
dd
f4
ef
b0
aa
b1
d8
cd
11
fa
11
f4
13
1b
d7
d5
e3
0a
1a
12
dc
06
ed
21
12
0c
f4
f2
10
05
f8
06
0f
f2
05
b4
e8
ee
00
be
d8
04
0a
20
d7
f6
03
07
01
e9
c5
f7
10
ef
05
fd
fe
e9
f8
2b
01
17
0a
06
f9
e6
f1
cb
d4
10
13
07
13
ea
18
07
1a
4d
04
1f
d7
c9
f7
f2
28
25
ea
ea
f2
22
e9
f7
d5
11
f7
0e
d1
ed
20
fe
d1
b8
22
2a
15
f5
01
f9
1f
2d
24
e5
fd
ed
ee
01
2f
fe
02
12
03
dd
ef
45
28
08
ec
fe
11
01
21
08
f7
f7
0a
e5
ff
0d
f1
f9
cf
03
1b
e5
36
18
17
3d
01
0a
00
ea
3b
fc
df
09
02
d3
03
b4
16
a2
fe
d8
d9
c3
d9
f4
00
08
0c
de
08
ee
fa
ea
15
23
01
26
00
f8
e7
e1
06
f3
df
fc
cc
f4
d6
fc
01
c8
ec
0f
ba
16
28
dd
0d
15
ea
f3
da
ed
07
0c
d3
f9
e5
e9
f4
1b
f5
dc
f2
e0
05
20
09
ea
1c
0d
1d
f7
13
26
05
d6
f2
1a
15
2e
19
db
0f
01
e3
e2
f2
18
1f
df
16
f6
09
2c
27
1d
e1
fb
f1
1c
03
00
0b
1f
0e
f3
fc
03
00
07
cc
fe
01
f9
04
1b
f3
32
ef
cc
1a
f8
cb
fa
1d
03
e7
f7
f0
dd
ec
a1
d1
23
27
15
07
f3
bc
f6
28
05
dc
fa
f6
05
dc
14
01
08
19
26
ed
23
fd
d8
40
20
ff
e2
d6
e0
11
00
14
ee
f8
f7
1b
08
08
fa
2e
09
3e
f3
1e
04
0b
e7
07
23
28
ce
ce
d9
2c
13
e9
ef
ea
07
2e
16
1b
f6
e8
0d
29
13
e4
f9
0f
09
f8
1a
f2
0f
da
16
11
e9
d4
14
14
f2
cc
2a
c8
2d
1e
fe
09
0b
0e
05
0c
ac
01
fd
d6
c6
20
0a
1d
fd
17
f5
23
29
26
f4
f0
35
33
12
09
fc
dd
f6
f3
12
fb
20
0d
d9
da
14
a4
50
d1
d6
ce
02
06
ec
f0
eb
e8
10
08
e4
07
eb
01
24
f9
f3
07
0d
03
01
0e
b4
f1
2b
03
fd
ef
fb
fa
bc
30
fa
28
fa
28
12
01
11
1a
0e
17
bc
e0
ef
e9
17
d8
df
de
c9
01
00
f6
0e
da
fa
0b
0c
09
ec
df
2f
1b
1a
da
cf
d7
07
ff
ec
0d
2f
c3
fa
0a
1d
ea
ec
e5
ff
1d
21
0a
2a
01
27
fb
ed
0b
ed
0e
0f
ed
f5
0f
ea
f8
ef
f9
df
1f
12
fd
fc
f9
05
cd
28
2d
f1
17
19
1c
e1
ee
de
f7
f5
f9
fe
0d
fa
15
01
ea
0c
1a
f6
34
e3
eb
35
10
26
ff
02
21
0b
20
e2
01
cc
e7
dd
e3
db
f0
1c
f1
b6
f1
0d
e2
f6
da
d7
f6
f8
27
f1
fc
ea
eb
07
06
c0
f0
e4
ff
fa
04
02
0e
fd
c3
ef
b6
f6
fd
f3
33
10
ea
1b
1d
f9
20
13
ec
ea
c4
e5
f3
10
f9
e8
12
25
34
15
fb
05
f2
10
ea
f9
ea
01
27
d6
f9
fe
eb
14
02
da
f2
20
08
0d
da
10
fc
20
d7
e1
ee
36
1b
08
dd
16
f7
1a
02
e0
31
fd
f9
3c
eb
16
12
f0
ee
f5
f5
05
49
31
00
08
0a
2f
d4
d4
f5
0a
de
06
16
d1
0e
05
1e
15
f7
e6
0c
f8
d3
41
f9
03
c2
07
da
2f
f5
03
fb
1c
ed
0d
df
01
c7
ef
1d
28
1d
f6
f0
04
fc
01
e3
d3
0e
1d
01
0e
ee
1b
d2
fe
00
e2
cc
e9
c3
29
01
f3
0e
fd
10
0a
ef
0d
0b
27
f1
11
b0
0a
ff
26
fd
fc
3a
2a
ef
29
0b
00
1b
07
f2
ea
06
f3
02
ea
e9
23
d5
db
d1
ff
f2
ce
da
f8
0f
e2
fb
f3
36
d2
d5
fa
fc
e1
fb
20
f5
e6
cd
06
20
f8
e1
f9
ed
f8
ef
fe
f9
13
f8
18
47
e5
f5
eb
07
15
dd
ff
ef
07
f2
f4
06
03
1f
3a
28
0f
0b
ef
e1
19
e5
e8
02
f2
14
07
1d
00
0e
08
15
e7
ef
fa
32
26
e0
e7
09
2f
10
0d
d2
0b
21
e3
1e
cb
e4
17
d5
f0
ef
d2
ca
df
f4
00
f8
13
0f
0b
00
2d
1a
11
e7
e6
ff
0c
fe
00
fd
27
2a
f7
13
ce
d7
e5
f2
18
ef
e3
fa
f3
f2
d2
e9
15
f2
ea
f9
0f
fc
f7
34
dd
f6
dc
1b
df
cc
2c
08
dd
f2
16
c4
db
da
eb
f4
1a
e2
fe
d0
04
42
0a
f9
ce
ff
12
0e
fb
f7
20
f2
03
b9
f5
e7
1b
f0
11
15
14
ef
02
03
e5
fe
f3
3e
14
27
e5
38
0f
f7
e8
f2
ed
fe
ee
f3
dc
f9
f5
05
e9
f6
02
3c
11
05
1d
ee
04
1f
ff
17
0d
fc
f0
12
15
f9
0b
42
24
23
0b
e7
f0
0c
02
28
fc
19
0f
23
ed
07
eb
2c
e2
21
1b
1e
03
0e
d7
26
09
1e
03
03
08
e6
05
0b
fe
26
00
f9
fe
00
f8
12
1d
ff
f4
03
f8
f8
ef
bb
0d
f8
c3
18
fe
ee
d5
06
f1
dd
16
f6
0f
08
00
1b
29
37
f8
01
fe
05
0b
07
0a
23
2d
fb
18
1b
04
0d
07
13
27
e0
b7
e2
23
f8
fd
0d
f2
de
20
e6
11
13
e2
f2
e9
0c
e7
00
07
ff
ed
c7
02
1f
30
e6
e8
fb
1c
13
f5
df
11
05
c9
26
ec
fd
0e
b1
f6
18
f0
0b
15
e6
13
f7
0c
02
2e
0a
b3
d8
19
03
d5
bd
0d
f7
0a
06
ce
c5
f2
f4
d2
ea
c2
f5
ee
10
d1
ef
f4
06
e6
14
0e
02
e6
0f
e5
1b
fb
00
d2
e3
03
2f
1a
f6
f1
11
de
f7
e4
39
0a
fa
e7
ec
1b
37
2d
f4
fd
fd
1a
f3
07
f5
e2
e3
e6
17
36
ee
ea
1b
02
29
fc
0d
f0
e9
db
1f
31
2d
d2
f8
03
15
f1
e9
c0
cd
db
f7
ed
1d
12
ff
1c
34
09
1a
04
fc
20
09
ff
fe
00
fe
0d
c2
dd
0d
0d
35
0e
e1
20
17
19
ec
f6
ed
31
f9
da
dc
2e
23
09
0e
17
1d
1f
ca
fd
2b
f8
fc
f0
f2
00
2b
f0
28
f7
e3
11
f1
f4
f5
10
07
0c
02
03
0b
42
fc
de
06
20
24
0a
e5
fb
48
fc
30
1e
e4
f4
e6
1f
17
ce
11
fd
26
bf
ee
16
10
d0
fe
19
04
e8
11
f8
05
10
ca
08
f8
f8
04
02
0d
db
24
2e
1f
0f
1d
01
f9
10
fa
fe
12
08
e0
e9
1f
fc
16
e7
0f
f8
0a
27
eb
dc
f0
f4
1f
08
d1
f8
0c
d9
19
01
16
26
1e
35
06
4b
ec
04
ea
ea
ec
25
04
07
e1
eb
0e
17
0a
e9
f3
01
1d
f0
fe
fe
ec
fc
03
df
01
ee
0a
14
0c
e8
0b
35
12
f1
d2
1a
08
f9
eb
f8
29
08
1b
f8
f5
e1
0c
1e
01
f9
02
f6
fa
e2
f6
fd
fe
02
12
d9
07
01
12
0a
ec
2c
04
f2
f8
11
15
1d
dd
fa
ee
fb
b8
08
08
20
3a
25
21
07
f1
23
f2
2c
19
ed
de
c2
1e
f8
06
e3
1a
ec
e5
08
28
e3
f8
e6
e1
1b
26
cf
f9
ee
0e
2d
25
18
1f
ff
18
03
08
e9
12
23
16
03
d7
f3
f2
da
ef
df
eb
ff
40
07
14
25
22
fb
00
ed
23
d9
31
07
23
23
f1
e9
12
10
f8
ed
16
0c
d8
ee
02
0c
1c
fa
0e
d4
08
0d
0b
e8
fb
fd
2a
e1
16
dc
0a
1c
e4
18
e8
08
ff
0f
d8
fb
f1
28
e3
15
02
f9
07
e0
ec
db
fa
f8
25
2e
e0
f5
04
0b
ec
10
f3
eb
20
07
ed
18
f2
cf
16
ed
15
fa
0f
0c
dd
3f
fc
20
12
f9
2c
ea
0a
11
e8
e3
0f
0f
f2
15
13
c0
fd
24
f6
13
fd
fd
f1
2a
ed
0a
14
f9
0c
d6
d2
e4
e0
2e
ef
cd
fd
dc
0d
2b
0c
18
da
0e
e5
03
07
02
ef
06
f9
14
f3
13
13
0a
0c
f0
f0
0b
14
3d
e6
0d
12
d9
00
f0
16
5f
ef
ec
00
21
1f
0f
f4
16
f6
27
11
07
e8
ee
0c
fb
1f
c0
f8
f9
10
11
f4
14
0c
da
0e
d7
e4
fc
0c
e0
f6
3c
2f
0d
17
c6
1c
00
10
fe
e0
29
ea
cb
e9
14
f6
28
f5
0d
fe
f8
04
f0
26
cd
2c
fc
27
f6
f2
17
1b
f2
ed
fc
36
0a
d7
c9
1b
24
f2
00
10
ed
f8
00
25
b7
f2
d8
df
e2
09
23
25
c6
0c
c9
3f
00
1c
dc
16
f8
f1
d9
07
d6
ff
fd
f9
0d
06
0c
ff
02
09
10
ff
02
ef
13
06
11
14
fa
0b
fb
23
dc
2d
cc
e3
f4
f3
03
2a
e5
09
02
fd
12
db
10
1d
f5
10
27
fd
fb
f1
19
eb
19
0e
0c
f8
06
f3
f0
fb
0f
ce
dc
e9
ea
e9
f8
d1
e3
fd
ee
01
14
03
e1
19
f9
c2
e3
16
e6
fc
e4
48
d9
0b
ec
ca
e6
f3
fc
f0
ea
df
eb
c5
db
df
ee
c9
18
17
d9
fb
14
12
f1
fc
02
24
f7
f9
15
fe
1d
ef
f9
12
fe
12
18
dc
0e
f2
e8
ef
0b
07
f3
d9
0e
d2
f9
db
fb
d9
f1
13
08
dc
e3
29
b9
0c
e5
e0
05
25
05
c7
e4
d9
c6
f8
e7
f8
d6
10
0e
04
f1
db
21
07
07
ff
f5
10
05
fe
fe
08
03
f8
e6
26
f5
17
d2
00
21
19
d4
ec
f9
01
f1
0e
dd
0d
19
e0
1e
fd
c0
04
01
1b
ed
ee
e2
00
df
e9
d6
eb
ec
09
f4
26
10
20
fc
36
0e
eb
0c
15
ef
18
32
2c
e1
2f
ca
01
dc
02
fa
35
25
f5
fc
53
cb
df
e9
0e
52
2d
f2
fa
e6
e1
ed
04
08
1c
cd
ee
e4
d0
da
d9
07
e1
d0
00
11
5c
13
02
10
ed
02
ec
05
ce
d6
2c
05
08
e1
ce
06
e7
13
ea
0b
05
05
cd
12
f4
14
49
f8
c5
d2
fd
05
fc
e7
d0
c2
07
00
05
f1
17
05
ef
e7
f7
fd
f7
fb
f9
d9
2d
fd
09
f0
f9
1d
27
11
fa
ee
f8
02
2b
19
15
f4
eb
eb
f2
12
30
e6
15
0e
05
e4
f4
16
e8
21
25
06
e5
fa
0e
fd
0f
fc
d6
fb
02
dd
0d
07
cc
ec
ef
27
ce
25
25
ec
01
fe
fa
1d
19
14
cd
f9
c4
32
20
07
0b
fb
f0
f3
cf
ce
dd
00
30
e8
19
f5
20
db
f1
f0
f8
0e
17
f4
da
05
ea
40
09
d0
0e
e4
d0
37
d3
e0
f0
ed
17
ef
ce
05
02
08
ec
03
05
ec
12
fb
0c
04
e0
23
15
06
20
f0
e4
30
11
d2
f9
c7
f8
e2
de
f5
f1
fa
0d
30
e1
32
f4
19
ee
f4
29
23
ed
d7
f4
ff
2c
26
15
09
f4
e4
05
02
d7
e2
f9
08
ee
eb
f4
15
e6
29
10
ec
03
ea
0c
dd
05
10
dc
06
02
04
23
fe
e3
0f
1d
16
05
03
0b
0b
ce
fb
d5
14
12
f2
d7
f9
ed
23
20
01
df
f1
19
f8
e5
31
06
ed
db
fa
dc
0e
1c
fc
14
f1
2e
0b
17
f0
e0
d2
2b
ed
f1
d4
fc
ef
2c
04
d7
18
db
ca
dd
f7
20
dd
c7
fe
21
08
1d
f5
e4
2e
00
f3
fa
06
06
f4
06
fb
fb
13
e2
0a
04
f1
08
f4
ee
e8
21
09
fe
b6
0a
e1
32
37
e6
de
38
01
10
15
f0
ed
de
f6
07
fa
2e
0b
0d
21
3c
10
16
01
f4
04
f8
0d
03
0b
f7
0a
16
27
05
07
05
e1
1e
e8
fc
1e
fa
01
ea
c9
fb
33
05
fc
f1
e9
14
1b
d8
0d
21
29
cc
f7
e2
e6
f7
01
0d
fd
00
0f
df
e9
ea
f9
fc
25
fb
0d
ec
ea
f2
f9
1b
f1
2b
32
f7
fb
04
04
e9
20
fc
ea
f6
00
17
00
06
1f
e3
df
35
12
09
bd
ff
10
e0
00
f6
d7
ed
e7
03
09
fb
c6
f0
e1
c4
fd
f9
12
fc
e4
34
0d
eb
e6
fc
18
d7
2c
d6
01
2d
e2
2e
25
d6
0b
f1
ed
f7
10
cb
f6
1f
23
22
32
fd
37
25
0d
15
10
1a
e5
12
26
1b
0c
c5
08
1a
0c
e7
11
f8
ee
f5
26
1b
f3
24
fc
cf
04
0c
d8
f2
04
01
04
fd
e5
e9
f0
e6
32
19
fd
f2
d8
3d
1c
02
0d
15
06
ee
34
14
37
31
f5
18
dc
e8
0b
c1
2a
f6
ee
24
2a
ee
3b
06
12
0b
e2
01
0f
e1
13
ff
17
0d
cc
e6
dc
07
f7
26
08
cc
22
14
e0
1e
19
0d
1d
f4
df
1b
13
18
f4
14
de
27
ca
ee
e8
0d
d7
e7
10
c2
ec
f0
0e
16
d8
20
06
fd
b7
3b
32
f6
e8
3b
22
ff
09
e1
31
1a
e7
0e
1d
29
00
ff
55
09
11
f9
06
1d
f5
5a
17
0f
0c
06
dd
f0
0d
44
e4
c5
db
24
01
f6
0d
12
db
e4
ee
36
0f
e6
05
eb
19
0b
e7
ca
17
de
01
30
f7
07
de
18
ea
f5
e0
12
f7
d9
cd
06
28
f6
f4
0b
f5
f7
cf
15
d1
1a
02
05
1a
23
f4
ee
19
f8
f8
03
bb
14
fe
0f
e7
09
24
02
f7
0d
3a
e5
dc
d9
f2
f3
e5
bb
d9
e9
48
e9
02
d7
03
03
11
f0
0d
da
fe
d9
e1
1a
19
e1
37
41
ec
ee
22
01
fb
e1
24
f9
f2
21
26
06
f9
0b
d8
04
05
d3
07
1d
1c
ed
0e
ef
0e
f9
dc
0c
fc
10
24
28
ec
17
0d
cd
e1
08
fc
e9
de
06
10
fb
e3
d7
b9
fc
04
eb
db
ec
ed
ff
2c
c4
0b
f9
eb
1d
ea
0b
e7
e1
01
03
e2
e3
f1
14
06
00
12
05
1d
05
e3
e5
c4
0b
d1
db
d6
24
fa
33
08
1b
ec
ed
30
e6
1a
12
d4
fc
e8
13
00
13
21
0d
f1
10
f6
f4
06
e1
f3
10
23
e1
2e
20
23
fb
e3
fd
13
d8
ff
ef
e8
e3
e0
e1
fb
d0
07
33
0f
0a
e0
d8
f4
f0
08
1d
f1
ed
f8
17
2b
13
0f
f6
01
1d
32
17
0f
16
06
f1
09
0a
0f
f3
10
f1
14
0e
16
07
e9
da
25
10
1e
f2
0a
e0
08
10
f2
eb
29
10
fe
17
0f
0b
f8
0d
f7
e7
2f
fe
da
f9
d0
fb
ff
1a
27
f4
ed
ef
fb
f7
e7
0c
12
14
07
02
ef
07
f9
22
33
e3
16
fd
f3
23
f1
e5
f1
26
42
1d
ea
3e
1c
f9
df
f8
f5
1d
07
06
e6
f5
f5
24
12
d2
e2
f6
56
15
12
22
fc
16
e4
1b
02
ef
25
ee
d7
e3
05
fe
f3
13
da
f7
13
27
07
14
0d
00
d0
fe
f5
ff
06
e3
12
d2
ea
e4
09
07
18
f8
2b
24
18
ee
db
dd
09
0e
f6
e0
ec
0c
e8
cf
fa
22
08
e5
e8
10
22
ef
dd
42
fd
ff
1b
06
00
f7
3d
ce
ef
fb
d3
b8
fe
1d
0e
03
d5
08
e2
24
fb
e6
c2
00
14
e5
d7
18
f8
16
04
e8
09
e3
f0
ee
f9
ee
02
dd
e0
21
df
27
1f
fd
fd
08
f6
f3
f6
21
12
d9
dd
f0
f6
f9
4a
f7
db
16
14
0a
13
ea
01
ff
41
0d
19
03
14
d8
ce
14
ff
c7
21
29
3c
ee
ed
f5
fe
3d
23
02
f4
0b
e7
0b
f4
f7
1c
12
ef
e8
23
e1
14
02
c3
d7
f0
34
f8
fa
e2
1d
0c
fb
45
ff
ec
e2
ff
ef
f6
f6
f1
ec
f8
01
07
0e
dc
09
f1
f5
10
ee
28
ee
ed
45
f3
21
05
1a
dd
0b
fc
0c
fe
f3
fd
f6
14
37
3b
ff
fd
0e
0f
15
db
f1
e2
14
d6
05
ee
f8
cd
d7
f0
10
17
16
e9
05
17
e0
fc
f0
24
1f
07
e1
2e
31
f8
e1
0a
0d
f9
2a
20
ea
f7
ed
14
f5
f9
e1
09
ed
23
e4
0c
0a
ed
00
28
f7
0d
09
42
1a
f2
ef
fe
17
27
ee
fd
e8
2a
25
15
bd
fd
cc
fc
cb
15
01
dd
cf
2d
14
00
f3
f7
f4
e4
05
0d
e6
df
e6
f2
05
e1
f7
e6
f8
03
fd
eb
34
16
fb
fe
0e
fd
0c
0c
e5
0b
21
ef
e3
f2
f6
06
d7
f3
1a
fb
22
e9
f5
e8
09
0f
3b
07
05
04
f8
0f
e4
f0
fd
0d
1e
c7
d1
d1
0b
15
f9
09
11
fb
0b
03
ce
f9
23
0c
13
17
0a
06
f7
f9
03
24
fb
e7
d4
01
32
0b
13
4c
1c
2c
16
1c
06
f9
db
f6
e8
f3
25
1f
03
46
f1
ed
d5
ef
f3
25
ed
f8
fe
e6
60
2a
f2
12
06
0e
ea
03
03
1f
fd
0a
08
29
ef
e0
e1
f1
11
0e
f6
d8
ed
11
06
ed
16
04
04
10
17
df
22
24
44
02
47
fc
10
13
e7
f0
e9
15
ed
22
0a
fe
21
41
ff
06
17
0e
e3
dc
15
ee
1a
eb
ff
fd
06
fe
13
02
ea
ec
03
b8
09
1c
20
f9
ec
2c
19
07
f5
f7
16
f6
04
e6
ec
14
ea
08
19
06
f6
d3
fc
2b
c6
f5
18
02
11
14
f9
19
1a
0e
09
d6
09
0f
03
13
d2
18
17
ee
0a
09
0c
15
f6
17
04
ee
e0
17
ee
de
ec
05
1d
12
ff
f3
02
0c
14
11
e5
10
0f
f9
09
0b
05
d9
19
bd
2a
14
05
09
e5
2f
01
16
0f
3a
fb
e0
fc
01
06
f2
2d
02
11
08
07
1b
03
2b
ec
02
17
e8
28
00
fd
e9
28
f3
f6
f5
11
fb
e9
e5
f5
06
f4
fd
ff
f3
21
e9
e7
0a
19
ed
d8
eb
2b
46
2e
ed
98
eb
12
02
00
0c
e5
06
04
ff
06
11
07
ef
07
e3
ee
24
14
42
e2
34
ee
2c
f8
16
1e
10
f1
e7
0d
1f
15
15
0c
24
08
ed
f1
d4
e1
e4
1b
f9
10
f3
12
3c
0f
03
fe
0b
28
0b
09
30
07
12
c9
eb
15
ee
b4
00
df
ef
c2
1d
d4
d3
e1
15
f4
09
f8
13
e9
09
0f
fd
0c
c7
f9
f0
e8
dd
f2
fc
0e
0f
04
f5
0c
fc
13
f4
42
46
2a
14
f5
cb
cc
e1
c2
ef
18
ea
e6
14
02
ee
17
dc
d4
f4
d2
03
cf
e3
cf
f9
18
fc
e5
f6
06
07
f8
44
1d
e4
26
01
fd
02
1c
0b
ea
bf
f2
e9
fb
f9
33
d1
03
1c
24
03
e8
f4
f4
e0
f7
00
ed
d4
02
28
07
f5
17
11
f1
f7
29
0d
f7
e9
ee
f3
18
07
ec
dc
de
ea
0e
40
f3
40
04
14
15
f9
f7
b0
00
f0
f9
fe
f7
f7
f1
30
1f
f0
05
29
f6
09
0a
ff
fb
1a
e9
df
02
45
e8
0f
f4
0d
02
d7
0c
04
e9
d0
12
1e
de
1d
f5
e6
df
d3
fb
f8
fe
e3
f4
f3
0e
ff
2c
15
08
fe
df
08
f3
ed
d8
c5
16
ff
05
1d
e6
d9
14
0e
07
2f
f0
f4
04
1c
f9
08
11
14
f2
00
1b
13
2f
0f
11
0f
0b
03
f2
cc
f5
f9
0d
03
15
df
00
1b
fa
ef
fa
12
0e
03
11
f4
10
f3
15
0d
f8
e9
2c
1e
ff
d7
d6
e2
e7
01
e1
f5
01
21
f0
07
df
fe
35
03
fa
0b
13
f4
fa
2a
23
24
fa
f5
27
fe
02
06
19
fa
06
f8
16
f7
2d
04
14
fc
23
11
fe
17
02
fd
38
fe
0c
f7
f0
11
18
d0
15
12
d5
20
31
11
22
ea
0a
23
c8
21
33
14
e9
d6
de
1c
05
fd
f7
f3
21
03
0f
14
1c
0a
fe
d2
f5
f8
d9
e7
dc
06
01
cf
d8
eb
11
10
17
10
07
19
f8
fa
fd
0a
cd
f5
26
20
1b
fe
1a
35
d6
0e
08
f8
10
ed
c9
fa
fe
22
12
dd
ec
ef
3c
32
37
22
0d
17
23
f9
ff
eb
e6
01
0f
0d
f9
06
ee
1f
15
03
f4
1c
f2
03
e7
0d
f1
14
f6
17
fa
ee
ff
15
24
11
d6
f6
f8
12
fa
d4
db
e9
f6
f6
e6
e1
0f
26
30
ed
0c
19
14
3a
36
0b
fe
03
07
0b
0d
fa
e1
cd
07
23
df
e1
e7
0e
18
08
ea
0c
fe
d4
e8
14
1e
0b
fc
14
0d
e4
23
da
15
06
30
23
de
05
2a
ee
f0
eb
08
12
05
e0
c7
f8
0c
29
ca
03
e2
fc
15
04
db
0b
f8
21
ea
f9
ea
ee
2e
16
07
e9
f4
ec
d5
04
31
f6
00
e8
27
17
f4
3a
16
04
d5
d4
f1
28
e7
cd
f1
2c
2d
f8
c7
f4
10
e7
0a
e1
01
d7
18
2e
28
03
0f
31
f2
35
23
0a
05
d6
fc
f6
fe
f0
eb
07
17
1c
ed
17
40
1f
09
02
36
2c
0e
c4
0d
22
29
a4
1e
28
24
f2
fc
ff
0f
f6
ec
f1
04
2b
0c
f8
ee
13
f3
19
0e
eb
d8
d3
07
20
04
07
03
fd
04
04
05
1d
1f
f6
d7
25
d6
19
fd
01
17
2f
24
28
00
10
f7
e3
f2
fd
1a
01
01
ea
e2
fc
d4
03
09
eb
dd
fc
16
02
d3
de
25
0a
06
dc
24
fe
39
09
0c
35
0d
18
e1
e7
08
1c
14
fa
fd
e3
03
07
4e
07
0b
1e
2d
de
ec
26
e2
f2
e2
0c
f7
0f
fa
d9
e4
1f
0c
1e
d6
ec
09
ea
24
0f
07
14
1c
1e
dc
f2
06
c7
31
f8
09
f3
14
ff
e3
f7
0d
df
e6
f6
fe
00
23
29
e0
d8
31
00
df
ef
fa
0d
f0
ec
cc
05
26
20
12
1a
02
2a
f9
de
12
1e
cc
e5
c1
f7
17
16
fb
ff
24
18
02
09
f6
2c
1e
00
ff
0d
26
0f
f1
dc
eb
0b
e0
fd
e8
10
f6
09
01
fd
09
f9
49
ec
05
07
1a
fa
f7
e0
03
1b
ef
fa
30
f4
09
f3
3c
ed
ed
e7
18
49
da
18
23
09
02
fe
0f
14
2b
e8
f7
cc
0e
f8
fd
02
fe
dc
fd
d7
06
ff
18
dd
e7
f1
08
e5
07
03
18
fd
fd
f4
08
c9
d7
1b
fc
0c
3a
ec
1a
f0
01
ec
0a
f8
29
d0
02
0a
2b
36
e2
15
20
1c
37
05
f2
f5
dc
13
1b
10
e5
03
09
10
f7
17
3a
24
f9
df
03
41
0a
35
0e
fd
23
01
0a
ff
07
14
0d
eb
fe
e7
e0
04
03
15
ff
e7
09
22
08
33
2a
0b
19
06
f6
2e
0c
dc
fc
f8
fe
f2
e3
00
d5
dd
1b
2e
05
07
fa
e1
df
51
22
17
f4
d3
1c
05
ff
04
df
ef
f4
fe
1e
1b
0d
ec
e4
16
02
f0
f3
fd
d2
fd
1f
02
eb
c7
03
28
fb
ed
ef
ea
e6
27
fe
01
1b
04
09
fb
00
2c
e9
fa
e8
e7
da
f9
f2
ef
ef
e3
e3
ff
cf
e5
ec
fd
f3
17
cc
ea
d9
15
38
0e
d1
1a
f3
fe
f9
0c
ee
f9
08
f4
25
1d
1b
05
da
0e
e6
f6
2a
f8
16
f4
f4
00
ef
db
ed
fa
23
f7
c1
08
0a
0b
ff
c6
07
1b
f8
16
f6
f4
e7
c8
e9
f9
0b
1c
08
01
e2
e4
22
05
f2
f2
12
ec
10
fd
ef
f6
1b
09
1f
ff
f5
c7
05
cb
19
1c
02
f1
cf
22
08
2c
2c
12
fb
f4
f1
18
ea
f5
03
2c
14
18
2c
06
02
ee
0e
37
ff
2a
f5
e8
08
ff
15
fb
00
28
14
30
fe
f3
0b
13
c5
e9
e6
34
f1
da
db
d9
f6
fa
0d
d3
16
0d
d2
12
c6
f5
ee
0d
1c
d5
cb
e6
ed
ed
0c
09
eb
f6
db
0b
f4
11
f5
e2
e6
33
03
34
fb
f4
fc
d7
ed
10
e2
fc
fb
ff
0a
ed
e0
df
2f
18
f4
e1
f2
1e
00
17
d0
06
02
01
d3
2e
0e
fa
e7
2c
c4
fa
14
2f
1c
16
bc
15
32
36
12
14
06
e9
1d
19
01
12
0b
dc
06
11
ed
e1
e8
f8
bc
ee
e4
f1
f7
f0
21
02
07
06
e0
0f
02
ee
ff
e8
f9
2f
fe
0b
0b
ec
fc
d7
00
00
e9
d6
d5
fd
05
3b
ca
ac
e2
1d
19
ed
03
01
c5
e4
dd
0e
47
db
fb
28
02
fc
e1
fa
0d
08
12
f4
fb
17
f4
0d
05
2b
1d
f1
17
23
22
19
11
39
ee
fa
47
fe
cc
00
e1
f7
07
f5
ce
fa
f7
26
11
fb
f0
20
ea
e9
1f
15
0e
ef
1a
e6
1a
fb
11
2b
f3
00
eb
db
1d
ed
fc
fb
d3
0c
df
d4
dc
d4
f2
e9
fc
fe
f2
05
fc
09
ed
38
19
f4
29
0d
0b
25
1a
df
d9
f9
15
29
08
e0
af
e3
fa
ec
d2
d8
f2
18
f9
fb
df
f8
22
fa
f8
d3
21
1d
da
cc
0e
19
e4
f0
29
22
16
ec
05
dc
1f
11
db
ab
02
0d
12
c2
ca
d3
df
09
ff
d5
bf
ed
08
fc
d1
d1
fa
15
1c
3f
26
00
02
e3
2a
10
07
17
e0
f4
09
0b
09
ea
ff
fe
15
01
dc
e2
d6
fe
0a
e0
ec
f5
e3
20
01
e7
eb
0e
fe
0e
f4
e6
15
1c
c6
c7
13
22
1c
ed
f6
16
f5
f0
f5
0b
07
1f
37
ed
19
e3
00
0b
d6
d7
fb
17
ee
d5
dc
05
cd
23
20
eb
de
fe
f8
f1
e6
d5
e7
00
33
e9
f9
12
d8
ec
cf
d5
fe
28
1b
06
ad
f9
25
e8
11
0d
c8
0f
e9
d7
ea
e6
32
fc
2a
d7
fe
da
25
f9
ee
f2
23
f6
f2
0f
f4
d7
29
f1
f9
ef
25
0a
09
10
ec
01
f8
0b
12
06
13
2c
d7
00
1f
2b
06
08
14
26
11
19
13
2d
02
00
09
e7
1c
25
0a
d9
0a
ef
08
01
ef
d7
0c
ec
d3
ef
fe
c9
e6
0e
16
05
00
fd
d2
f8
f7
f2
26
04
01
e0
05
18
f9
fe
d4
06
fb
f3
fc
f8
f6
da
19
1d
e8
dc
eb
d2
ef
e8
21
ef
10
ec
20
12
20
20
e8
1b
1c
2d
0b
12
f5
0a
25
e6
04
31
e2
f3
1c
1c
f0
23
e3
0b
e6
f3
fa
1a
02
f9
d0
21
10
f8
f8
e0
c8
df
07
04
07
ee
f8
0a
04
d8
f4
fd
21
12
fa
ea
1a
f2
cb
ed
fd
d1
1c
e4
e8
d3
ec
2e
12
1d
fb
16
02
ed
e3
f1
f2
de
cf
04
17
01
f5
da
eb
f0
e2
e3
f6
f5
e3
01
09
ee
0f
ec
d8
d6
f9
e4
01
21
0d
e9
eb
e1
1e
e5
cd
e3
0f
e0
f4
1a
fd
1e
cd
b1
2d
f8
f1
eb
f9
10
00
a8
0d
2e
02
d4
dd
34
0e
03
ef
1e
23
31
e6
ef
e0
f0
0c
3c
27
ff
1d
2b
ed
f2
fa
e8
17
dc
ee
16
1b
ee
e3
fa
e8
ec
28
f8
fd
f9
f4
e7
d5
06
fb
04
37
e5
d9
d3
e0
14
eb
d0
de
0d
00
2c
fd
e2
e8
e9
24
48
0b
eb
f9
10
2d
4a
f8
fe
cd
d1
f7
0c
11
dc
0e
eb
db
15
b9
d7
f8
20
f9
05
f4
e9
d1
f7
ec
ee
e9
ca
bf
e4
f3
e0
d9
16
1d
1b
1a
f1
11
f8
21
18
ee
06
ed
f2
fa
19
0c
01
01
c5
e3
f4
f4
d9
05
e8
05
1d
29
22
30
1f
f5
0b
2c
fe
4d
11
0c
e8
13
0b
f0
f5
fd
e6
09
fc
fd
f8
0e
1e
fa
cd
dd
21
16
00
1d
2d
f2
f4
19
26
fc
ff
00
eb
d7
cb
fb
0f
d4
d9
2d
19
1a
f8
11
0f
ea
e5
15
0b
df
ed
eb
06
0e
23
d2
21
20
14
b9
f1
f6
e6
f4
e8
39
1f
14
22
04
ea
0e
f2
fe
04
15
f1
24
1f
de
fa
e7
05
e8
f0
f6
f1
d9
f2
f9
07
ff
d0
d9
ff
06
3b
df
c5
f2
e7
23
cd
d0
07
fa
0a
f9
19
ea
f6
1c
c8
fc
06
ec
08
af
b3
e3
17
00
d7
07
0d
1a
23
14
14
38
0a
e5
e3
0a
0a
47
e3
fa
c0
d6
0c
28
e3
d7
fd
00
1e
1c
e4
0d
04
11
1f
23
01
fd
fd
fa
0b
f5
20
0a
03
1e
de
10
f1
fe
d9
df
00
da
fa
09
f7
e3
08
fb
fd
e7
ee
bb
e1
21
1c
ec
28
0e
e2
ed
ef
0e
3c
e5
ef
ed
23
10
f8
f4
10
31
15
fd
03
18
1f
0b
19
03
23
fc
06
dd
ed
c9
05
0a
07
db
33
c3
f2
e2
3e
1f
29
f9
fc
08
07
db
1c
ff
1a
f9
fc
f6
fa
05
2e
0b
0b
40
25
11
f5
11
13
1e
1e
33
e2
0b
25
ea
f0
f4
e9
ff
f3
18
08
e0
01
ce
17
01
e3
e7
ee
e4
fa
c9
c1
f0
02
ef
e6
e1
14
cf
27
f9
eb
0a
f9
15
1c
11
0b
eb
f4
0e
eb
1b
1a
06
d7
ff
e8
f1
05
f2
e1
fa
9a
15
e2
e4
06
ff
e3
e0
01
0c
18
18
e4
04
1f
27
0b
17
21
3c
30
2d
33
26
dd
0e
44
f2
fd
fb
f9
05
e2
ed
e2
07
f2
15
0b
f9
00
02
08
e7
e1
0d
e9
de
eb
e5
0a
f5
e7
06
16
11
43
18
0f
0b
e0
0e
da
01
f0
cb
01
ff
d2
00
fa
e2
eb
f4
cb
1a
0b
e6
0b
e0
d7
f4
21
23
f1
fa
ff
15
18
05
2d
49
25
f6
ff
1a
fc
12
16
e6
cb
d5
fc
f9
fd
13
14
00
11
dc
25
f0
1e
16
ca
df
dd
bd
eb
02
f3
ee
db
01
ed
cf
28
e3
17
00
07
fe
c1
f7
1d
0f
e1
14
09
1e
0b
da
f3
fb
d9
e3
2f
ee
0f
b8
09
f3
e0
e2
14
0a
f2
fa
f6
f6
f5
36
fe
dc
fa
02
05
f9
fe
03
1b
01
e5
e5
17
1b
18
fc
11
fc
18
00
f7
15
0e
f1
0d
2e
fd
14
0f
0f
23
0b
e3
01
f3
12
b9
f8
13
15
e1
f3
bb
ee
df
03
f6
21
1d
e4
dd
c3
fc
f2
2c
e0
c1
dd
f4
1e
0b
cd
da
f2
3b
1a
f0
12
e9
e5
14
e9
25
13
f0
0c
12
39
e7
03
fa
d2
30
1f
2e
e7
1b
03
06
25
05
3a
13
dd
00
de
f2
e3
10
eb
d6
ea
19
fb
fa
fc
04
fd
23
01
fd
0c
fc
fb
06
0a
08
cc
0a
2d
1d
0f
26
e5
05
e1
11
2e
e3
f4
00
24
13
fe
f7
11
12
16
ee
12
0d
0f
df
ef
2c
2b
10
21
25
0c
f1
21
0c
f8
18
fe
fe
e2
18
ee
13
b0
fa
b5
06
23
f2
f9
d9
14
f5
ff
04
fb
33
ee
16
f8
0f
00
18
08
0a
cf
16
07
f3
cf
ca
1b
07
ee
19
f2
d5
bf
06
e6
17
fd
e0
f8
ef
0d
06
09
e7
12
08
37
0e
32
21
07
0e
f7
ef
00
f7
d7
dc
ca
03
f4
0b
06
05
e4
0c
28
eb
11
d7
1a
12
ef
18
13
eb
06
1f
f3
04
09
ef
f8
eb
15
d6
b7
f6
ee
10
f5
06
08
1a
ff
02
cb
f9
ed
0c
f5
21
f4
06
e9
c4
1b
d9
f9
03
0e
c0
d0
f2
1f
dc
f6
cd
d5
ef
0c
e1
e8
01
d4
d8
1c
01
18
13
f9
fc
e0
d3
10
e7
e2
09
ee
f4
cf
1d
c3
06
c7
1a
fb
04
ef
d9
e8
0b
ea
fe
e5
01
fe
e2
11
0c
e3
2b
f3
10
f7
07
14
da
f0
27
25
20
f9
fb
f0
ee
0f
0e
06
fd
11
e6
01
f7
06
05
08
17
ca
23
f9
fe
fa
f0
10
07
15
0d
2f
ea
04
17
e8
0c
06
09
fc
ea
ed
f6
db
21
e3
f7
e3
02
fc
fa
ec
19
de
20
05
e2
f0
21
e0
f3
16
0d
26
3a
1a
1d
fd
1d
2f
fc
34
e4
ff
34
ff
d6
25
e2
f5
0b
04
15
e8
06
0f
f9
d0
08
f8
f3
05
09
ef
41
f2
0e
1a
f7
1d
e0
ef
ee
fa
f8
27
01
0d
f3
e4
16
29
00
e6
cf
00
d5
c4
fa
eb
d5
1a
e3
18
d3
1e
e9
16
0f
fa
08
f2
f7
22
29
00
d5
dc
ae
e4
ed
e3
e8
be
0c
f2
dd
ed
e9
0d
f8
2d
28
24
f3
ee
1a
0e
1f
19
fe
e5
e1
f4
17
f1
03
f8
d8
d3
06
01
03
f0
c9
01
f8
fd
00
fc
15
15
e5
f9
2d
da
ed
c3
ba
0c
0a
17
fc
e7
15
20
17
0e
c7
ff
fd
e8
16
fa
f9
f7
00
0c
03
d2
1e
fc
e5
fb
e7
f7
25
20
12
1e
2b
0d
ec
0e
29
08
e8
0f
ea
1b
01
01
05
d8
0e
46
e6
0d
09
0d
f1
1e
e0
f8
21
19
fa
d3
d1
09
02
0c
d1
e8
0e
f4
dc
c8
b2
35
32
0b
03
d7
1d
ff
ff
fc
0c
f3
17
2e
f1
29
3a
e6
05
ec
ea
13
f5
29
fb
f3
10
03
18
ee
1c
01
f1
eb
12
02
c0
2d
09
13
01
15
1c
39
40
0d
04
0c
21
1f
18
1d
0e
0f
2f
0f
5e
d8
ac
d0
c5
16
d4
f5
e4
e8
0a
05
0b
ff
fe
eb
0e
37
21
f1
3c
30
06
fd
df
08
19
03
14
24
e7
01
eb
10
fc
19
d1
e3
f2
07
fc
df
05
df
f5
03
03
f0
d9
f6
f2
12
09
30
5a
2e
44
3c
1e
05
38
03
12
08
de
00
02
dc
2c
f8
25
f2
e1
fb
d2
f2
e8
22
30
1e
26
2b
17
f3
16
03
20
e6
27
4e
01
0f
20
09
f9
e8
01
10
25
db
ec
f2
09
ef
26
f1
cd
06
1b
10
e3
f3
21
d9
f3
e0
04
e4
e2
dc
04
15
15
fd
da
c9
d4
d4
0b
01
fa
f1
0b
0e
20
24
22
f9
1f
18
2f
09
15
26
1f
06
ef
f7
bb
fd
e2
eb
05
0a
f4
fb
21
ee
fd
0d
05
f5
ef
f1
10
f5
f4
fc
0e
e9
00
0b
1d
1a
1f
cc
f5
2e
0a
05
29
19
03
14
ec
20
1b
05
0b
16
26
1d
20
f2
ef
34
1a
00
00
f2
14
43
d9
e3
fc
fa
f5
f9
ed
0f
ec
16
ff
f8
0f
05
e8
f8
e7
07
00
1b
00
1a
1d
0a
fa
39
06
e8
c7
31
36
12
eb
0c
f6
35
09
11
0e
00
10
14
b0
e0
1a
02
fa
fe
ee
f4
38
23
ef
0f
15
11
31
04
16
1a
f9
1e
0a
31
00
ef
ea
27
02
31
e1
07
05
eb
fa
02
f1
f9
20
f7
f1
df
12
16
01
03
ec
d0
01
ff
28
0b
e8
36
13
21
39
01
ea
d0
f8
08
d7
12
0b
0d
05
fd
0e
e4
03
dc
fd
fa
0b
04
11
f5
1b
1f
0c
15
07
00
1c
09
21
ff
fb
1c
12
2c
3e
39
ff
39
1d
27
55
2b
0b
07
fa
50
3d
0f
fb
e8
0e
ee
ec
ff
00
1f
fb
0b
15
0f
18
03
f2
f7
e0
05
08
ee
0a
e7
d5
ed
18
e2
f9
e2
f5
de
15
4e
0d
1a
ee
f8
ea
cc
03
0e
0d
22
ec
1b
21
ff
ed
f9
ed
ef
09
06
e7
fa
01
02
0b
12
3f
e8
15
14
2f
fc
f4
e5
ff
3a
f2
e5
f7
ee
34
0e
f6
1b
f1
07
fa
ec
cd
07
07
fd
ec
cf
11
f7
f6
e1
06
d9
1a
07
ed
0a
ef
33
0d
0c
d7
c1
e7
d3
f7
13
fe
fe
e2
d7
25
00
01
eb
1c
fe
d8
00
ed
fd
dc
d0
f3
f3
e3
09
05
f3
e7
f0
0b
23
0a
e8
e3
ff
f6
e1
c6
f6
da
f0
da
c1
e4
fc
e7
fb
e5
e1
05
f5
17
0b
25
fc
17
25
fa
eb
db
d8
2c
0e
05
e8
fe
31
04
19
f8
0e
6a
3a
23
1a
29
11
db
f1
0b
35
f8
1d
0d
32
0f
22
f2
1c
e9
f0
04
e1
17
14
29
2b
db
e8
12
07
02
04
20
fd
e5
14
0a
10
f2
ef
2d
18
f1
10
f6
ea
10
27
db
f0
e7
31
17
0c
17
fd
f1
17
ea
f6
1e
1d
13
28
dc
fe
fc
ec
b9
06
ff
12
04
1f
08
f0
fc
2d
07
e4
e9
0c
10
12
16
fd
1e
28
f3
14
ed
f5
e0
10
1f
d9
d2
f1
16
38
ef
fa
4a
f3
f2
fb
d7
d1
1b
0b
d4
f4
23
13
0a
d7
f7
d9
e4
15
f8
a9
d8
f4
fe
f4
f0
e2
fa
26
02
13
f7
ef
e3
ff
f4
f8
f1
f5
f4
fc
f5
db
09
05
e4
f4
0f
ff
10
15
fc
01
eb
0d
e5
eb
18
fc
02
c5
23
16
15
e2
05
11
04
fb
dc
2b
b9
11
0c
31
f4
e0
e0
fa
08
de
cf
cb
a3
ef
fd
ed
11
fd
dc
09
ff
05
2c
ee
09
f0
f6
17
eb
16
1b
f1
29
d5
19
ff
d4
ec
dd
ff
1a
03
19
1b
fb
f5
13
f1
01
15
d6
f5
ff
38
2f
47
3a
1d
12
e4
e2
fd
06
da
fa
06
c5
df
f5
d6
15
d9
f9
df
e3
0d
ff
00
ee
f6
ee
fe
20
05
e0
13
d3
cd
0c
f9
f1
29
ed
0e
00
17
f6
2e
fc
ef
c9
f6
fb
fb
06
05
0a
cd
e8
05
32
e6
a7
07
f9
08
ec
28
15
28
20
1b
1f
1c
35
21
f2
f6
ea
c8
01
e7
e6
e9
05
26
0e
e8
1d
17
02
1e
2a
f9
f5
bb
cd
f4
ca
e2
e3
e7
ff
bb
07
04
0a
03
0e
fc
50
ef
18
f5
cd
e4
e8
cc
0c
d4
04
26
17
f2
e0
eb
04
eb
fa
48
29
f9
cf
fc
f3
ea
1b
f0
d9
ff
e8
f6
f8
15
2c
e0
e1
19
ee
0d
01
fb
e3
16
f5
1d
06
ec
15
f6
24
f7
23
12
0a
29
d6
f8
f5
ef
29
11
1f
14
23
05
03
fe
e2
21
16
f3
ce
c4
f4
0e
01
17
f9
14
07
00
cc
f4
ed
06
f6
2b
d0
f1
08
f1
ec
d3
32
40
d4
e3
06
18
00
1b
06
ea
01
f5
0f
37
09
12
fe
fb
0c
1f
0d
dd
e3
06
15
04
ed
d1
f0
e9
02
d3
e8
df
ef
f5
c7
02
04
e7
04
06
f1
fc
cb
f4
f1
fa
df
dd
01
e0
09
d4
fa
ba
f5
ff
fe
ab
fa
e4
df
dd
f7
00
fc
00
d3
06
c5
e4
fc
f1
f3
23
22
fc
eb
45
18
08
ce
d9
ef
dc
08
03
18
20
ef
e8
ef
10
f6
f7
b0
e3
05
14
08
f5
15
fa
f1
f2
38
f8
ff
02
fd
17
1a
fc
1b
ed
e1
14
eb
de
d6
f5
d0
ee
f1
00
01
04
ee
02
ee
01
fd
06
b4
e8
f9
1f
f3
eb
02
2d
f0
f2
0f
fb
0a
0c
10
f5
0d
0a
28
39
f7
db
da
12
f9
f4
d9
d8
19
d6
03
fb
13
f0
ea
f8
00
f9
0d
ea
f3
ec
1b
05
f1
07
17
1e
00
1f
0e
f7
fb
ff
e2
c6
eb
0a
07
14
e6
bc
0c
25
f9
ff
07
17
11
f0
01
05
e4
0b
fc
02
0c
eb
12
0c
9a
ed
f3
05
0d
2b
14
1b
fc
d5
24
03
f3
13
c3
ef
eb
bd
2b
fc
d0
f3
df
e8
0c
0d
fc
f5
ee
24
d7
de
dc
df
ee
ef
fb
0d
e2
0f
0d
15
d8
f8
05
f2
f3
da
e7
0c
e5
08
21
12
15
d2
05
e8
03
20
04
f6
c1
07
f7
ed
16
c9
05
e0
cb
0d
15
f1
d9
d3
0d
0e
15
d0
ee
f8
12
e8
15
d9
35
f5
f1
dd
0b
e5
f5
f4
da
05
da
ec
1a
00
f9
f9
e6
1e
d1
fc
05
17
0c
ee
fd
05
fd
00
01
c9
11
d9
02
2b
d5
e5
e0
d5
f6
e5
04
08
f4
ff
14
24
1b
05
2a
23
40
35
57
27
ed
f2
e6
07
e1
d7
0c
0e
1f
f0
13
f8
ff
fe
e1
23
03
07
22
f2
0b
00
02
0e
09
f5
e2
01
12
f9
f0
e9
fb
0b
36
fc
22
1c
0e
eb
00
ff
ec
fa
22
2d
f6
f1
22
ae
0d
01
15
fe
13
14
0f
c4
eb
c7
05
05
f3
0f
02
1a
e1
1f
e5
01
df
ca
fb
08
0d
f7
fd
e7
17
08
ff
11
f3
f5
08
f7
08
ed
1c
d8
fb
fe
f1
e9
04
0e
ff
0a
d1
0f
e5
d9
f9
bb
f6
0b
23
f0
f0
d0
dc
e8
07
e6
ce
00
06
f3
ed
bd
f4
1a
ee
1b
c7
df
09
1c
eb
2f
ef
30
f8
01
e4
fb
1a
ea
12
d7
f2
21
fe
ea
db
fb
ea
02
fd
ea
09
ea
03
12
00
ce
dc
ce
e8
f7
0b
dc
2f
13
21
e3
1c
18
17
06
0e
12
1f
49
f7
45
1e
2d
fd
e6
25
33
31
fb
00
20
1e
d4
db
d2
25
22
f2
03
f8
05
06
0c
ff
ec
ef
ec
e1
ed
03
db
0a
14
06
0c
fa
08
e5
e7
01
ff
10
e8
fb
fa
18
13
22
ee
f8
ed
c1
fb
f3
03
f3
d1
ec
f7
01
e5
db
f7
eb
07
db
f0
f9
14
18
e3
ff
04
f7
22
f6
f6
1f
12
c2
f8
14
fd
07
04
15
f8
f8
db
0a
00
0e
e0
e2
ff
20
df
0b
06
f7
f1
1b
f3
1a
0d
23
2e
dd
2c
1f
2b
f9
28
e9
11
c6
1a
01
fb
31
ea
11
1f
05
39
26
03
dd
ae
dc
f1
e9
e4
1e
1c
eb
fc
cc
c1
0a
05
16
06
54
1d
fe
11
08
eb
fa
1a
24
07
01
ec
d8
cd
d1
18
db
e6
ec
0c
c2
21
c6
e5
f0
06
e6
f3
17
0d
0d
d4
01
c5
f5
fc
08
17
f7
f3
fe
ec
f1
10
c7
e1
0c
f1
f5
23
eb
12
e8
12
14
0c
15
d9
1a
13
f8
f2
c7
2c
ff
17
ee
36
0c
fe
02
1c
c9
f0
d6
0c
17
0e
f0
02
32
15
2a
f9
dc
e4
da
2a
2b
02
00
0f
0c
24
1a
32
fa
21
f9
0e
d2
fe
02
00
17
1e
05
23
10
e6
e9
fa
20
00
10
1c
22
f7
fc
18
f5
1b
01
0b
f9
cd
df
29
25
f0
17
f2
e1
f5
0a
06
08
ee
16
06
18
11
1b
f5
14
f4
ec
f0
24
f0
03
da
f4
16
fe
19
35
c8
eb
e4
e7
e9
c8
db
fa
e6
11
f7
e6
01
ff
fc
f3
09
0c
12
3e
f7
26
37
2f
16
f4
ef
e7
14
0e
2f
fc
f5
e7
f0
1c
12
15
1a
f5
00
e2
f5
18
20
f6
e9
33
e9
1a
f3
18
1e
01
eb
f9
fa
2d
2f
f1
08
04
ef
f0
10
c6
e9
f1
d9
fb
16
09
fa
de
2e
c2
d9
eb
22
e8
14
dd
f7
f7
d9
ed
04
1c
08
04
d5
e6
d1
1f
ec
d8
ee
f0
f3
23
b8
fb
e0
eb
04
d9
e3
ce
f9
06
ae
c9
0a
fd
20
ff
28
20
1a
f8
19
2b
2d
45
57
e3
08
e6
16
25
1b
bc
ed
e8
12
08
15
f9
f6
12
e0
26
f0
0a
01
f2
e2
ec
18
29
da
0f
f0
ea
14
2a
da
d2
02
16
03
e9
e7
10
13
1c
db
ef
11
32
d8
04
2f
1b
32
f4
fa
38
f7
e0
22
14
4f
fc
e4
fc
25
db
d7
1c
08
22
03
15
c5
0c
0b
1c
23
fa
4e
17
26
f6
22
15
fe
df
e5
0b
15
48
2f
e7
fc
ee
f5
fd
1a
bc
44
24
fd
e7
ee
c8
d7
e1
f9
ec
ed
f9
0e
f9
db
d9
1a
02
cb
eb
13
cc
e3
ff
13
05
ff
fa
26
27
d5
cf
e1
d7
e4
db
05
dd
de
f6
d2
f8
ee
0c
05
cc
e6
e7
21
24
e1
f4
e4
fd
06
06
30
1d
03
07
13
23
19
14
f5
16
01
30
f3
ea
14
01
1b
1f
0b
0c
e7
05
12
26
ea
28
2c
26
00
05
c4
fd
f1
26
22
e1
09
04
09
fc
f6
07
1a
e0
00
e7
18
fd
22
08
0f
df
c0
f9
03
f0
f8
df
f0
fe
0f
f0
e6
fc
14
1f
fb
19
e0
f0
e1
d7
f3
eb
1f
ea
0f
17
22
13
0a
03
e6
09
46
5b
ed
1c
1a
2e
ec
f8
d7
f9
f4
db
14
00
0e
cf
e1
da
f5
07
ed
0e
db
16
ce
ff
f8
df
cc
16
d5
f3
26
e9
e6
cb
25
08
00
21
ea
f0
03
d0
18
dd
13
1b
ef
0c
08
f6
eb
dd
fb
f1
05
f2
ed
da
f5
1c
09
f5
16
e2
08
e1
da
f2
f2
fc
16
12
ce
f0
d8
03
e5
ff
ef
cd
14
f3
d7
eb
03
fa
e7
12
ea
2c
f5
28
08
da
35
10
c7
09
56
1e
05
0b
fe
05
d6
fe
e9
1e
f9
d1
29
d8
22
2f
e5
ea
d0
ed
18
f8
d9
d9
26
19
0a
13
d8
0c
01
fd
28
1f
dd
f2
dd
05
04
f5
2f
1e
22
13
f7
1c
e1
20
fe
d6
0f
3d
f4
02
08
1e
16
06
db
c0
23
ed
e7
ea
89
15
12
f4
0f
d1
2f
15
e4
ea
0c
40
0d
f5
f3
d1
f8
07
f9
f9
ee
05
1a
ea
18
de
03
dc
ff
1b
e3
04
df
fe
07
f4
02
ef
f2
01
e5
01
da
2a
fc
f7
17
eb
e8
f2
b4
f7
fb
1d
11
07
ee
08
f5
d2
f6
0e
de
f0
ca
f2
e2
f2
db
fc
e9
d2
05
ef
24
fb
fc
da
f5
f8
22
2e
d5
20
03
f3
ef
00
0e
f1
f1
f3
09
04
30
2f
2e
fd
11
1c
14
0e
f2
25
19
0d
d1
ca
ea
0d
0f
f7
09
25
fc
1a
f2
05
f4
31
f2
02
f6
33
1c
19
f9
ce
23
f0
1a
fb
17
ef
04
01
fc
07
00
18
36
14
f2
14
d7
ec
f8
25
13
c4
10
c1
05
00
19
f2
c5
20
e1
1f
f6
fc
ea
fa
17
df
0e
f9
20
ee
28
21
f5
19
e1
1b
00
db
03
df
e4
f1
ed
c7
25
08
d6
13
10
24
09
27
2b
0b
07
09
01
f5
14
12
f8
0b
dc
15
2e
16
d6
f3
e7
f1
1b
f0
29
12
17
d9
f1
e8
09
10
0a
f8
1d
22
05
f0
f5
bf
0f
d6
da
da
19
0c
e7
fe
05
1a
dd
13
f7
df
1f
eb
0f
fb
14
17
c5
0a
0b
e7
40
24
22
21
fd
11
30
0c
12
0f
0e
06
da
01
ee
11
10
35
17
09
01
18
c2
dd
06
4b
0b
e9
f2
05
f4
c4
94
ee
f0
22
17
24
fd
df
0c
f0
e6
f0
ff
03
0a
f8
eb
e4
f7
23
de
08
0e
ec
c1
0b
eb
0e
ea
e5
17
01
d0
e8
fc
1b
3d
d0
1e
fd
16
30
f7
f7
11
f9
fa
17
e1
c4
d6
e0
05
21
25
08
fe
fc
23
33
e1
e1
21
23
04
f1
c5
f2
fc
40
18
08
ef
10
e3
f7
ce
f2
f3
08
ea
f3
11
36
f7
1f
eb
09
0b
d8
e5
dd
04
1a
00
ca
e8
fb
05
ed
13
07
f7
0d
fc
0c
09
ef
02
19
d9
d7
09
00
0f
da
17
f3
00
e6
e0
f8
f8
f4
d6
f1
cd
ff
02
09
ea
0c
57
f9
e9
12
0e
19
dd
eb
e8
f7
fb
f7
e3
ef
e4
ba
db
ea
0b
e1
a3
14
0a
3c
ee
d9
c7
01
24
06
01
f4
d5
fb
0e
f4
f6
eb
ff
f4
ef
16
04
19
2c
2f
e5
0f
ec
dc
1b
05
01
1d
ff
27
e7
12
22
ed
fc
ef
fa
0d
0b
f5
df
33
13
f3
f9
e7
ef
f5
fe
07
ef
01
23
01
17
f9
f0
2b
fa
ec
18
04
db
f5
e7
f8
15
e0
ca
21
dd
07
bf
ef
f7
19
20
d8
14
f9
00
e9
04
f4
f9
fd
06
0e
11
f6
da
04
2c
fe
e0
e3
07
15
e0
e7
ed
f0
ea
f4
f6
fc
f2
f8
20
ea
b9
25
db
0a
02
d4
f7
05
07
e2
03
24
0f
3d
01
ec
03
11
05
22
fc
fe
ed
f0
2d
07
e6
e2
ec
fe
f3
d7
21
e7
da
06
1b
11
37
01
00
16
0d
f3
03
01
ff
fb
12
02
ff
08
c7
dc
13
d1
00
f6
01
1b
fe
dc
02
fb
03
09
ee
13
dd
12
fa
01
e0
f7
02
bb
ff
26
0f
fa
cf
d5
e5
f3
0b
f1
f6
f1
2d
ea
ed
e7
0b
ec
01
e1
fe
cc
fa
00
f5
d5
ee
e5
16
35
f3
21
fb
2f
e7
d5
f9
f6
0f
d6
09
0a
e6
e7
ee
01
ed
0e
2e
2c
07
07
1f
fb
0c
0f
0a
cc
1f
17
01
24
f8
f0
03
01
fd
b9
14
f4
ee
e6
05
fe
15
16
d9
06
ed
00
0a
f3
cb
f0
e5
06
3f
1c
22
0d
18
04
19
24
1a
ef
ff
fb
eb
f1
f5
ec
24
fe
36
12
f1
ef
11
15
e8
23
f1
e6
ef
d6
12
0b
e7
04
f3
fd
09
03
32
19
c5
f9
e5
f0
0e
1c
fe
fa
ea
06
f1
06
e2
df
f9
f0
03
e6
fa
06
14
fb
fb
e8
e9
fd
5d
09
0a
20
0c
38
11
27
06
13
0f
e0
22
20
f1
e8
f3
e3
e9
ed
aa
1f
1f
db
0c
d2
ff
ee
14
31
fb
ec
fd
10
eb
13
eb
28
33
04
ec
e4
1b
38
fa
ea
19
05
f2
fd
03
fc
09
02
05
fb
ed
0a
ea
e6
db
f3
f1
29
44
02
c4
f4
05
1e
15
f3
45
e3
c7
1d
f8
14
ad
21
01
10
fb
fe
e1
0d
1d
0a
ff
17
08
f3
05
05
ed
10
06
0c
f3
e4
d0
fe
05
e4
dd
1d
f6
dc
dd
c9
2b
22
06
11
f7
e6
06
05
21
4a
4c
03
22
fd
00
e6
04
ef
ef
e4
f7
cf
e9
fc
e7
fa
e1
d9
12
0b
12
dc
de
17
fd
0a
ef
09
eb
05
08
16
f2
1f
ef
f2
15
0d
1e
07
19
1c
10
20
30
eb
1b
16
05
f3
12
19
0d
ea
f7
f5
08
10
c7
1f
f0
e7
0c
e6
dc
e8
e0
05
12
fa
0b
e6
f7
e4
fa
12
0a
fc
f5
05
ff
f1
37
16
f7
02
15
fc
c8
fe
01
e7
b7
bd
e1
ea
2e
0b
ec
fc
13
dc
dd
00
ef
25
0d
05
07
07
fa
f9
ef
0e
d3
fb
f9
05
f7
f3
d4
c7
fd
e7
fe
13
1d
0d
e8
dd
f7
04
0e
02
20
ef
0a
ec
28
11
a9
27
14
f7
ed
00
e7
10
e7
f6
08
1a
28
f6
12
ff
10
e9
0a
f9
1a
16
10
bf
ff
07
ed
ef
e3
c6
d4
1b
22
e3
d8
fe
08
07
eb
fc
e0
dd
d6
cf
fa
ca
bd
eb
d1
03
1f
d9
03
04
04
3c
0d
11
11
4a
3d
fc
01
16
e7
07
04
fc
11
0f
24
d7
d5
ff
03
ef
cc
1f
02
f9
f7
03
12
e2
e7
04
ff
df
0d
03
f9
1f
fc
db
15
3e
ed
cc
35
19
36
e1
fa
23
01
0f
11
29
02
02
0f
f8
1f
f1
1a
e9
07
c7
d3
fc
f4
fe
db
02
01
1f
22
00
f5
f5
07
f7
31
f9
ea
fd
e5
0f
0e
17
ff
fd
d8
ce
f4
dc
19
03
f7
cf
c2
ef
e3
1c
54
12
f0
0e
29
ec
1a
02
eb
03
11
da
de
03
f1
d4
1d
20
06
f2
f6
19
ce
0f
fb
22
2e
e7
fd
e0
f6
13
d8
31
0d
02
d2
ff
c9
1b
eb
02
f5
f5
ec
0b
f3
f8
16
04
cd
e5
15
f0
04
f8
1d
f7
fd
2e
2d
06
f2
13
e8
0b
0b
fb
ec
fd
07
e6
0f
ba
e8
0e
fa
1c
fd
1b
d3
23
3b
ef
0f
df
e9
df
0f
ed
f1
f5
0d
1f
ec
f4
f8
07
00
d7
e8
0c
01
f7
f6
f5
19
e3
3c
2e
1b
1a
fd
0d
11
06
c6
0c
08
d9
f7
05
fe
c1
d9
04
fe
ff
d7
f2
11
e1
10
2f
29
f1
da
fa
fe
00
f8
01
09
f5
ee
06
0a
0e
d7
00
d7
ec
f3
e6
fa
36
0a
1a
dd
0b
fa
21
cd
08
1e
ef
e3
2a
0b
14
04
f1
f1
29
ef
1a
ef
28
2c
fa
17
ee
f8
10
e3
e6
14
03
f8
0d
e8
e5
e8
07
e6
cd
cf
0e
23
30
18
ee
c5
09
0b
44
f9
25
0b
f2
00
d7
28
fa
dd
ee
eb
0f
18
ff
da
e4
f7
da
17
04
1c
f4
da
f4
ee
16
f0
ce
f0
e8
cd
e7
10
f5
05
f6
2e
01
ed
eb
01
ef
02
e4
f5
32
26
0b
f7
18
d0
e2
f4
ed
18
09
e7
f0
02
fd
17
e7
ec
14
04
f3
d0
f2
e5
38
12
2d
ff
16
0c
09
e6
c1
ec
fb
f8
f5
d2
ce
ec
fc
f6
0c
0f
e2
ed
01
18
0d
25
1f
d9
e9
ed
0f
e8
1e
08
18
fa
03
2a
0c
d0
f3
f5
0a
ef
da
0c
f7
d9
b1
ed
05
0d
0f
fb
e7
0f
0b
eb
fd
fb
f5
0a
f1
f9
de
f8
ba
00
0a
f7
c0
f3
06
d0
09
f5
bf
07
11
f7
ec
0e
0e
d4
04
f8
fa
f1
08
d2
12
f1
1c
d5
df
10
2b
07
10
be
db
c4
ef
01
e0
ee
f1
2f
12
19
ff
e3
0e
d7
fe
d3
e6
14
ef
f2
df
09
e2
18
ec
f4
fa
16
fa
06
f7
f9
14
1b
01
e7
15
10
d0
f7
f9
1d
fe
0f
dc
f8
cc
fb
f4
d6
fd
ec
3d
0e
e9
e6
26
21
d6
13
0e
05
3a
fa
fe
e3
ee
0d
1c
e1
f3
c4
00
17
fd
27
d8
3b
4b
14
21
1a
18
01
d6
df
13
fb
0c
c1
f0
0c
c4
af
f9
eb
fb
08
fe
ef
f5
fe
d0
1e
fb
0d
05
dc
1c
e7
ea
21
e0
ea
ea
2c
0b
e7
f8
f9
b3
fb
15
09
09
0f
ea
1a
29
27
1a
17
f9
02
e0
39
fd
32
f3
1a
09
11
2a
e5
c7
02
0a
fa
00
0b
e9
27
0b
d2
dd
1a
c1
f0
c9
0f
10
d5
b5
df
1c
fb
f7
15
16
27
1d
f9
ed
fd
f7
e6
19
ec
37
0a
24
f6
02
f5
0a
03
e7
03
03
05
03
15
00
e3
0c
d6
ed
d8
12
e9
0f
e2
ec
05
f7
24
1c
da
d8
e3
02
1a
0d
ec
0f
02
fb
f0
da
26
15
fe
d0
0d
11
17
b7
fb
32
20
26
ec
04
22
fc
2f
0b
0b
17
11
e9
09
05
0b
ee
2a
dd
45
f9
21
f9
00
2c
1f
eb
02
35
fd
2d
fa
0b
13
f9
13
0a
32
0d
eb
1d
e0
fb
0b
f6
de
e4
f9
0d
fc
0a
f1
08
15
da
2b
15
08
dd
27
06
e4
d2
f8
ca
d7
e6
df
e4
1c
0d
16
fe
c2
d5
03
06
bb
f0
09
32
25
d3
eb
05
f5
05
f9
0b
e8
f9
fa
38
0c
02
f4
03
c4
d9
e8
00
05
2b
76
28
15
04
00
24
d6
fa
dc
e5
1a
e1
b9
01
e1
f3
46
e6
f6
01
00
ce
eb
0d
09
fa
13
cb
28
ee
17
f1
1b
fc
03
13
02
f4
f3
ed
ed
10
f1
09
f2
f0
e7
15
f8
f3
f1
cb
1b
ff
04
eb
c4
31
4d
1b
fd
fb
28
db
fd
2c
1a
e2
07
e0
0d
00
e0
14
1f
0a
0f
e4
ea
ee
00
ff
1c
db
e8
f8
d3
f3
04
0a
b9
17
21
cd
f8
14
14
17
2b
f2
20
13
f1
fc
fd
e5
3a
17
22
fa
fd
fd
a9
f1
11
d2
16
03
fc
21
0e
f6
e9
f1
16
23
f2
c8
0b
e7
f6
e6
e6
fe
e1
37
a6
c5
e3
df
e2
00
ce
23
d3
ee
18
16
25
1c
ef
2e
0a
16
01
23
e6
d7
fc
10
18
f4
fa
ed
1d
fc
f4
d8
fb
d8
f8
ea
f5
10
e9
d1
fa
23
24
c6
10
2d
fc
00
ee
18
17
2d
e0
0f
38
11
e1
03
13
f5
10
e8
dc
31
0c
14
1d
07
d2
00
25
d9
eb
e2
01
e9
e7
f7
f5
ef
ff
08
cd
fa
1b
fd
f0
bd
dc
02
05
20
2c
0d
0d
ec
0a
0c
ee
0a
af
bf
ab
c4
00
da
d4
c0
b6
09
e9
cf
cd
d7
07
dd
fe
ee
ec
15
08
15
e2
0c
fd
15
14
df
21
15
df
fd
ec
d8
f8
38
ea
29
13
ef
0a
ef
f3
f8
f2
19
0b
ff
db
f4
05
f6
06
f1
01
2c
07
17
00
0d
39
0b
f5
07
e1
1b
18
bd
18
0d
0b
0d
14
d4
01
2d
01
dc
d7
c9
40
16
16
fb
03
16
23
24
01
f5
03
f4
04
16
fc
1c
f7
06
01
33
ff
f2
11
02
13
e4
dc
ea
19
e1
0e
ee
ff
16
10
03
eb
13
e8
dc
fe
f7
db
08
0a
ce
b9
0c
ff
0d
0b
e6
00
f0
e5
0d
04
09
fc
b7
e2
22
07
1e
01
ca
e3
16
e3
13
16
bc
32
09
c1
27
2a
fe
07
eb
fa
04
11
19
03
cc
3f
03
fa
fb
f3
0f
25
16
e0
01
d1
1c
1e
2f
f2
02
eb
eb
f1
e7
05
cf
dc
f4
03
e3
c4
f1
f5
1f
1c
f1
df
1e
20
37
12
12
fd
f9
0c
f1
d6
0b
d6
ca
f8
24
ed
09
fa
de
f1
14
0d
cf
e1
f9
fc
0b
f2
09
02
08
f2
d9
0b
e4
e9
cf
1a
0a
ea
09
f2
fc
19
dc
dc
e8
e5
e5
e9
fd
dc
21
e8
d9
e5
08
e1
01
10
d4
0b
f6
fe
1d
0c
0c
15
eb
03
f5
d3
e6
02
f3
01
d2
06
06
04
07
e5
fe
28
f6
c8
d5
cd
28
1a
f5
10
e5
f5
05
0c
d0
e4
29
d7
f2
e7
d5
f6
21
f0
cd
b5
ec
ff
10
e6
bf
b8
1b
d6
11
f4
29
15
ec
f2
25
f5
f3
e9
ef
04
f8
f2
d4
18
17
12
08
e4
0b
12
0e
ca
f1
09
f3
2e
2f
f5
d9
08
0c
0f
1a
30
fb
41
f7
0f
01
27
c1
ee
d8
27
00
24
13
da
af
fd
f3
0a
e3
f1
f8
18
ed
f3
ce
d8
18
07
f0
20
27
db
07
18
33
1e
cb
0e
ed
24
4b
e2
1a
fb
f5
1e
1c
cd
dc
09
f0
fe
2b
fd
1a
07
e9
fe
d8
e7
d5
d6
da
05
16
07
05
f0
e9
fb
fc
15
17
20
26
fb
04
0a
f4
e4
e8
ff
ec
d8
19
de
f2
dd
b9
fd
28
06
0f
05
ed
17
ca
14
f3
f2
14
27
20
08
07
f1
1c
37
39
0a
fa
f7
1f
de
f9
1c
fe
00
c7
05
07
14
ef
ea
19
0e
e6
ed
b9
29
0e
f5
2a
f2
19
0e
09
e9
d8
1d
05
18
10
f6
e8
06
f1
1e
16
fb
1f
e6
e8
19
0f
e6
ea
04
ff
dd
db
18
f3
18
ed
e9
08
2e
ae
04
ed
f8
fe
e1
01
1e
08
10
dc
13
f3
1e
e6
d3
ee
f7
02
d4
d9
da
2c
de
e2
f7
ed
df
f3
0c
f8
f4
0c
ec
01
29
e3
07
0f
ff
00
21
fe
43
e2
00
0e
bd
29
26
1d
ed
fd
00
da
19
d5
21
0a
d3
02
f8
db
13
14
d9
04
07
15
00
fa
ec
e2
10
1c
f8
df
14
0e
fc
d6
11
43
1f
f3
01
e9
c6
f3
02
e2
dc
f9
0e
e4
29
f0
fc
ec
13
e7
e6
fe
f3
ff
e4
09
ec
0e
f6
fa
00
13
00
ed
13
dc
00
fb
ee
25
07
15
b5
0a
14
c0
e4
14
24
22
d7
e9
cb
00
f3
07
dd
22
00
05
e6
1c
0f
f1
e1
11
05
03
1d
df
f2
02
fe
fa
cd
15
1a
ef
eb
0a
fd
ec
e8
17
cd
ed
12
1a
e4
db
f3
f1
f7
f6
21
dc
d7
f2
16
34
0e
16
f1
fc
18
fc
f6
0f
01
1d
f0
2c
1f
01
f7
f0
ec
fa
16
16
f6
ea
00
ec
ec
0a
fc
e6
e5
ec
20
1a
d3
ee
10
09
3b
01
e3
fa
ef
19
fb
42
f0
12
dd
04
eb
0a
f2
fb
f0
12
12
f6
1f
e0
0b
08
f0
05
f7
f8
eb
06
ed
fc
01
f6
e1
0a
ed
ce
d9
da
f6
fe
d4
f7
e7
f1
08
dd
d1
d1
f3
05
fe
1c
1b
d8
18
10
ea
ee
f5
bd
ff
30
af
c1
14
fd
d8
e2
12
e9
ff
e3
d1
e2
07
03
ed
10
f2
20
0a
fd
0b
14
1c
1f
2f
01
12
f8
f8
00
03
04
1a
2b
c8
0d
1a
fa
fa
e5
27
f5
0f
ea
28
fe
f9
08
04
fc
17
fa
3d
e8
fc
26
1b
13
f0
f3
1a
fe
f4
e4
cf
e1
0b
02
eb
ff
d3
e4
ca
fa
f1
e9
14
0c
04
0f
dd
e6
df
c9
ec
11
e6
ef
e5
fa
03
31
3d
15
f1
1a
e3
e2
08
f7
0f
14
00
14
ee
29
d5
f7
01
f6
be
04
d9
fe
43
de
ba
d6
ea
e8
d7
df
0f
d8
de
fe
ca
ee
ee
31
bc
2e
02
0e
d3
04
eb
e6
0b
16
e2
ff
f2
04
e1
24
0c
ea
23
09
f5
ff
e5
de
ee
14
ec
07
2b
b1
05
c3
d0
f4
f7
f2
07
04
e8
e2
ef
f7
16
df
ee
f1
f8
fd
12
14
eb
d1
ed
11
04
00
fc
18
2b
c1
e1
d0
03
08
f3
26
e2
c6
f0
e1
2a
0b
15
07
c6
09
1b
e7
24
16
36
1a
f9
01
de
dd
e0
03
e6
0e
d1
d6
10
e1
11
18
f0
2c
36
06
1e
fb
1a
f9
fd
03
1d
20
1b
07
fe
0b
0a
d6
e8
13
d2
e5
be
e8
18
f9
04
0f
ec
d7
eb
08
e4
f5
e1
0a
c5
d8
f6
fe
07
29
14
09
14
0a
18
f7
10
33
f1
cb
f3
08
09
1d
33
eb
0c
e2
1a
01
31
eb
0b
25
ed
f5
ea
e6
ed
01
db
e5
04
d7
c5
ee
ff
48
39
1e
21
1c
1f
f2
c4
bc
0d
11
fa
15
1a
16
dd
0a
12
22
00
0d
fe
23
e2
0c
0f
04
25
00
fe
24
1e
f8
1c
36
f1
d0
35
d4
05
04
39
1a
02
0c
19
29
0d
ba
07
25
17
1c
02
e4
f3
f5
0a
04
04
e0
ed
08
07
26
09
22
10
34
2a
0c
ea
17
22
f4
00
00
ee
d0
d5
ec
ca
df
bb
e6
da
fe
09
18
1d
e3
eb
fb
de
ec
d7
f0
e1
0b
c6
ea
fd
19
0c
13
f9
2a
e7
e5
09
ea
f1
10
cb
f0
11
19
01
c7
ea
fa
0a
fb
e3
eb
e5
e2
29
fe
00
11
13
20
27
07
f4
1b
de
0a
fb
fe
14
fb
eb
10
dd
3b
f9
10
ea
27
e0
ee
e1
13
09
0a
2f
f3
e0
e7
eb
19
1a
f9
07
fb
1b
2f
fc
23
fc
01
fd
fd
08
03
e3
20
f4
14
d0
fb
04
de
f0
1a
05
fe
07
e9
f3
db
f4
da
24
20
27
13
ef
01
ea
f3
e0
ed
15
ce
04
ec
09
14
14
e1
3a
ea
19
09
fb
02
e6
07
f0
e3
ed
e6
13
20
c5
0f
04
32
fa
ee
be
fc
fb
d0
41
f1
fd
10
fb
10
17
08
41
2d
00
03
0d
30
1b
12
14
ff
f1
e6
0e
f8
f7
d3
ee
ef
40
21
14
2f
f4
38
fb
35
ff
10
f3
e1
05
15
39
22
e1
20
04
13
d9
e9
00
05
d5
17
d0
0c
06
06
02
f1
10
10
20
d4
e8
47
0a
02
15
fa
0f
08
e3
02
17
c9
ee
fa
ef
fe
0e
16
ea
12
d2
e7
1a
cf
0f
2e
34
3a
27
c7
da
fa
f0
fe
f7
1c
fd
09
e5
01
2b
e7
ee
0e
13
d6
2c
0f
fb
0e
0a
16
4d
24
ef
17
d8
ef
1e
dd
1e
b8
12
0a
e1
1d
eb
bc
12
0b
3d
f6
ef
ce
ff
ed
0d
09
0f
02
0d
ff
f1
f5
ec
0d
e8
ee
ee
e0
e4
01
e9
e0
fa
f0
e4
ec
ea
d7
05
fd
08
f6
f9
df
d3
d5
e3
f9
05
d9
02
1b
f4
07
11
f4
e2
03
fe
fd
00
e1
2d
05
16
f0
20
da
e2
29
f4
fb
c5
c1
ea
ea
07
e1
0d
03
03
11
ea
f6
e6
23
0f
d6
15
0a
09
f7
14
fa
0e
f9
fb
01
cd
f1
fe
05
15
cc
08
07
0f
23
02
23
18
29
00
1f
7f
4e
17
2f
2d
ec
25
0b
fa
dd
0f
f7
de
cf
dc
08
eb
ea
10
21
f9
ed
15
32
04
06
de
f1
df
dc
94
ef
d8
0e
ca
0e
ee
f0
e8
0b
c0
db
0a
f9
e7
f6
01
fd
04
3f
e8
fd
05
27
03
01
e6
ee
0f
02
ef
00
fb
d4
ef
b4
f4
e6
f6
fd
d8
1b
14
4c
e8
22
fc
e0
1b
17
06
1c
04
1c
0f
13
f1
ca
f5
f7
e1
e2
cd
06
fd
f4
01
e3
fc
13
0d
fe
12
f8
fd
0c
f7
d2
e5
0a
fe
fb
07
1c
f5
12
08
ef
ee
0c
02
0b
1a
02
e4
ed
0f
e9
11
eb
05
f2
e6
0f
ea
ef
11
ef
fb
e7
17
f6
f4
dc
e8
1f
39
02
e7
ea
f5
14
f8
3f
15
3d
fc
10
17
00
09
e9
0f
15
ea
09
13
1e
f7
07
db
27
00
e5
d3
02
fa
1c
13
12
06
de
fe
09
1f
ea
01
d1
08
d1
02
f5
22
e6
0e
e4
ff
c4
06
29
2a
0d
11
ed
01
1e
04
15
f6
08
14
f0
fc
e6
e4
f6
d3
f5
06
09
d9
cd
cb
f6
f2
f0
06
0a
1a
14
07
0a
d9
14
00
e2
e3
02
ff
2c
dc
0e
f7
df
e4
ea
d6
ea
00
16
df
c6
0c
d1
10
ec
07
ed
14
0b
11
e3
e0
00
de
ea
0e
f2
fd
1e
24
12
15
2f
1d
fe
fb
31
e0
dd
29
34
0f
f5
f2
03
0c
05
e9
41
fd
f5
ed
cb
1e
21
e0
f0
14
f9
0e
09
2b
3b
56
1a
0f
e4
1e
1d
f7
fa
06
27
25
fb
0e
d1
19
30
0a
18
05
22
01
d5
ef
16
cc
c8
30
f6
f9
fe
00
f3
00
21
0c
32
c1
e2
f9
04
27
e6
cf
ca
f7
dc
28
27
1a
dd
23
32
12
24
01
ee
01
2d
06
e5
34
ef
1a
0a
08
e3
fb
f2
06
0a
eb
0f
28
09
0d
0e
09
09
06
0a
17
26
d0
fa
0d
fd
08
ed
04
ee
ef
18
fe
0c
f1
dc
45
06
12
0b
c2
f1
d1
cb
00
ce
fc
06
ee
f5
f3
fc
19
e4
15
dc
f8
22
06
17
16
06
33
e0
0d
1e
03
33
27
f2
f0
e7
e3
db
e6
f6
13
ee
df
18
f9
29
04
48
19
0a
fd
06
08
fa
23
2b
f2
ed
e5
fd
f3
e0
10
fa
f0
05
fe
1f
00
ed
fb
06
f7
ea
3c
dd
09
ea
dd
14
28
05
00
d2
df
00
fa
f5
21
f1
2a
07
f8
14
13
f8
3d
11
e2
df
09
0a
0d
c9
fd
fe
ee
eb
d5
f2
02
03
03
1a
17
dd
0a
dc
f0
e9
25
23
01
13
cf
f4
19
f3
10
1b
ee
30
33
e7
18
ba
e9
09
fa
00
fd
06
f2
f7
05
db
21
0c
2f
db
01
ff
2e
fc
f8
0c
14
0a
d6
09
10
e6
31
03
1a
f8
fc
1e
d5
06
fc
ef
19
d9
fa
00
d6
ec
12
0e
ef
25
df
10
e7
09
38
05
00
12
ea
db
f0
d4
e9
b8
e2
ff
f1
f5
f5
15
23
10
10
e3
09
08
1a
e7
18
ea
15
33
f8
08
21
10
02
de
00
02
e5
33
02
06
0f
15
12
1a
36
06
17
e7
fe
0b
f3
04
07
cd
ca
f3
05
da
e6
fd
ed
0f
15
3f
e5
10
06
ea
f0
d7
1c
ed
1f
fd
d5
e9
ff
06
47
f0
f0
26
ec
2c
11
f4
07
02
f4
f7
ed
19
3d
06
e7
1a
d2
fc
ff
21
30
0a
0f
31
10
09
f7
05
fb
f9
2a
fb
22
29
04
b3
f9
f9
d4
1e
f6
ce
c6
06
07
e9
ef
f3
2b
fb
e8
c7
eb
da
22
15
f4
14
0e
ec
f1
22
d6
11
0a
07
cb
cc
db
00
e4
e9
0d
37
f9
e8
05
3a
c7
e8
07
10
e0
01
fe
00
ff
cb
e4
f3
06
07
e2
ee
f8
28
fb
f0
14
15
fa
e9
10
f5
32
f5
03
fc
18
41
1e
fb
ee
ff
14
19
ed
bf
e0
dd
cc
eb
04
f6
cb
05
fd
f6
10
00
ff
c2
03
13
02
f8
ce
2d
0b
00
1d
ed
0a
e3
e6
01
24
21
37
fa
e2
14
f2
1d
d8
fc
ff
ef
c9
c7
ef
cc
04
21
da
e7
bb
ea
df
0b
f3
ed
dd
ed
f4
0d
ec
f8
d5
17
0e
e2
c8
0c
e8
03
fb
01
dd
f7
0c
e5
f7
00
d8
25
1a
f3
ea
f2
03
29
14
eb
2a
08
13
f5
12
0d
25
19
33
f1
0c
1f
0e
28
13
0a
11
b5
19
17
ff
0a
41
01
f8
e8
2e
0f
09
1a
4b
ea
ed
14
0c
da
da
0a
20
e2
06
0a
d1
f0
00
08
38
ec
e4
01
18
17
fd
0a
e2
1a
34
01
2f
ff
1f
fd
06
1a
ff
22
2c
21
0a
f4
06
1d
e9
12
fa
ee
0a
09
2d
21
0a
26
ee
f2
26
ec
1c
f2
08
1b
01
0f
06
c8
e1
f4
00
0a
de
0c
02
16
ec
05
f1
f5
17
e8
fd
f3
fb
f2
29
fa
f3
e7
ec
25
00
fd
e8
ed
e1
0e
11
0d
f7
c7
f0
2d
f2
02
f5
fe
f7
1d
1b
d6
11
e0
03
d8
16
db
c8
24
23
e7
13
f4
12
07
09
e9
e9
fc
03
1f
f1
19
1b
26
f0
05
e0
24
19
06
be
08
fa
3e
12
00
17
21
ee
0d
f8
da
1f
1b
0c
f9
f3
0f
1a
d6
1c
f5
f2
0e
cf
f4
e7
f6
f3
ea
21
02
dc
02
20
10
f4
1a
0c
f1
ee
db
1f
14
18
df
cf
08
04
0b
d9
ff
f3
f3
05
f3
fa
df
e6
15
08
d4
d0
03
0b
0c
1e
0e
01
e7
09
d1
0c
0c
17
da
fb
17
05
11
e0
de
0a
fc
2d
02
d6
05
2c
1b
fc
32
08
05
26
14
0a
f8
01
0d
f4
c3
3a
d8
02
f0
bc
bf
cc
db
ec
f7
ec
cc
dc
09
fd
e2
eb
f3
c7
09
09
0b
14
08
ee
e3
fa
f1
c1
ef
24
cc
0b
20
d1
b5
e2
03
17
f6
3a
f5
20
e8
02
f9
f6
f3
da
f4
11
1c
20
17
cc
03
d4
d2
21
cb
dc
df
ec
d6
dd
f8
db
e8
f8
05
e4
ea
f3
0f
fb
00
18
fd
03
23
fc
07
ee
17
f2
ed
f7
e5
02
13
ff
13
0b
13
01
0a
fe
14
f3
ce
09
f6
cc
08
d1
dd
f7
f9
02
e3
00
bb
c7
ef
46
f7
bd
f7
04
0b
44
03
f6
e0
13
19
fa
e8
f2
f6
e0
c1
c7
fe
fd
f0
1e
ee
f5
31
13
f0
e5
e3
db
13
34
0f
24
ef
1d
06
20
05
06
0b
f0
e5
00
f8
03
f8
ed
d7
fe
07
f6
dd
13
21
2a
09
25
fd
18
f6
13
0b
05
f8
0e
fc
da
f1
02
05
09
05
be
ed
f5
17
04
e8
17
1d
12
fc
11
f8
e1
10
e1
08
23
08
06
f4
0e
ea
f9
de
fc
10
04
10
fd
12
17
e7
f3
1d
04
c9
bc
05
f5
c9
12
02
2a
df
a9
ff
17
bf
fc
fc
12
1f
f6
f6
0e
08
d5
e7
1e
00
ee
11
d1
2d
f1
0f
d6
16
df
01
0b
ff
0d
f9
ed
e0
1c
1f
fe
ca
fa
2e
01
06
09
de
11
c1
f7
02
f8
07
ea
dc
d9
ee
02
c9
12
e9
04
1b
fc
18
0a
da
fe
f2
ea
eb
db
00
20
1b
22
1c
fe
03
e5
03
0d
09
df
c9
02
21
d8
f7
fb
07
19
0c
20
40
29
ff
dd
10
ee
0e
ec
02
de
25
08
24
e9
cf
fc
0b
12
f7
e3
1d
f7
ea
cc
0c
23
d3
d6
ee
03
02
f7
23
1c
e1
04
fa
e2
04
f7
fa
eb
d8
f2
fc
0d
ee
ea
da
05
fd
00
18
e9
1f
18
07
f5
f6
3a
e8
f0
eb
01
f3
a3
09
da
dc
f5
c4
f3
eb
0d
df
ef
f3
2c
f8
c5
d6
ba
f5
27
1c
d7
33
e8
0b
ed
cb
e4
e0
c3
e6
f9
f7
f7
08
f6
e4
dc
fe
ec
11
19
e8
00
11
0e
fa
ba
fb
fc
27
f8
0f
06
e4
ee
cc
eb
f0
fa
fc
e3
27
09
1b
fd
16
ee
21
07
fd
ff
e5
08
db
e4
ed
0c
da
d2
e3
ee
f3
f0
d8
04
e5
00
e5
12
f8
12
24
e6
e8
1a
fb
e6
e7
f2
e1
07
c3
f2
18
02
ee
ec
0e
14
25
00
fc
12
02
11
f9
05
1a
f9
fd
f1
e3
17
f0
e9
db
0f
f4
e2
00
c3
f5
f7
f6
0b
0c
22
ff
e0
0d
e0
f6
d1
10
e0
12
0f
ed
05
f5
e6
19
0f
0b
dd
eb
08
1f
13
35
22
2c
0e
ff
08
18
0f
0b
27
02
0a
07
ff
02
d8
03
04
0c
03
ea
f6
15
f2
e4
16
06
11
e4
1b
19
f8
08
08
0d
dd
e7
fa
e0
25
00
06
ff
25
35
f9
04
16
01
24
d0
fa
eb
e4
d9
2a
0d
21
fe
e1
f5
e8
e1
df
18
34
eb
3e
26
f0
fa
10
d4
0b
dd
f4
ea
32
ed
17
f8
ee
f9
e3
2c
17
e5
08
0b
da
13
0f
0d
0c
04
e2
02
1b
df
e2
12
c5
ff
03
f8
bf
ee
fa
e5
eb
df
db
c8
1e
08
d6
b5
de
0f
fb
07
b4
fc
0b
09
27
1d
1b
05
0d
37
df
19
ce
03
fc
f4
f5
15
32
1b
d8
e5
0a
f6
e1
f6
f2
dc
e2
ff
f0
0c
21
08
0c
f0
06
f0
de
03
e3
1b
09
e9
00
e5
f2
19
27
29
3f
3e
16
1a
10
fd
ed
eb
d9
2a
1b
e9
10
00
09
02
f8
d6
00
30
dc
d8
fb
07
39
0c
02
30
3f
f1
d3
fc
cf
f4
1d
fe
f4
fc
d3
f8
f6
d8
f8
f7
f5
be
e4
d3
09
28
f8
f4
29
f6
d0
fa
fd
ee
d8
de
f2
18
f4
f5
1c
21
fe
12
15
2a
0d
23
03
0c
d1
f2
13
d8
08
f0
19
cf
e0
09
29
1d
3d
00
f6
fe
e7
04
da
2c
d9
04
e3
05
f5
ed
20
f1
d3
f8
be
10
10
f5
1b
0a
ec
05
d3
03
26
ef
07
ff
de
f3
ff
00
11
d2
04
ce
fe
dc
3b
f3
d9
e2
f6
1a
de
0f
e1
cf
09
f8
f6
f3
e7
ef
0d
17
05
ee
0a
0e
24
f4
e3
eb
11
f8
10
f1
0c
03
ec
ed
fb
f6
10
0c
dc
f1
ef
01
0b
e6
02
04
17
dd
e0
ed
0a
0d
f7
06
00
0e
38
56
12
fa
f7
27
2e
e9
1e
00
fe
f3
19
f6
d5
fe
c7
ca
da
cc
ee
f3
f7
14
10
26
0d
0d
0f
dd
fd
f1
28
00
ee
e2
c9
fe
de
dd
07
f0
f0
0a
ec
d4
10
1d
ff
2c
f2
d6
05
26
20
f2
f8
10
09
02
20
f8
17
1f
1f
24
fe
f7
26
11
15
16
d5
f3
f1
07
0e
f4
ed
26
fe
f1
50
f4
02
11
0a
16
06
43
f3
2f
f5
07
23
0d
28
43
02
a7
25
3e
0b
f4
f0
33
07
d7
f9
f5
20
f7
be
14
11
f4
13
1a
ee
11
d8
f9
21
eb
eb
04
32
18
1a
1f
f5
16
e4
f8
fa
0a
eb
ee
0b
ee
cf
d9
e6
1a
02
0b
1f
eb
e6
0b
0d
00
f6
f8
cc
b6
e0
2d
dd
0f
18
25
02
1e
f3
f7
04
17
02
0e
03
fe
df
1e
e7
10
19
f4
ba
01
10
17
d4
fc
07
f1
e8
00
c3
e9
f1
f4
d3
e2
f6
05
f2
03
14
06
f3
1a
eb
09
06
21
1c
df
0c
df
f2
07
08
fc
0b
21
03
08
0e
f7
ee
e6
ff
f2
f1
0a
2d
2b
01
f3
ff
ff
0e
d7
e2
ee
05
e0
05
2f
dd
01
fd
1e
1b
23
07
f6
e9
f9
fc
f4
0b
02
da
e7
