// conv1_weights weights - INT8 quantized (scale=0.016253)
// Shape: [32, 2, 5, 5], Total entries: 1600
// Load in Verilog: $readmemh("conv1_weights.mem", mem);
// Dequantize: float_weight = int8_value * 0.016253

15
ee
eb
ce
10
05
3c
02
1f
cd
c3
ea
f6
37
b7
f7
1f
24
27
f1
2f
02
e4
02
3b
0b
19
f9
ee
ef
d9
fa
0f
05
05
04
1a
0a
e1
05
ff
c7
1b
01
f5
f6
0e
e2
ef
0b
be
c1
0f
b5
d5
c5
f7
07
fd
ee
fd
0d
f2
28
f5
f9
b5
22
f7
e6
c4
37
0a
ea
17
05
20
12
07
18
07
17
f7
dd
0e
17
be
cc
ff
23
f6
d5
f0
00
05
f5
c7
fe
14
3f
17
cb
07
fa
e5
2d
12
0e
f5
d6
d6
ee
f4
48
fd
46
f6
ee
e4
f3
ed
0c
15
08
06
0d
f5
07
ff
f2
b8
f7
cf
f3
f5
12
d5
11
d2
60
fd
f0
f7
ea
fa
36
17
f9
c0
ec
e7
cb
f7
1b
f7
30
0b
f5
1e
f7
29
10
28
d1
fb
3e
49
e6
df
ee
1b
cc
c4
e1
ab
b6
e0
d4
0d
ef
05
de
14
ed
d9
dc
04
13
03
dc
ed
68
e6
10
f7
22
fe
05
07
21
d8
f4
e5
db
f6
f1
0e
d8
0a
49
14
b6
00
25
f4
4a
33
d9
d6
17
f9
03
1f
3b
bb
0d
ef
d3
3f
0d
bb
fd
c4
c8
46
f5
12
1b
f5
d8
2f
f3
e3
df
fd
09
ee
1d
f1
0c
ed
f4
1f
ae
1c
fd
ee
12
d1
d1
fe
b2
43
f5
1f
4f
62
39
1e
09
ea
1e
fd
26
37
17
01
17
f3
ee
02
9d
22
07
e3
03
e4
f6
e8
d9
f1
07
e3
05
02
d8
20
0c
ed
cb
2d
ed
f9
da
14
87
bd
94
20
18
08
00
ec
f3
1a
cf
27
0f
1a
0a
fa
0a
e1
23
16
07
03
1f
40
f1
f0
34
09
f9
c4
09
fc
e2
1e
df
29
1f
1a
e8
eb
e9
d4
e0
ab
cc
12
d8
0d
e9
09
2d
f6
00
ec
e9
d8
ec
1a
0f
eb
ed
11
14
cd
11
2e
f5
f4
f5
fa
df
1a
17
f2
fa
05
c3
18
ff
e6
0f
1f
f6
fa
cf
07
d4
16
48
de
0c
05
da
2a
1c
db
1c
ff
de
1b
0b
01
fa
13
df
12
4c
e8
2c
f7
cf
0c
04
1b
fb
3e
16
ef
33
1c
db
e0
c7
d1
d4
e0
12
1a
04
22
0c
e9
3d
e8
04
18
33
11
d4
e9
0c
da
1b
14
c1
bf
08
f6
b1
13
2a
0e
01
27
1d
42
1e
14
fc
c4
10
0f
18
4a
f9
0d
fd
da
0e
ea
c4
0d
dc
cd
04
1c
f8
1d
e8
e1
d0
db
15
3a
f8
2b
1e
ef
da
16
02
f3
f8
1b
f1
d5
5c
0e
24
eb
ef
c3
e9
1f
ff
1d
d9
24
ee
1b
f6
06
15
df
1f
f9
ff
0d
0b
1f
b6
39
0a
e6
01
fc
1e
d9
18
fb
2a
d0
12
c2
fd
d1
16
c8
28
ee
25
07
21
18
c8
e8
e9
0c
e1
0d
f8
15
e7
23
dd
41
1c
e7
e2
fb
2f
df
e4
09
ca
00
1b
0f
e6
3c
01
fd
0c
40
10
f5
bc
f4
ed
e6
ea
f8
c2
e1
b9
3d
ef
27
14
12
e4
0a
ec
df
f2
e0
e1
e4
07
2f
eb
e2
24
ff
1c
e8
cf
81
ed
cc
ff
b7
01
fd
e1
07
f5
11
e2
cc
fb
ec
47
ea
f1
ef
e1
ee
0c
07
f4
0c
d7
11
2e
ec
12
ec
13
10
23
ee
fa
2e
f5
d8
03
ad
fe
c0
3f
f9
24
c1
f4
05
d6
eb
31
11
0d
12
41
20
3b
44
1e
ce
2d
e9
ee
00
08
ff
fb
dd
22
f1
ea
fe
fb
ea
18
1a
29
ed
0a
b6
b1
bc
fc
09
29
21
09
dd
13
fd
01
05
f8
05
bd
e2
0b
28
df
f5
f3
d4
0c
fb
20
22
18
1b
14
1b
d7
15
eb
2d
fe
1c
27
fb
a0
0b
d8
2c
0f
01
d5
0f
e0
fd
0c
f5
c1
16
0d
cd
ff
00
00
07
05
22
05
cf
34
07
e6
ff
f3
d6
17
a8
cc
1f
48
59
25
01
d9
ce
25
15
08
2d
f6
bb
3f
c4
06
25
d8
de
2e
ea
0a
df
dc
02
d6
fb
e6
21
1d
f9
db
26
ba
eb
19
ed
01
03
13
f3
d4
f2
ca
d5
d8
35
2d
e1
d3
c5
d9
ff
3c
29
22
3f
33
0e
b6
11
0f
0e
cb
c8
0a
b7
06
1f
ee
0a
28
17
16
3a
0b
0f
c8
f6
f7
d9
cf
09
dd
11
f4
2a
e6
ee
04
ec
0b
28
f8
d0
0d
19
0b
2e
ef
e8
e6
fd
ef
5a
2f
55
32
5c
cb
e6
0e
17
de
ea
25
f3
00
b8
d1
cf
cc
e9
e6
d3
fe
e2
df
03
ce
ce
04
fb
23
12
29
f1
c7
b4
a3
01
b5
46
19
f4
2d
fb
32
fe
f2
e6
69
15
0e
07
35
1b
0c
08
27
0a
0d
04
18
f2
d2
d5
fe
29
ec
f6
e1
da
f9
da
de
f6
03
bc
e8
f4
e1
fb
24
ee
ce
01
f5
db
d0
c5
00
d4
c0
09
ec
24
12
0e
e4
f6
10
1a
17
05
fb
61
de
26
0a
e6
de
d2
d7
e5
05
e0
13
29
eb
dd
42
12
11
f0
e1
e8
fd
15
04
e6
d3
db
bb
f3
0d
f5
18
cf
1d
18
f6
0c
fe
14
c9
b2
1a
af
27
e7
d3
f3
19
fd
06
f1
d2
fa
fa
24
04
0a
0a
19
0b
33
cd
23
ca
d9
f1
e6
f6
12
19
f4
b9
19
02
e4
e5
e7
2c
d2
1e
1e
f7
eb
f6
fe
da
cb
34
ff
cb
e7
11
35
2b
ed
31
e7
b2
38
32
ea
f0
f6
fa
f9
f1
da
0e
db
f1
2c
25
08
ef
f4
c0
08
25
2e
cc
01
f6
1d
d9
19
06
d4
e3
e9
14
28
26
24
5b
da
02
0e
00
f7
df
d5
da
fe
00
11
d9
bd
1b
10
db
d2
ca
fa
02
ee
1b
fa
02
01
f1
0d
10
fd
08
29
1a
3f
2d
11
ed
cd
bb
f9
f4
12
d7
de
cd
f9
0e
92
ae
bd
c0
de
31
2d
f7
29
17
38
41
16
2c
11
d6
f3
f6
ff
de
dd
e9
fe
eb
03
16
29
17
24
3a
e4
e3
02
f9
e3
e3
fc
01
c3
d6
f7
da
ee
1d
e7
f8
0b
06
ff
f4
0f
c2
1b
11
cb
e5
ea
ce
de
d2
7f
ed
c7
b2
1c
ac
5b
00
49
37
2f
0d
0f
37
0f
12
13
06
bc
04
0e
d9
08
2a
a1
2a
e7
d6
df
16
1b
26
14
0b
03
fe
06
27
f8
17
0e
fe
b0
0e
00
ed
fc
d5
6c
06
09
27
0a
c0
04
ed
f9
b8
cd
ff
06
d1
eb
35
03
07
ee
19
db
ba
23
fa
09
e0
f3
2d
dc
db
e9
03
ec
26
f7
e8
12
06
40
e9
0e
1d
0e
ec
40
1b
1a
1e
0d
03
02
1e
05
d7
2b
e1
c5
10
f8
47
00
fe
c3
0e
8a
c6
e1
ee
ed
e0
e5
0d
13
03
18
f5
d9
06
c0
db
0a
d4
ee
ef
d9
c9
f8
f6
1d
42
13
2a
08
dc
fe
f1
dd
16
c6
13
39
f2
03
22
b9
ee
dc
dc
02
1a
0f
f8
11
03
04
0b
09
20
ee
ca
0a
25
08
00
b4
2c
e1
e3
05
02
f7
01
34
11
0d
fd
2b
d2
11
d0
d0
e4
04
1f
e9
16
fc
19
e7
e1
01
aa
09
b5
0b
08
f5
29
ed
0f
04
09
fe
bd
fa
d3
2d
d7
23
dd
fb
f1
fe
ce
36
08
e5
0e
41
04
f9
0d
de
02
08
dc
2c
ce
0a
f3
fa
c5
f6
27
0c
b1
c6
17
da
12
de
1a
f4
a7
27
dd
1c
cf
3a
01
08
f8
4c
e7
28
ef
fa
e2
e8
17
06
f0
f2
0c
f5
d0
d7
fd
f8
ca
f8
13
f1
01
d7
35
11
f7
d5
16
e6
28
f2
24
f8
e8
f4
e9
16
14
f1
24
01
1c
49
14
10
cf
21
ec
b6
1b
d0
a4
dd
f9
fa
39
dd
12
fe
b6
1b
19
02
0b
09
fa
0f
2e
0e
f6
ac
c4
f7
eb
03
c3
0b
0d
00
03
18
f1
07
68
0b
dc
42
d8
c2
1f
c5
d0
fd
2c
f7
06
29
fd
19
f1
19
cc
df
fd
dd
11
da
11
01
d4
07
fb
eb
ff
fc
e7
f4
2e
da
44
0b
14
02
01
20
08
d2
d5
f5
0a
