// fc1_weights weights - INT8 quantized (scale=0.034071)
// Shape: [128, 3136], Total entries: 401408
// Load in Verilog: $readmemh("fc1_weights.mem", mem);
// Dequantize: float_weight = int8_value * 0.034071

21
f4
16
14
ff
15
eb
dc
0a
ef
f8
f9
cf
e8
fb
1e
00
f8
08
fd
0a
13
0b
39
ee
13
2e
dc
e8
f2
17
e4
a3
05
f9
10
c4
e3
10
f8
20
f8
f8
15
08
ef
f0
1d
ed
fa
04
ec
04
19
ff
20
01
35
08
e8
07
ee
f2
d3
ed
05
0c
07
0e
21
d3
fb
00
28
14
c0
1c
04
e8
f4
1a
ec
fd
f5
da
04
1d
03
03
07
02
14
14
cd
04
f0
df
f9
1f
f6
19
e3
f0
29
da
fa
20
d0
30
fd
33
fa
fb
e1
d0
fd
17
37
13
02
15
0a
ff
e9
1e
02
0f
01
0b
05
f6
db
16
cb
e2
0e
f2
03
26
08
19
f7
f0
df
23
0b
01
fe
03
14
06
12
f1
f3
1e
f2
f2
09
f2
01
16
cb
fe
e9
ed
fc
f5
33
e8
fc
0a
ed
1f
ec
15
06
03
f7
f3
fd
0d
e9
e6
0e
ec
1a
0b
cf
2f
ed
e7
d2
2e
e4
14
f9
0a
21
10
18
1f
fc
16
ec
fa
1e
41
db
17
46
0d
23
f2
f4
00
15
fb
2b
02
03
e5
fc
0e
ef
1b
07
d7
02
04
fa
fb
17
f1
12
f8
05
ee
28
ec
04
e5
e3
1c
e5
fa
e7
fa
0d
f8
13
c5
50
08
20
02
fb
ef
0d
ee
05
0e
e2
ed
07
d3
fd
f7
18
e6
07
e7
ec
48
ec
0d
e0
e9
db
e7
ff
f8
ea
ec
06
f0
e2
e6
0e
22
fe
09
20
f6
16
0e
06
f0
c9
33
2c
1c
29
f3
00
d3
3b
f3
ee
f6
cc
f2
04
59
eb
15
0f
fb
0a
d2
f2
1b
dc
e7
f6
f7
04
fc
1b
e6
f2
05
01
fc
e3
40
02
00
03
ea
21
21
26
09
e2
b3
b7
36
14
f6
db
28
e1
e8
f3
e5
0f
f3
f5
08
24
e2
05
e5
d1
20
fd
14
d2
fb
2f
e8
e8
27
ff
f5
12
fc
eb
18
f0
1a
f7
e3
ce
e3
de
c4
fe
18
e9
d8
e7
28
23
20
d2
14
3c
de
17
2b
db
0c
0b
cf
06
c9
e1
f0
06
04
15
f0
1d
39
fc
04
fa
e2
02
44
24
0a
0a
f3
fd
01
f4
25
d7
31
e8
f6
20
ef
0b
e6
0e
03
39
23
41
21
c6
e9
fa
f2
fb
05
de
0e
17
21
f6
14
0a
e4
01
1e
09
0a
1b
10
31
fd
0b
28
d9
f1
e0
f7
d4
0a
fe
fe
fa
c8
10
2b
fc
14
e8
ea
08
ef
ea
f8
22
2f
11
e9
2f
d7
25
e3
c4
17
f0
f9
0d
f6
eb
19
0a
d0
ba
21
00
11
08
fb
05
fa
f0
37
20
18
0b
e8
3b
f5
2a
f6
e8
e5
19
e6
e9
11
1f
0e
38
1b
fa
f4
0f
21
fd
15
1a
f9
04
df
f8
d7
e0
0b
fd
05
f3
f2
e9
04
f9
ca
f5
01
09
e8
ed
e0
27
ea
c3
d2
03
1e
2e
d9
de
f5
08
30
ea
1f
e9
2c
fe
e5
1b
42
02
f8
fc
1d
f4
09
05
13
13
06
03
f6
2a
26
22
f6
d1
ff
d9
3b
db
12
f5
18
fb
e9
11
00
cc
e6
fe
fe
ed
d0
26
1a
1c
e7
d8
23
f2
1a
e9
29
d4
c8
39
0d
17
fa
19
ee
08
1a
f2
e6
ef
00
0a
4f
01
ef
1b
3f
dc
ff
c1
f8
fd
16
01
01
00
03
1c
f6
16
ef
e7
25
02
21
ee
e2
1c
f1
1b
43
e7
e3
ea
f2
f4
c9
14
d7
db
07
06
db
de
20
13
1e
28
12
12
eb
2e
f8
0d
e2
ea
cf
ea
e8
04
d8
d6
06
f1
05
11
f8
ef
0e
00
35
f5
e7
17
1d
f8
07
f2
f9
fc
dc
d2
01
fe
03
13
25
16
13
0d
e1
01
d7
01
d8
e8
16
fd
ca
1d
f1
02
e3
d5
32
0a
34
19
fa
09
fa
fe
ff
00
d4
f2
e8
ff
e0
f6
10
f0
09
13
28
cf
10
17
e7
fa
df
16
10
45
34
06
f0
14
cf
11
d7
18
ef
34
fe
10
fd
f1
04
ea
e0
e6
23
ff
d6
16
de
ff
d7
04
cb
39
0d
1c
ef
43
31
e9
10
dc
02
06
06
ef
e9
00
f4
dd
1a
0f
cc
f1
0a
e2
f7
c4
f5
ca
fe
f3
e3
24
3f
03
e2
0a
fb
2d
08
f7
fa
14
1c
f2
e4
b5
1e
d5
db
f4
f4
c0
e2
01
1a
e1
f3
07
d0
2a
de
ea
08
3b
f1
da
ed
0a
f8
db
ff
05
2a
12
04
03
21
01
08
24
31
d8
0e
20
1f
ab
0d
fa
0a
12
34
19
0f
31
00
f4
e6
33
ef
1a
fa
f7
12
05
0e
12
17
18
1e
d4
e9
ec
0b
09
20
d9
e8
03
f0
f8
d3
23
03
f7
19
d9
24
12
22
02
21
20
35
1a
1e
f9
f2
0b
f4
f5
17
bd
f9
01
24
3d
db
df
fe
f0
f1
0d
19
f8
e4
e2
e8
2b
bb
e8
e9
1f
09
1a
04
ee
0f
d4
e9
1a
0a
03
04
d6
ec
0d
11
0f
0d
1a
de
ea
98
f9
32
01
1f
27
07
1e
15
00
29
0d
32
f8
1d
fb
f3
14
db
d6
fc
f4
ed
19
0a
30
1d
01
eb
db
fe
15
cb
13
ea
f0
16
ee
e1
f6
f0
43
04
0f
0e
fd
02
34
14
e5
d8
0e
ef
ef
17
f3
f8
11
1d
ef
db
e3
f7
19
16
cf
1d
07
ea
e7
ff
2a
07
2a
f5
f6
dd
e3
16
fb
05
02
e6
1b
ec
cc
01
27
11
05
e7
df
e7
f3
31
ef
0e
2c
f0
fa
2f
f5
0e
02
10
24
10
d7
f8
08
2f
01
f7
14
34
f9
5b
ee
b9
1a
27
1f
f8
2b
ee
0b
22
ee
0f
0a
30
f0
ee
0e
ee
16
e7
f6
ff
0b
13
01
eb
4a
fc
00
15
ce
47
3d
ed
d2
f0
c3
ef
eb
d0
1c
04
cb
e9
ec
cf
00
e5
18
27
17
0d
fc
15
0f
01
21
dc
fa
fa
04
f5
0e
e7
fb
03
e8
35
16
1b
f7
f4
e5
ff
f5
fb
05
ec
d9
28
04
e9
dd
f5
fb
09
f4
f2
e3
f0
04
fb
09
cd
35
fc
fe
e7
fb
31
15
ea
fc
24
f9
49
df
d2
df
e9
eb
21
01
d3
09
20
2c
05
20
00
18
30
20
dd
07
f5
c8
08
03
f3
fd
22
1f
12
fd
e6
33
29
12
06
36
bd
de
04
09
04
35
1b
13
08
e3
2a
02
f9
13
02
03
15
10
f0
19
fa
fd
3e
24
2f
fe
16
ed
04
e8
08
0d
17
fb
2e
1d
f9
e0
0e
e2
d8
dc
ef
22
e4
f8
fc
d0
eb
fd
ed
2b
12
23
17
14
f3
1c
d9
ff
ed
25
d4
f6
15
d3
d5
c7
ea
13
e4
e7
17
1c
ea
f8
32
2d
00
2c
ee
ef
f7
fb
eb
ff
00
1f
b0
2e
f6
f9
f6
17
2f
d9
ec
00
d3
08
e1
ec
35
c0
00
07
20
0d
2e
08
ff
fe
17
ff
e5
ff
f5
fc
1c
01
02
ef
15
e9
f2
17
11
27
ba
cc
cd
10
db
01
13
1e
db
e2
35
d5
fe
02
11
01
02
dc
31
0b
09
d1
0d
e4
03
e6
d5
fb
14
fb
b3
22
26
f6
d4
f4
f8
34
16
13
07
38
06
f5
f2
e6
d5
e1
02
e2
ef
f8
22
14
2f
11
21
e9
22
e7
19
e6
05
f0
f3
c4
03
e4
20
fa
16
e6
da
09
d9
01
e9
d2
ec
fd
19
19
dd
01
fb
f6
d9
f5
fd
18
27
05
ff
23
f6
22
58
c3
f7
c9
d8
d2
14
08
28
0a
e6
25
bf
f9
24
df
27
ff
d5
fd
00
ef
18
fe
28
32
fb
e5
f1
ff
eb
17
f0
08
13
1a
06
fe
28
19
21
1f
e4
3c
49
0b
19
e7
08
e8
d8
02
0b
1c
07
f5
ed
05
ff
2e
06
1a
e0
05
c2
f2
be
f7
07
dc
04
f8
dc
f1
e9
ea
0a
c3
68
dc
11
05
e6
0a
07
fe
ff
fb
fb
1b
e8
db
e8
13
fa
0f
e1
fb
01
00
f8
ed
11
12
33
03
fc
da
23
fa
1f
ee
f3
e6
08
bf
f4
ec
e6
2b
f8
1a
f2
e3
ff
fa
07
1b
ea
13
07
07
29
05
38
d4
04
e9
24
e9
00
dd
07
0b
0b
c9
e6
cf
0a
17
21
ce
20
f2
0b
f7
de
f8
ef
f7
07
d8
1e
59
e2
1a
e9
fb
12
03
17
fd
26
fb
bb
f2
ee
c1
da
1b
0b
e6
09
df
2a
f8
1d
db
08
01
05
ef
05
d6
eb
ec
e2
11
07
29
11
d4
cd
1c
0b
14
e5
ec
0e
f7
1c
2a
f8
0b
f0
06
17
f0
27
27
1e
0f
15
d8
19
06
e9
fb
05
2a
c7
e5
11
0f
10
09
04
ef
de
0d
ae
e6
02
f1
09
ed
10
ef
13
c6
fd
29
ea
fa
e8
1b
12
09
04
ca
f4
29
fb
27
1a
f6
07
eb
11
e5
f7
10
fa
fe
3b
d6
12
ed
da
10
eb
3a
fd
24
ff
fe
3f
1c
23
da
0e
d8
13
d7
f5
41
f3
da
f3
12
0d
09
eb
04
fc
17
10
11
15
da
1e
d7
fc
f8
e6
dc
e3
fd
e7
f9
07
0f
f0
08
01
d0
f8
07
ec
f8
4d
13
e8
fb
40
08
32
f5
e8
38
23
f9
ec
e8
00
19
21
20
ec
cf
e1
ef
fc
e8
bd
e9
01
e4
1c
e7
0f
fc
16
ef
d5
35
e0
df
fe
d8
12
fb
14
13
0d
24
e2
fb
f2
12
f0
0f
15
03
e6
fa
0a
fe
20
16
01
0a
12
d8
21
0b
10
0c
0b
fa
0a
ec
39
ae
05
e8
ed
fc
d3
29
fa
d9
0f
f0
10
fa
01
18
0f
fd
fc
18
09
f5
35
18
d5
ea
d7
0a
f0
12
09
dc
0a
1e
ff
fa
ea
d3
00
fa
12
f2
06
29
08
25
fb
34
03
fa
f4
dc
df
ec
fe
d6
ef
10
10
16
eb
07
13
d7
09
ee
df
06
38
04
fb
01
18
1c
29
0c
eb
1a
1d
f2
05
18
17
1a
fd
16
d2
29
ec
ea
e0
2b
fb
1a
e8
d2
2f
1d
ee
34
05
e8
11
0d
d0
eb
e2
22
d8
fd
df
20
e9
0a
1d
fc
12
1b
d1
e9
0f
e4
f2
fe
f5
2b
f7
b8
f9
12
08
f8
0a
dd
25
f7
fd
15
ff
0b
df
ff
10
eb
08
e9
2b
15
05
d2
09
13
ed
26
d9
e8
fa
34
38
1a
fd
e2
b7
0f
ee
09
f1
27
16
11
fd
1d
df
e3
08
ed
08
2d
f4
12
f7
0e
d3
14
e4
0b
12
b6
e4
0b
f0
28
33
15
06
14
12
f9
06
22
3a
06
04
dc
04
04
0d
12
e9
16
0a
12
fe
ea
29
f0
fe
d8
e4
f4
43
22
0f
0a
06
0a
e3
dd
ea
e0
cd
0a
dd
ec
f1
0c
e6
fe
fa
26
01
06
2d
db
ff
f3
23
d8
1f
27
05
ff
08
e9
f4
01
1e
da
ee
f4
0e
c1
0c
ed
d4
02
d5
f0
d4
3a
d4
f3
ec
fd
db
0d
f9
00
32
00
19
0b
19
04
41
de
20
eb
ff
f5
07
10
13
fc
f6
00
03
15
04
ff
d8
f7
fb
2a
19
f0
05
f7
23
03
2f
2c
3f
d2
07
c4
ca
dc
1d
f5
2a
e6
0b
1a
32
14
e7
24
ea
01
f4
3c
ad
12
14
06
e6
eb
c6
cb
d9
00
27
07
fc
f7
07
0b
12
fb
0a
e9
fb
eb
2f
fb
0b
f7
f8
eb
bf
1d
1b
da
11
13
17
12
14
19
17
11
ec
0d
e8
fe
17
f8
de
e2
f1
01
21
00
0e
d6
ca
f0
fe
c2
01
0d
01
e5
f7
01
ef
dc
22
ef
24
dd
e1
25
fd
0e
e6
eb
c1
d1
e9
fb
03
bc
14
1b
1b
17
e4
fa
27
01
f3
de
f4
e1
09
2f
36
d2
f6
1a
09
1b
0b
05
1c
40
fe
09
30
f7
0a
1d
e6
fe
ee
f0
e5
fc
05
fe
d2
ea
02
f1
16
fd
15
f7
02
15
03
0b
0b
16
27
e8
18
08
1c
bc
36
1d
0b
2a
0a
fe
23
e8
d2
e2
17
bb
27
30
04
2c
fa
2c
01
0d
d9
f1
e1
fd
e7
ea
1e
fd
ef
3d
1f
0f
0e
d4
fd
14
1f
ef
f0
c9
e9
e7
d5
04
e9
d9
39
db
e5
af
2c
e6
fd
dd
e4
ea
fc
c4
df
f4
f6
0e
d8
01
c8
30
ff
47
16
e5
d3
f6
f9
10
18
d1
1c
ff
f5
22
e9
0a
00
f3
ff
10
39
0c
24
21
3a
19
e9
26
05
26
11
23
fb
48
ff
04
e5
01
fd
0a
9e
cf
0b
24
d1
fb
13
e0
1d
ea
25
df
0f
12
dc
02
ed
fd
ff
1b
33
1f
d4
1e
d2
ec
1e
35
1e
e8
f8
1e
ea
33
f6
e2
1d
d4
e2
35
2f
11
d3
ef
e5
34
d7
12
11
de
32
13
11
dc
12
1d
dd
21
eb
18
19
39
34
ff
f1
00
fc
e4
e8
dc
13
08
d5
f6
e9
e4
17
d9
04
c7
1d
17
f6
fb
1a
1a
11
fb
c2
f7
17
47
ea
21
e6
0a
e2
02
fe
0f
04
08
fe
e0
1e
0a
09
0e
12
ec
df
3a
06
fd
13
e9
ef
c4
f8
ed
04
16
09
d6
02
14
dd
0e
f8
09
1f
ef
38
1e
03
19
1d
0b
e0
fe
e0
ea
e0
ab
26
f7
09
16
10
fa
1d
d9
df
ec
d2
f0
3e
f7
11
0d
46
d8
d4
12
de
ee
21
fb
f0
0d
fa
d9
be
2c
f8
14
13
ec
ca
bf
e8
f4
17
2b
09
e3
fb
f4
f8
ef
0a
e3
e2
d7
e3
01
28
07
36
f9
c6
c9
ff
e2
fc
c8
1b
07
ea
e8
f8
f9
10
e5
10
fb
dd
f8
0e
d9
52
f1
ee
27
ff
07
17
f9
e6
d6
fe
0a
f8
3e
03
e1
ea
ee
11
00
21
1c
e2
3f
e2
04
04
e9
fd
06
09
e8
0d
ea
34
12
18
cf
ef
0c
d0
f9
04
f1
1c
fa
f0
e4
d9
c6
09
f6
cd
0a
03
ae
ea
0f
f8
21
c8
04
42
fa
06
fc
f3
f5
1c
d8
1a
08
24
09
06
e9
f5
10
f0
0d
f0
e5
fa
f6
05
0a
1a
1a
41
1d
0f
10
20
f4
09
ef
1d
09
d8
05
ff
f9
fe
ee
ea
f0
fa
22
f3
d4
f2
4b
2d
15
1f
18
ec
19
ff
d5
ee
09
2a
ce
ee
11
ea
f2
fc
e5
bc
2c
e3
16
36
be
dc
34
e1
fa
ef
05
2e
e0
f2
ec
0d
fd
f4
0f
18
02
00
ea
d6
07
ff
f8
e6
f5
21
0b
f5
bd
16
d5
24
0a
ef
27
44
0b
f9
e4
29
14
01
fd
18
fd
1e
ea
d4
ed
45
e2
f6
46
e5
0c
20
09
ee
b1
db
2a
21
09
ef
dd
1f
01
df
39
fe
06
0f
ee
fb
fe
f5
ff
10
fe
f7
11
d5
02
18
01
f4
10
e2
23
08
ff
fb
0a
e7
26
2b
03
22
e7
17
1b
fa
0b
c2
11
fc
f4
15
09
f5
f7
28
d6
22
2a
04
f8
d6
cb
14
16
00
23
14
2e
e2
f2
08
12
1f
f6
40
f4
f7
df
00
02
1f
48
30
38
f8
12
0f
0a
ea
ea
f9
e9
f2
f3
cc
02
00
1c
2f
2f
19
04
0d
1c
ee
12
02
36
1e
e3
cf
ef
0d
17
ee
d1
bf
e6
2a
0b
f5
1d
de
fe
15
2f
e2
fe
e0
13
f6
ea
16
00
ce
29
0a
39
1d
18
2d
fd
42
fd
fd
ef
03
fa
0c
f2
1c
01
ff
d3
15
22
e9
ea
f4
eb
eb
13
05
60
b6
01
0a
15
3b
0a
f5
18
f8
0a
f8
d8
ed
23
f6
ef
f1
12
e9
c7
03
e1
ff
fc
e1
cf
f1
df
13
00
fd
e2
1d
e9
10
08
39
f1
fb
ec
f4
d1
bb
ff
ea
fb
19
fd
fa
23
2c
d6
09
02
06
f0
dd
2b
13
1e
2e
f1
cd
08
18
06
1b
1b
de
0e
06
14
20
d7
26
0f
eb
f1
db
fa
e6
dc
1a
29
cd
dc
e1
31
06
2b
00
18
1b
f4
a6
ec
28
dd
10
19
3c
b0
ed
fb
18
ed
10
f6
e3
03
1d
d5
ec
f1
09
07
e5
de
19
e3
23
e0
10
01
09
cb
ce
f5
f7
23
f7
13
1f
ea
2a
fb
f8
1f
0f
24
fa
16
1d
1a
ca
06
c9
2d
f1
07
3b
d9
01
f5
fc
02
1a
cd
2d
f3
da
c5
09
ec
17
26
f8
fb
54
e1
e1
e5
da
de
32
f9
12
f7
f4
dc
10
20
06
ce
19
f1
f8
2d
38
3e
00
2d
ff
dd
22
f1
d5
1d
09
1d
02
26
02
17
0e
f5
0a
38
06
ed
f8
fe
fd
0a
d3
1c
12
fa
23
15
de
07
15
f1
0d
10
f4
d9
14
1c
e2
e4
dd
e4
f8
14
11
d1
29
0f
12
05
1f
3d
e9
e5
06
e6
04
05
e9
ee
00
04
08
e6
ed
fa
04
ec
f1
fc
25
e2
f3
1e
ca
ce
fa
ee
00
31
14
ef
d3
15
f7
e5
e6
db
00
08
d8
fe
06
dd
23
08
ff
c8
09
f8
07
38
05
03
0f
3c
e9
2e
29
f2
dc
ea
c4
17
e8
d3
e2
f1
e0
0a
41
2d
14
0a
09
c5
eb
05
e2
29
e7
1b
ee
eb
1b
d5
02
f3
25
ff
32
e5
ee
f6
e8
e5
ea
2b
57
f6
cd
28
fa
ee
09
1e
01
3d
19
e0
ee
0d
e6
e5
ff
f9
eb
d8
e0
21
ef
f9
24
d0
f4
fe
fc
05
f6
f5
3f
3b
e3
e9
dc
b7
fc
05
fa
da
e3
3c
ec
fe
f8
16
1b
09
20
e3
56
f8
04
f3
ff
27
ff
0d
ef
fa
0d
1a
df
36
07
0d
ee
e8
f9
e0
00
04
f8
e1
1f
0e
d8
de
e5
19
f8
01
fb
01
15
18
39
fb
0a
21
e3
36
14
30
fd
d2
d2
28
3c
14
fd
d4
ed
e1
cf
19
e7
06
cb
07
d9
0d
fd
dd
fc
0a
01
15
f1
ee
14
e2
0a
eb
0d
47
ff
27
fd
f2
ff
02
f2
09
fa
fb
ef
1c
e9
cf
15
07
11
21
13
1a
dd
ef
e2
15
34
03
1d
c2
c8
f8
27
f9
16
ca
0a
06
db
18
de
2d
26
e4
e0
f0
cc
13
13
fa
11
c7
01
12
0d
e3
0e
e5
0b
f5
c9
e8
14
f2
e1
29
0b
fb
c3
39
c9
16
0b
14
00
28
f0
e9
25
2d
15
21
34
13
f0
03
04
17
20
05
eb
40
c0
0c
28
15
e7
28
08
d8
f6
31
0a
03
28
11
10
23
1a
2c
d9
e3
d1
01
cb
c1
04
06
28
cf
23
1a
fe
f8
f5
fe
0f
f9
06
1a
e8
20
15
12
0e
f6
17
0a
16
01
f9
e5
e6
2c
1c
00
f2
3f
f2
f9
fc
fc
e9
09
ec
fb
11
ec
e2
f7
e7
29
fb
18
f9
f9
f7
02
08
0b
bc
d7
f7
e9
ff
08
c5
21
fe
30
d6
06
f8
f9
0a
f1
0a
f7
0a
20
c8
0a
f5
0e
0d
ee
e5
1d
e1
d8
0b
18
e9
fd
f6
06
00
3f
03
3d
11
12
e3
f8
0b
16
0e
a1
d3
f0
f2
c8
fd
29
fe
be
ea
09
e4
f2
18
1b
19
15
0a
d6
f7
f1
1d
d5
f1
27
13
ed
2e
e1
03
db
d2
39
00
11
2f
01
e3
19
47
de
12
06
0a
e7
13
e1
04
01
c7
e8
0d
28
e7
de
01
24
f9
e9
18
16
e5
fc
26
f7
22
1d
0c
dd
ff
d7
00
f6
ee
06
fe
e8
0d
fb
fb
ec
fa
0a
db
c8
e0
06
25
e0
cd
d0
e5
49
f9
04
0e
0c
e4
06
07
da
e0
f7
d5
12
38
d7
02
ee
01
01
1b
fe
13
e8
1d
1f
fe
f0
ef
09
f3
0c
1f
07
f6
09
06
06
f5
13
f9
0b
0b
10
03
f3
10
f0
ff
2f
e1
39
15
1d
14
fd
03
37
1d
fb
fe
14
1e
00
f1
0f
e6
fc
f6
05
f5
0f
fb
2d
06
e2
fb
30
f1
41
09
ef
41
26
32
39
cc
0e
fc
03
f3
10
26
0f
24
d3
e1
f5
ec
dc
d5
29
0f
ec
18
f9
e3
0b
d7
c8
ee
0a
09
ea
f2
f4
da
f0
37
e8
25
db
b1
de
fe
e5
ea
ec
1e
fd
00
21
19
f1
19
f2
1e
42
e6
0d
09
e6
1a
14
06
1b
f1
ac
fd
df
07
13
1b
08
e6
ea
07
15
da
17
15
f6
bb
0f
0c
f8
f2
1d
eb
08
ee
05
25
3e
f0
06
fc
e7
e7
0f
f2
f3
f4
08
17
e0
16
1f
fd
00
21
de
1d
00
be
fe
ee
d5
fe
0b
fc
10
ef
05
f7
e4
16
0e
06
17
25
b8
f8
ec
03
01
fa
2b
e1
e8
f5
1f
f5
1c
db
25
f9
17
d5
ed
0a
e8
1a
fc
41
cb
10
eb
dd
03
f1
fe
b5
01
1c
e2
21
18
02
03
d1
12
00
d2
3f
f8
ec
13
11
fe
21
36
f7
f7
b8
14
25
27
10
cf
2e
ee
ca
16
02
c9
33
d4
f9
3b
37
07
ff
28
e5
0e
e9
33
21
e1
fa
ff
0e
d4
17
0d
0a
fb
00
13
f0
df
01
07
d2
1d
22
f9
22
15
10
b3
12
d3
f2
03
c4
34
12
fc
04
21
f2
f6
c4
13
df
ee
07
db
08
eb
09
0d
d4
24
42
1d
02
09
32
1f
1e
d7
e0
ee
ee
0b
e8
fd
0a
fc
04
05
23
1e
22
25
d5
1e
e6
0c
c7
fb
c8
30
12
1e
20
24
0a
2d
06
15
03
06
33
24
21
df
df
de
ab
15
51
07
12
1c
eb
db
05
0c
d1
f0
fd
05
20
fe
1a
f1
f1
15
1f
0c
1b
ce
1d
34
15
e2
fe
b7
db
16
0b
14
1c
29
20
e7
ed
0b
17
f7
fa
2c
e5
16
13
fe
ea
16
f7
fa
eb
05
05
0f
ed
fa
d9
df
21
cc
c9
19
30
d8
09
1d
e6
f5
29
0f
eb
f2
17
f7
5d
f2
00
20
eb
14
02
09
f1
f5
f5
0b
0e
37
29
34
17
af
12
45
2c
15
16
ee
21
ec
e7
04
fc
1e
17
1a
e4
02
f3
f5
21
20
32
10
19
0b
d1
1c
13
12
f2
1d
ee
04
f7
03
f5
c2
d7
fc
ec
f7
f6
f0
e9
ed
ff
04
2b
03
07
00
fb
15
04
fa
f2
e0
fc
e9
bc
04
da
e4
f9
1b
13
fb
16
0e
19
d7
09
ba
f3
e0
02
e2
f4
39
f7
29
07
ed
e5
35
f7
02
e9
10
26
e1
03
13
09
e9
47
f3
16
18
00
db
fd
16
1d
f1
fd
19
14
e7
12
f8
fe
e4
2c
0c
15
f1
cd
f6
07
11
e1
e1
ff
ee
d0
d3
fe
e7
09
ff
e8
00
0c
d8
f3
25
04
2a
d8
09
f7
1e
2e
00
38
3a
11
13
18
ff
f5
d8
ed
06
fe
e1
10
07
f2
d7
e8
21
18
29
f8
ee
cf
17
ec
d0
fe
1b
f8
ef
12
dc
fe
df
2b
14
f7
e6
15
08
df
00
fc
e6
ea
1e
f1
04
f1
e0
fa
c7
fa
0c
f4
e3
f0
48
12
0f
14
21
ef
06
0e
28
c5
e9
fc
27
0d
cb
21
b5
e1
f2
d7
3a
20
16
11
3e
f3
2c
16
07
13
00
cb
fb
fe
ed
c3
11
d4
25
d5
f9
f8
1a
f8
0f
04
15
48
0e
ea
29
11
11
27
fa
f1
14
08
f3
07
04
df
fa
e4
0c
c9
04
1a
1e
fb
e9
27
f2
07
22
d0
b5
2b
0a
e5
09
45
e2
14
ce
f6
cf
22
08
25
1b
0a
c0
f9
d7
24
03
eb
06
e8
d9
1b
18
05
fa
50
fd
e8
ff
d1
0a
0c
1b
04
ee
f6
09
e4
d8
34
0d
1e
1f
f5
f6
1d
fd
dd
fa
2b
f3
fa
10
f2
ea
0f
00
16
cd
0d
f8
23
e1
2f
f9
fe
e2
08
08
0e
e7
11
08
0a
ee
06
0a
f5
ee
00
cc
e5
bc
20
e9
23
1f
04
25
54
29
e6
02
06
2d
e0
de
07
3d
3a
dd
ed
0e
d9
03
13
f2
12
11
fa
0e
0b
e3
0a
de
f8
0a
03
f8
e2
f7
12
fd
f8
1a
c8
11
46
1e
fb
d1
ec
fa
58
0b
00
18
1e
f4
e6
10
fe
0a
05
ee
2b
01
1b
11
de
f7
06
fa
fa
30
2c
fb
32
25
f3
1c
ee
01
fe
00
f3
fd
06
30
f2
d0
ca
c3
09
30
06
1c
e8
ca
e9
ef
d1
18
d5
0f
15
eb
d3
29
1c
fd
fb
d8
f3
e7
0f
13
e1
20
1e
f9
fa
24
06
23
00
0d
e6
23
f2
3d
1e
ed
03
e7
cc
27
1d
e9
f0
11
e9
ed
e4
bb
f4
15
fc
1f
2f
f3
03
01
0c
c6
e6
ef
b4
48
19
0b
22
0a
07
e5
1a
23
1c
c8
e8
fc
07
0d
dd
fb
ba
f6
d3
20
ff
17
ea
08
e2
dc
03
01
20
d4
fe
15
b3
0f
04
cc
01
f1
3a
07
fb
f3
fa
f8
a3
d2
f1
f7
f2
f2
03
1c
fb
e3
03
33
31
0e
ff
38
13
e7
25
0a
ed
fd
f1
06
fc
02
01
1c
f1
04
07
01
f3
fa
f7
e4
e9
0d
2c
14
19
19
e6
f1
02
f7
eb
10
f2
08
fa
00
fa
fa
26
da
22
21
36
fb
e6
09
04
e6
09
0c
e6
fc
03
e2
13
02
bb
e5
d7
2d
1d
e8
1c
fb
f4
0e
22
0d
05
ec
21
2a
e5
0a
f1
f1
f6
f2
9b
12
fe
e4
e2
eb
08
d1
e5
08
21
da
18
24
fb
14
fe
12
04
04
19
0f
1f
20
fe
4c
f7
d9
14
ce
d7
fd
1d
09
12
01
09
1c
10
11
05
f4
fb
05
14
2a
d6
18
fc
f5
e2
cb
f6
e8
f7
2b
da
fa
d6
2d
13
fd
f3
d8
0f
26
e8
e3
f8
24
04
04
01
12
ee
e0
f7
ef
02
ef
02
fe
3b
f0
e2
dc
fd
25
0e
06
3e
e1
1a
fb
12
19
18
e1
f2
ea
2b
24
c2
18
d3
1a
24
02
03
0b
06
e1
2b
ea
f0
0c
13
08
34
ce
f3
e6
e5
24
fb
03
e7
0a
28
33
ea
e0
0a
12
e5
f6
e2
0f
1d
0a
14
e6
dd
02
28
55
f4
33
24
f2
ff
dc
e2
20
19
18
f2
12
ad
fa
0f
1f
eb
04
0a
f5
f3
22
e5
fe
04
f3
25
12
be
1f
d5
02
f1
0a
df
ed
fc
e1
f7
d5
ed
0b
dd
e7
ef
f3
f5
dd
11
f0
30
f8
e6
f2
0d
d3
0e
d8
13
f8
11
0f
e3
e7
e7
ea
0d
21
23
07
04
f3
11
f6
0c
e2
f4
f4
f6
04
2a
3a
48
df
23
d5
20
03
16
00
fd
25
f5
fd
d6
1b
f2
f0
e0
1a
e8
03
09
3e
33
fe
21
29
14
09
0f
12
ce
14
09
17
fb
f1
29
01
f9
e9
2e
14
da
ee
1d
e9
12
01
0c
3b
eb
b4
f7
f2
dd
0e
ef
d8
e6
ef
0b
1f
e3
fe
e8
06
fc
da
03
10
d9
f1
f5
ed
f8
1a
f9
cc
08
fe
07
03
dd
1e
c3
01
22
3d
0f
f9
e7
fe
07
f8
ec
e3
20
e9
1e
14
e0
1b
ce
0c
28
3f
06
22
d8
0a
ff
25
e7
ec
1a
05
fc
0a
e9
09
e9
0d
17
1c
f9
0a
0d
07
1b
d3
dd
09
ed
12
e3
10
29
14
06
02
03
05
f3
d4
25
10
17
0a
fd
f6
17
d8
f9
02
ce
11
f3
12
57
df
22
30
e6
3e
09
d7
1e
ed
e8
ff
d9
f4
e5
cc
ff
27
fe
db
e5
12
17
0b
f7
15
ef
16
ee
f8
16
ed
e1
d4
fb
ee
0b
19
d2
fa
55
cf
0e
09
0c
10
fe
1a
2c
ea
24
fa
1d
d7
f6
fc
18
f0
fc
f3
06
d9
ef
e9
34
1e
03
14
0e
09
d3
1c
15
04
fe
1a
fe
1e
f5
34
f5
0a
12
31
ee
0e
1e
29
cd
02
15
f8
0e
e3
04
05
0d
0a
29
f5
07
05
fb
e1
09
5e
11
f8
fe
0e
dd
d4
fe
f5
f2
f7
c6
eb
fe
f2
f5
17
f8
1a
f5
e6
ed
e3
f9
fa
b8
e8
e3
18
15
cd
10
2d
11
f5
0e
18
10
e1
fd
20
d3
ca
f9
2d
d3
fd
3d
db
dd
fd
17
ff
2a
04
f2
1e
16
d4
e7
0c
13
d7
f9
01
02
f0
01
f9
f3
17
ed
eb
ee
09
cd
18
18
17
06
12
07
fa
04
1f
03
2a
f0
ea
23
f1
1b
ed
23
d4
e4
0e
14
07
2f
c8
0e
e0
ce
19
17
32
cd
37
37
c6
16
f5
20
0f
2e
fc
2e
f8
f0
04
f0
26
ce
f6
f5
f6
00
e2
f1
f1
ec
ca
d4
1c
fc
24
38
ea
fe
f1
31
ee
04
0a
c6
2a
fd
00
f1
1d
fc
03
0d
c9
dc
ff
ec
05
fd
fa
f3
d2
ee
0b
b8
c9
1b
da
16
d1
ed
db
12
20
26
e3
fe
25
f5
bd
06
dd
08
0e
0f
07
0e
08
e6
e2
c3
ed
17
60
0a
e8
0a
c3
14
26
e3
f1
18
10
04
fb
f9
ed
22
e2
39
de
fe
f0
f5
ca
f5
ef
dd
28
04
03
e2
1f
19
ec
c6
17
fa
cb
ff
15
12
f2
fe
07
01
d9
f3
0d
ea
04
f8
c3
11
01
f7
d7
0b
f2
f4
06
f7
f6
12
fa
0a
f1
1e
08
d1
de
f8
12
de
f3
04
da
0b
f5
21
e0
01
fc
ce
d7
29
eb
0e
d3
2a
fb
f5
fd
1b
e6
d9
10
ec
e8
d5
24
e7
f8
26
e2
31
ea
23
e7
f9
08
f9
cb
2c
ff
2b
1c
1b
de
12
19
06
cb
0a
ec
2f
ee
00
08
de
ef
f1
0a
1d
31
cc
02
c6
f2
31
17
f2
0d
fd
ff
2a
14
db
12
ca
f3
fe
19
11
e5
15
05
0e
e5
d8
0d
12
f3
18
0f
0d
e1
06
fa
1b
d5
0c
da
02
00
00
1f
fc
01
05
02
0c
ec
2a
fc
d2
fb
2e
10
43
34
32
ec
11
da
10
07
f6
eb
fc
10
17
e4
f1
f8
19
24
de
30
e6
29
00
01
ee
20
02
05
29
05
e3
d3
e5
0c
0e
0e
07
fc
ec
d3
25
2c
3b
ee
fc
18
03
9b
f3
17
18
f7
f9
db
d7
fe
fa
07
26
08
04
d7
f1
d3
f1
e4
0b
dc
f9
fd
e5
f5
03
e8
04
fd
11
a2
4d
0f
fd
31
1d
de
0d
17
f5
24
f6
fa
e9
d5
02
d7
d7
e4
e3
f1
12
2e
1f
06
23
ed
ef
0e
d9
df
f1
b5
e5
23
12
e7
f7
04
f0
18
14
0b
cd
f5
15
fe
fc
f0
de
f9
f8
e0
02
ea
f4
d9
e0
d5
e2
e5
e2
05
d7
0f
08
f0
f4
08
10
d9
0e
c3
20
e8
fd
40
e7
26
01
15
1e
13
c8
07
18
f7
20
0e
0d
1f
db
13
f6
12
f5
25
00
21
1f
ed
fc
f1
30
e5
ee
ce
11
01
02
fe
f8
32
23
35
31
09
ea
cf
f5
da
02
2a
fd
2a
0a
dc
fe
05
43
fc
03
2a
0d
fc
3a
03
f5
fd
15
22
ed
15
11
b0
fe
0e
21
18
fe
ca
fd
14
0d
ef
ec
d5
32
d4
fe
04
0d
ea
14
1e
e6
20
e2
1c
f0
ed
ff
03
05
01
1a
08
1b
21
28
ed
01
e6
f6
09
13
18
05
f5
e1
ee
f7
f1
20
e6
f5
f2
f6
37
20
f3
ed
2a
0e
2c
e4
0a
35
15
f9
f7
06
1a
0c
f0
25
19
f0
ee
d5
1a
21
fb
f3
09
16
3d
e7
ee
f3
df
e9
ee
f8
03
08
2c
12
fe
f5
32
1c
06
e4
f0
de
ea
fd
1c
c1
28
23
0b
f7
30
c7
23
09
fa
00
10
1d
0a
f9
ef
f6
0d
2f
f7
f7
f7
08
03
f6
f1
20
e7
1d
17
fe
03
4c
2d
de
10
1e
f8
11
d8
01
f6
27
19
25
e4
d7
1f
f6
02
fc
22
e9
e2
01
21
e2
17
e8
4e
19
d0
f7
1c
e6
ed
da
fe
2a
46
1e
08
04
37
1a
17
c9
04
c6
16
ee
e8
e9
03
01
14
0f
16
2e
d8
0a
f8
08
17
df
08
fb
25
f5
e7
ee
cc
11
03
f9
ce
ec
f8
22
fc
00
05
3e
d3
eb
f0
ea
ff
14
de
0c
ef
39
fb
05
23
d7
0f
fe
f7
ff
fe
29
01
07
15
12
e0
d8
0c
00
cf
19
f4
2b
01
f2
13
e5
06
0a
1b
03
04
fe
e4
e0
f6
0a
e6
cc
1b
02
fb
27
42
f5
21
ed
f1
d1
e6
00
ec
2f
1e
e3
00
23
08
e0
26
d3
11
f5
db
24
3b
12
f9
f8
c6
ef
c5
1c
10
f6
f3
e7
09
0e
1d
fe
01
f7
07
dd
d5
03
f2
f3
ea
1b
07
12
48
ef
d7
07
07
00
e2
fa
07
06
28
25
f9
f8
04
d5
0a
d4
c9
25
18
f3
ed
ff
de
1e
16
0e
fd
f0
07
09
1f
12
28
fc
fa
f4
fa
fb
0b
f2
cd
e9
0b
ee
c0
28
f2
05
14
10
fa
f0
1a
24
dd
1a
fb
26
df
21
fc
08
ea
12
ec
00
f6
20
0f
0d
1e
e6
1f
e2
0d
11
10
f5
f1
07
f3
e1
09
12
13
e6
e7
00
e8
f3
05
00
e2
2d
fc
da
f9
c7
ed
e9
11
0d
f5
fd
dd
41
f3
03
f3
07
41
fe
27
0c
0e
fe
0e
0e
f6
00
fb
d5
f6
d7
2a
1d
1f
fa
e4
e7
06
29
0a
1d
d0
32
39
ec
dd
f5
01
17
e1
20
e1
c4
23
0b
e5
e8
0c
eb
17
2e
1f
05
19
10
11
05
eb
ed
e4
15
e8
e2
fe
08
00
24
34
f7
ef
f2
e9
16
ee
f1
f4
fe
1a
30
f6
0d
12
15
e5
12
fa
fa
fa
f2
12
0a
d5
f6
f5
05
dc
d8
f3
f2
26
f4
07
0d
0e
14
04
d0
0b
36
da
10
20
02
1c
14
31
f1
22
02
19
0e
c8
09
22
55
2b
0d
09
05
c8
ce
12
ff
d3
03
fc
e9
25
0f
cc
df
f5
01
1a
ed
e7
08
df
e8
fc
1c
ee
e7
09
14
02
29
f1
01
0f
f6
06
d8
26
ea
db
d3
34
e1
14
0e
f8
48
1b
d5
01
1d
e0
0b
1d
c9
f4
15
f8
e3
ea
ef
1e
e1
0f
db
13
18
08
f7
0e
e6
07
15
f9
f7
f9
17
f3
f6
d2
ed
07
d8
03
fb
0a
13
0a
10
25
0e
0a
14
0d
b6
f1
f2
fb
02
24
16
4f
09
31
14
f4
fa
e0
1f
f2
06
f0
b6
da
eb
20
ea
fb
f6
0b
db
fd
ca
f0
dd
fd
01
dc
cf
40
df
06
26
e8
db
f4
20
f8
0f
fc
fd
2e
d8
0e
ee
38
18
2a
0d
ed
f2
f1
ce
0e
fc
1f
e5
fe
1d
d4
3d
cf
14
f7
e3
03
13
f9
cb
04
fc
12
26
2b
14
e3
15
cf
e6
ee
1a
ed
18
1e
d1
0c
25
ed
03
f7
f5
27
ca
02
d7
02
d3
30
3a
62
e7
e9
db
e5
4c
f6
1b
f9
e3
f6
dc
17
01
07
cc
28
34
f9
1c
0a
d8
06
15
f3
cb
02
fc
14
00
da
e0
0a
fc
10
0d
02
14
fb
fc
23
1c
10
0d
dc
e0
f6
eb
00
15
2e
07
bf
dc
01
ef
d2
da
28
f9
dc
16
41
04
da
0b
09
0d
f6
07
0a
d0
29
09
d4
0d
03
1f
f6
e0
d2
02
36
fc
1a
d9
f6
e7
19
f9
16
30
21
0f
1a
e3
39
10
fd
fb
0b
f3
49
07
25
e6
e9
05
3f
f8
e2
f8
1c
01
fe
0c
f3
e5
1f
fb
f5
ed
ea
fa
f0
1d
08
0b
d9
ea
bb
cd
f3
cf
f0
f5
13
c7
cf
1d
13
f5
f5
1a
05
ff
2c
ef
d4
0e
f7
25
07
da
f8
f9
15
0a
f3
22
d3
29
f0
ea
d8
f4
3f
07
f2
ee
21
0a
20
0b
e5
f0
18
fa
03
bb
fd
e4
fd
f1
0f
ec
db
f1
cc
e2
f0
32
11
0f
0a
06
ef
2a
e7
03
fc
12
38
ff
de
09
e9
e4
27
17
dc
e3
05
27
f1
cf
e8
27
fa
30
12
f1
ef
0e
2e
ff
e7
01
1a
f7
33
e3
09
11
01
e4
f6
00
0e
ea
d0
f3
38
fd
e6
27
04
f4
db
18
cb
15
f1
17
f6
19
28
e3
fd
46
fc
ee
db
01
f0
ec
1a
f9
ee
ca
0a
0c
05
fc
36
f5
19
e4
1a
1c
ff
f4
d7
29
0d
27
f2
08
f2
d8
0c
f2
2c
13
e6
f0
00
f3
2c
02
d9
12
e9
c5
3c
07
30
0a
03
11
f1
14
f3
c4
10
d4
2c
f3
f9
0a
23
f6
e4
05
fd
2e
0c
13
06
1a
d8
2b
14
f8
02
00
1b
1b
18
f6
ef
2e
0a
e6
e4
05
3d
06
dd
03
ee
2b
f3
e2
16
13
f8
1f
59
f8
fb
e2
05
16
1e
e7
05
0e
e4
fe
fa
0f
e1
f1
15
df
17
26
2d
08
0d
39
17
20
3a
ed
2f
f7
21
e9
0b
0e
fd
08
3d
f6
d4
ea
04
d6
04
25
02
02
2b
25
0a
31
3b
1c
f5
0c
09
c8
f9
03
0a
23
00
2f
09
0b
19
15
06
da
00
30
30
e3
e3
fb
ee
fe
17
01
f5
3f
f3
26
0e
fd
0b
cd
22
e7
f6
f8
ff
1c
fe
f7
17
1a
ee
11
18
22
f0
0b
07
02
10
ec
d2
1a
0c
08
ef
0b
3c
e4
e9
e3
05
08
13
07
fb
f3
f0
ff
04
f7
15
fe
05
22
d0
e2
e2
0b
f8
fe
e7
08
17
02
fa
28
db
15
2f
fd
0f
00
05
00
d1
e3
00
d9
14
10
e1
d1
ee
0c
03
ec
fc
1c
fd
f7
f1
29
04
ed
fc
ed
0e
ee
fe
e0
14
20
e6
28
09
f5
ea
25
46
d3
e4
e5
1f
06
f2
ea
01
0f
07
d0
ea
09
fa
32
29
26
00
f8
12
25
e9
f9
00
f0
ec
eb
eb
19
2c
30
e0
08
ee
fb
3e
e2
31
b8
e8
f1
f7
e9
d5
22
11
df
1e
ed
e7
fe
26
fa
de
27
00
03
e5
f8
e8
fa
01
ff
13
13
0b
cd
16
e0
e4
ef
ef
9f
d9
1e
02
1a
c7
e1
22
1b
11
23
f3
17
19
15
20
29
eb
0d
f4
f4
cf
ff
04
23
13
13
33
e2
fa
05
1b
f1
17
27
02
12
42
f9
03
e4
f5
07
f7
1f
f9
21
09
f5
e3
1b
fe
f6
ca
f8
c2
f1
14
02
01
07
0d
ef
f9
ef
22
08
e1
ed
03
06
02
eb
0a
f9
ff
d1
ef
fc
fb
19
de
0b
05
23
05
d7
0a
fc
e8
0c
c8
01
1c
03
e8
db
38
db
fc
1c
00
00
11
ee
e0
e0
32
04
e5
15
c9
04
df
14
0b
1e
00
35
07
e3
01
dc
24
e5
fd
fb
13
10
23
18
03
ea
f9
db
f5
f0
0a
25
f8
13
cb
1c
f1
ea
f9
1a
06
14
28
07
01
f1
1f
f4
1a
e0
20
22
d5
ff
1a
f9
21
f9
f5
f1
1f
ff
0a
32
13
1f
e8
f9
13
1b
10
06
1c
1a
10
11
00
0a
e5
2c
cd
1e
e7
e7
c5
2e
c2
1e
ed
c6
21
f8
1a
25
ee
fa
e6
cd
0c
f2
f2
2e
14
df
fe
ec
0f
df
f6
b8
2f
d3
04
0b
14
19
02
f7
e8
e1
fa
09
44
00
21
09
e4
01
e2
3e
30
f5
25
f1
fa
10
0a
19
e9
1e
0c
d1
f2
24
01
fe
0f
f1
d9
fb
3f
fe
e6
25
14
32
02
00
ec
f7
08
fa
0d
fd
04
ff
08
21
0a
09
f5
c5
08
d7
c2
d8
1f
fe
16
2c
00
ff
c1
12
0d
f5
f5
fa
f3
ea
19
ec
32
30
f1
12
bc
e3
ed
01
2c
f9
17
2d
f7
d9
fd
0b
fe
cf
e2
06
13
0b
e1
f8
c4
f2
11
11
1b
eb
17
24
4f
d4
20
f3
0c
cb
cd
ff
17
25
20
1f
cd
f3
15
e5
f1
94
45
31
0a
c6
01
06
2d
f5
05
10
05
23
ed
0f
24
f7
e9
ef
03
f2
f2
fd
e0
ea
fb
f9
fa
c0
11
f9
da
dc
09
f1
22
dc
26
fd
d4
e1
fb
24
10
0f
49
e8
f2
e3
23
21
db
05
cc
2b
c4
f0
e9
d9
0a
34
f7
fd
ee
e2
f0
ec
20
1b
04
f8
08
02
d7
e8
12
db
eb
44
e9
e9
05
f7
1b
f2
0d
18
f2
0a
33
ff
fb
08
d3
0a
16
e4
26
dd
07
c9
03
fd
0e
13
d9
05
24
f7
f8
ec
c6
13
17
d2
db
11
16
02
d4
22
c2
cf
12
fa
0f
12
d9
ed
d8
18
fa
08
01
ec
f9
20
06
19
e7
f0
27
00
da
00
e2
ef
14
f5
fc
d1
fa
0e
03
ec
13
cc
0e
04
d3
18
e6
ff
02
23
01
de
fe
0a
f3
09
d4
15
e0
f4
17
09
b7
fd
f7
21
dc
f4
07
30
fd
16
11
10
ce
00
e8
e6
28
13
f3
06
04
16
fd
c8
ee
d2
e5
ee
0b
e5
0a
0b
f9
04
f5
31
1d
24
33
01
41
0e
03
1b
f6
f3
1e
f3
10
1f
16
ea
12
0a
01
e2
ed
de
06
f5
1c
d8
f9
e7
02
0f
20
f8
f9
15
14
da
f1
e9
f2
2f
e9
0e
0b
0a
dc
19
0a
29
28
15
f3
14
04
eb
14
2f
1f
0b
eb
e9
3d
f9
e8
0d
20
13
12
d5
f4
1a
de
1d
0e
08
14
18
01
3c
f1
0d
11
f8
ce
13
eb
d6
f9
1f
c9
ce
14
dc
e3
11
f5
07
1b
3e
cc
07
dd
e6
17
11
d4
f0
06
1f
dd
d8
f3
fa
11
e9
fc
28
eb
05
d2
25
f5
0e
11
f0
30
e3
e4
d7
10
1e
43
15
f2
1e
05
0a
10
00
f7
1b
fb
f7
e1
ef
1c
ff
ed
d6
02
0f
d3
fa
24
17
fa
06
dd
18
ef
ed
40
e8
0e
ee
dd
00
1b
0e
d5
f9
ec
19
f3
00
eb
02
0a
1a
fb
18
f6
fe
07
d4
1a
fc
ef
cd
dc
bc
d2
dd
00
ee
33
eb
1a
f0
0c
08
49
29
2f
37
1a
1b
0b
0e
09
25
eb
10
35
de
21
40
ea
22
04
02
d1
0a
e3
1f
d8
ea
f8
fe
fa
10
0a
f8
12
f3
10
db
dc
1d
f5
35
e5
03
07
2a
e0
e5
f9
1d
f3
1c
d3
08
00
15
2a
01
f9
d9
df
fa
f1
fe
ec
f2
05
1a
07
1e
df
f3
e2
d4
16
13
0c
0b
1a
1d
fb
13
ed
fc
d7
fd
13
cf
20
ec
f5
e4
fe
e1
ff
1a
e0
ce
15
e2
14
10
17
1e
46
fe
c0
d2
d2
27
09
f5
f7
f1
23
18
e5
d5
0f
e5
24
29
04
15
ed
c5
9f
07
08
da
00
0a
09
fa
06
eb
30
eb
10
b6
e9
02
db
39
d7
01
1b
00
00
fd
40
00
06
e3
f0
eb
e8
e8
1a
18
3d
01
e6
0e
d9
e8
dc
0c
31
f6
03
c4
1d
d0
0f
d9
f3
f4
04
fc
10
dc
05
29
2d
25
e4
f2
d9
17
e8
fb
ff
eb
0e
2e
ff
e0
f5
0d
ee
00
03
08
fc
14
05
fc
fd
0a
19
e8
1c
17
01
f1
35
1e
3f
ef
26
ea
11
28
ed
f7
20
45
e1
0b
13
e1
ee
c7
32
d8
2c
13
cd
de
09
e7
05
ec
f2
06
08
18
02
25
22
f5
0a
15
e4
18
2b
0e
08
03
fc
1e
c5
18
2e
ec
f2
ef
f2
fc
fe
16
19
05
f9
e6
c9
e8
34
d9
e8
08
e4
1a
d5
1a
d9
10
0d
fc
22
e5
15
f0
05
25
13
e5
11
35
ee
22
f4
12
05
00
18
bb
26
dd
3b
1e
03
e7
ec
d3
05
26
14
ea
00
1e
1b
ea
f8
02
07
f0
df
ed
cc
0f
c0
e8
c6
04
00
fa
ff
e6
d3
29
15
2f
f6
02
2e
2e
e8
ef
0d
28
04
07
f8
fd
34
fe
f3
cf
27
f9
f9
de
fd
df
fa
f9
e9
13
21
02
ee
15
19
07
f8
32
0c
de
ce
f9
13
07
15
ce
e5
f7
f4
0b
c2
df
dd
18
e3
12
c4
e8
0e
f1
f7
02
fd
06
1a
e4
e6
db
0f
d1
15
f3
11
03
14
0b
22
0f
14
36
2f
47
07
23
15
f8
f8
23
a5
da
0d
17
ed
25
30
f3
2f
d5
a8
08
f3
ef
df
15
ee
d6
2a
f8
fa
09
e4
17
1a
fb
dd
06
09
41
18
d9
ee
1c
1f
da
f4
fc
d8
dd
cd
cb
1e
01
f9
df
f4
dd
fb
e4
f3
0f
2e
09
eb
fb
1c
1e
dc
d5
f6
0b
17
e4
06
0e
2c
f7
0f
cf
15
e5
08
d8
22
06
0e
fe
1a
3d
21
f4
f1
01
f0
18
f9
de
29
18
20
34
a8
13
f4
e0
fc
d3
f0
d8
07
3e
09
0e
e6
26
06
df
f4
04
15
23
1e
1b
ee
ca
00
e7
01
f5
e8
f2
e3
25
1b
29
f6
f7
22
f8
09
0a
f7
f5
5e
1f
33
00
0a
f6
fa
02
fe
05
f1
e6
19
31
1c
da
0c
1b
f2
24
fc
fa
ec
07
1b
ce
1a
fe
ee
1d
0c
fa
e0
3f
08
3c
da
f5
36
0b
fb
f8
16
08
b6
0f
e9
f3
fc
df
02
c2
1c
ed
e0
f1
fb
ec
43
e1
1b
e9
fd
d8
f5
fb
0d
05
0d
16
f1
ff
01
1d
f2
03
04
13
24
37
e2
20
fe
f6
02
28
bb
0e
ca
cc
fe
16
fe
18
da
e4
f6
21
3d
13
f8
13
03
e1
fd
2b
f7
1f
32
f6
eb
18
02
06
fc
07
f8
13
1a
c8
f6
2c
cd
fc
ff
07
d5
13
f5
0e
bb
d8
24
21
d6
c3
3c
1d
dd
1d
14
f3
ee
f0
dc
eb
f8
f3
df
0b
01
04
08
33
e4
fe
e3
dc
e2
fe
21
e9
04
21
33
f9
00
ea
2b
df
ef
ec
ea
1b
09
e2
0b
02
c3
fc
22
27
fd
bb
1b
0d
27
0e
02
e3
be
da
fd
ea
4d
cf
e8
e1
2d
08
eb
0e
02
de
db
fb
33
02
09
15
1f
e4
13
fd
00
f9
10
fa
fd
2b
f2
19
f4
ee
0a
0f
3c
1b
2c
e9
f5
0a
11
f6
ec
03
29
e6
03
f0
ec
37
f3
ef
e2
db
f6
e6
eb
03
08
14
ef
08
ca
f0
03
da
0c
1b
10
e4
2f
f0
00
00
05
d1
03
ed
09
14
24
f5
10
fa
32
fb
ff
d6
2c
09
0a
f0
f9
16
fc
0c
e0
cb
f8
f8
f3
2b
d6
ee
c3
03
fd
21
11
ec
fe
bc
f0
0c
09
e7
01
02
de
28
07
44
16
04
ec
fc
ee
f2
e3
15
18
ed
eb
fb
f9
16
2f
ea
0d
37
f9
17
f9
41
13
07
01
f1
f1
f6
f7
f9
fd
04
17
01
d5
f1
2e
29
12
f6
ed
1f
e1
ef
10
3b
39
36
f4
e0
02
24
fb
10
1a
d2
fc
f9
f4
f7
f4
30
02
14
f0
1e
ff
05
f1
02
07
1d
0f
32
18
03
bd
04
26
f5
de
02
1d
10
e8
ee
03
f1
fa
17
e9
1d
f2
01
06
09
0f
fe
25
1c
0f
1c
38
ed
cd
09
ed
30
11
ba
16
0b
e4
07
0f
05
0f
df
07
0e
0b
df
1f
04
ed
d0
00
ef
04
e6
11
cf
dd
04
04
11
12
f3
dd
0b
f8
32
0c
0d
23
20
1b
06
b6
14
1d
14
08
f9
0e
f0
da
eb
dc
16
f9
f9
23
d9
01
fd
0c
fc
f8
c7
d5
02
fc
1c
31
e8
f7
e3
4b
fc
df
30
13
e7
33
dc
f3
0f
19
01
14
e9
d5
37
0b
1b
e2
0b
06
18
f7
c1
51
1d
09
13
13
f9
06
05
2e
f7
ef
fe
ee
f0
0d
ce
dc
16
08
cf
17
fb
17
fa
08
de
d7
f6
d9
f7
18
ed
33
04
1a
fd
1c
e2
c9
29
eb
eb
13
f6
0b
0c
c2
f7
ff
c9
e1
dd
05
0b
3a
f1
30
eb
fa
31
f2
11
e5
09
23
f5
d4
14
2b
f6
e9
2c
10
1a
e4
19
13
32
fc
37
1e
ec
18
06
09
e0
c0
b8
09
1b
f5
db
0b
f3
f1
30
ff
02
b2
07
de
fb
fc
d4
02
24
00
03
19
0f
d5
1c
c4
d9
f3
07
09
fb
ec
fa
f9
21
f5
de
e5
e1
fe
00
02
9b
0d
45
0c
fc
de
09
16
f3
d3
17
ea
fd
f4
c2
0f
c0
e1
fa
f1
25
2c
da
00
f9
d8
f9
30
0e
d5
33
01
27
28
f5
1a
18
ee
fd
d1
05
ff
0d
ea
07
d9
f8
05
ff
18
e5
2b
29
1a
28
f3
14
fd
fd
01
f6
ed
ea
be
e1
1c
01
fe
12
04
1a
26
2a
1b
f3
d5
31
df
fc
0c
0b
e6
15
dc
09
ea
15
13
eb
03
ea
0b
f7
e8
d1
ef
d7
12
20
12
eb
09
15
13
2e
e5
f2
0c
02
fd
28
30
0c
00
fb
2e
0f
08
14
e8
f0
07
01
e4
0b
10
14
16
d5
13
e7
e6
e5
ec
ec
06
f5
c9
25
dc
ed
e4
e5
f5
f1
fa
d3
fe
15
df
e7
bc
e0
f8
ea
3a
e5
19
cf
ff
fc
49
f8
e7
07
0f
fb
1b
e1
f2
19
09
fb
13
2d
02
f0
0e
f8
03
da
db
1b
d1
46
1d
f1
28
19
e0
cf
fe
18
07
ff
04
02
de
ca
00
de
11
07
13
29
07
ea
f2
dd
43
16
02
ef
12
0d
e9
f6
e5
37
18
e1
38
df
f0
43
06
1a
10
ef
01
d8
fd
12
f7
b9
28
dc
f0
03
fd
de
f5
02
ff
e9
0e
01
ec
f1
1c
23
34
e6
00
eb
ea
1d
17
f9
e6
1e
e8
e6
10
f6
05
f3
29
fb
e7
dd
30
10
c3
08
f9
ec
17
2c
fb
35
2c
f0
19
e8
ea
0c
ea
dc
0f
22
02
09
12
24
e9
14
e0
d6
e6
16
2b
0e
0c
10
00
f9
f1
f6
de
fc
e7
21
21
e4
16
c7
14
1f
09
e8
e9
20
ef
12
fa
f8
e3
1c
07
18
06
18
f0
1c
1d
e6
f6
0e
eb
f3
fe
d3
b6
ce
d6
0b
ee
d7
e6
ef
d8
f6
ed
05
05
0e
f1
d3
0b
fd
12
03
fd
e5
f9
08
e0
f7
ff
24
2d
07
16
d7
fc
09
04
1e
19
d3
f3
fd
e8
e3
e0
fc
b7
eb
fe
09
1e
18
02
f9
05
ec
13
f9
27
f8
19
dc
15
2c
36
d0
f7
d1
e0
e7
01
00
f3
03
0d
ce
e0
f3
1a
fc
00
df
12
02
fe
f6
f5
2a
20
00
11
17
2a
12
ce
da
fe
f3
f7
11
2a
36
08
0c
f8
05
e9
ff
eb
ed
c3
0f
0f
f4
f8
01
e3
e0
1e
d9
e1
dc
ce
b8
0e
e7
0b
e1
ee
1b
d6
ff
e7
f2
f8
0b
02
ea
03
ae
ee
0b
0a
fa
00
f1
04
fa
ba
da
42
13
e6
e6
0f
0b
f6
0a
fd
df
f9
f1
1c
fb
ee
b3
1b
21
1a
0f
14
c1
11
e9
0b
31
e4
e7
15
f7
20
07
44
ed
1f
14
da
d5
01
1e
0b
cd
12
0c
dd
e6
2c
00
ef
ee
f0
1c
16
f3
06
23
ea
e8
fb
06
49
0e
d5
17
03
38
2a
21
f7
34
13
05
f1
f2
1b
ee
f7
e8
29
2b
ec
e8
0d
15
15
f0
2a
fe
12
08
ef
26
03
49
c5
e1
e2
15
30
25
00
ff
34
34
07
e9
1b
09
e3
2b
d7
0e
0b
0f
fb
ea
0b
f8
10
f5
44
ed
0a
12
0b
07
e1
0d
eb
ea
03
fd
fb
e7
0b
eb
cc
07
3c
da
0a
ea
23
07
08
07
cd
e9
d4
f0
0a
00
1d
e2
fa
c9
3f
04
fe
ee
de
fc
05
f5
f3
ff
1d
f4
dc
e6
f5
0b
f7
de
09
0e
04
11
1e
04
10
ff
28
ee
da
0c
ee
0c
e6
da
09
ee
06
29
09
07
df
f1
e2
0f
18
02
23
0a
2a
da
d9
16
d6
15
e2
fb
d0
15
ec
cf
09
07
f9
e5
15
ed
0f
01
1a
fd
ee
1a
00
da
0f
05
2d
d6
18
0d
f3
29
17
03
f6
f7
ed
ff
1a
26
f1
05
e2
54
36
0c
08
f2
e8
e9
ed
18
0b
d9
05
0b
2f
cf
ec
30
38
c3
06
f5
06
1f
ff
1e
e5
e4
28
f8
ed
05
1b
e0
12
d1
e8
da
c0
f7
ea
07
08
fb
fd
bc
fd
2d
17
c1
e2
01
04
12
f1
10
33
f2
fb
03
29
e9
0d
f8
e9
00
eb
11
0e
f5
17
ca
02
03
29
27
1f
12
f7
fe
f6
ef
ec
02
25
27
1c
df
0d
ca
14
f9
e4
0a
13
04
eb
1f
dc
0d
fa
ce
04
f8
18
fb
f5
fc
fa
ff
47
1a
e8
f8
e7
20
3a
da
da
c1
e0
df
0b
00
08
24
f9
24
fb
12
e6
2c
03
01
ef
09
09
f8
03
02
0e
1d
35
18
fa
df
fd
f0
d3
f2
db
ee
fb
0c
1d
b0
07
1d
01
f5
12
28
00
e0
f6
eb
1d
1b
0e
fe
ff
e3
07
da
e4
fe
19
0d
f9
e2
fb
fa
04
0e
f1
38
e8
0a
f7
e2
0b
0d
f9
02
f2
e9
fe
24
0c
14
e2
ef
10
0e
e0
d6
41
f8
e6
00
09
eb
13
f0
f9
30
26
f9
21
0c
dd
44
1e
ee
e2
20
09
02
01
00
03
06
fb
f6
d8
fa
da
df
05
ef
02
d9
fc
01
fc
48
0c
eb
01
ff
2e
12
24
2b
fa
05
15
1c
e2
f2
18
f0
1f
ee
14
e4
03
e5
cd
ee
c0
0a
1f
1b
db
d0
f6
ed
03
1b
dd
03
05
dd
e8
b5
09
ef
12
26
11
dc
1e
19
cf
24
fc
01
f2
08
f3
42
2d
f0
fc
18
e6
ed
2c
08
e9
dd
12
0b
22
f8
e3
13
db
ec
0a
ec
d0
07
11
06
11
ff
06
28
f5
24
26
e5
1b
f7
02
fc
18
14
f0
10
e9
f0
1c
01
e6
e4
dc
fa
f6
ec
fe
ee
e8
1a
ea
ef
00
f8
02
26
f6
ec
e9
3f
1a
56
eb
f2
1f
07
21
f1
f7
01
01
fb
04
05
0f
24
2c
16
e9
06
ff
05
01
07
13
05
ef
12
14
d3
09
28
ed
e4
d9
3d
00
be
d0
fd
13
15
d3
37
0f
42
2b
17
e8
f3
14
10
0f
1b
f7
2b
10
ce
de
2b
fa
fe
20
30
ef
ff
e7
e9
18
2e
14
00
1c
f3
ee
01
d3
16
d7
18
22
01
1f
14
14
fe
f1
e2
20
e3
fe
16
ef
fa
09
f6
da
f1
d4
23
e5
01
e9
f2
16
13
27
09
25
0e
df
12
ee
38
f1
28
17
e5
cc
fe
e2
01
2b
0a
0e
ec
df
ff
ea
fa
15
cf
e9
25
e1
19
20
0b
d8
f3
fa
18
29
0b
b1
d3
31
2d
f1
eb
17
26
18
fa
2a
05
f2
e0
f9
29
fb
15
0a
d5
40
ef
ee
b5
0c
06
27
e6
ee
31
33
1a
0f
13
22
ea
f2
19
df
16
d5
1c
f5
02
f6
d9
44
42
01
f1
49
fe
04
1d
09
ff
e9
1e
f6
28
05
ec
03
09
df
04
e4
14
1f
e6
17
06
f7
ce
3f
03
e2
06
38
ee
f8
14
0e
0d
fd
2f
f8
34
db
13
e3
f9
ea
05
f3
09
f7
24
1f
2c
ed
11
e5
11
e2
12
2e
22
fa
fe
16
ec
15
37
ef
f7
e1
22
f3
24
dd
fe
32
c8
f2
03
f9
19
e9
f7
db
0a
e4
ef
1b
29
03
1c
0f
01
fa
26
13
b8
d1
3a
04
e2
0b
f3
03
12
2e
f3
f1
f9
e2
30
2b
1f
10
f6
3d
f5
21
03
22
e5
ec
e1
e6
e1
0a
07
f6
03
1e
0b
05
ca
12
3d
fb
0b
ff
d1
ce
eb
12
f2
fa
32
2a
05
2e
03
2f
df
ef
d9
f7
12
dd
e1
fd
41
fc
11
07
39
cb
12
09
ea
18
1e
f6
2b
ad
40
f3
e0
1c
f7
2c
31
e1
f6
dc
fe
f5
ba
fb
ef
ec
10
fc
d1
fa
0f
10
0f
f7
08
fc
08
02
16
41
eb
07
0d
0d
07
f8
ef
07
1b
e7
0e
03
f8
f1
03
e7
e1
fa
11
fa
48
10
f8
17
fb
1c
ef
04
02
ef
26
08
fd
18
19
3d
08
12
f8
f1
0c
f7
0c
24
f2
cd
08
f6
02
fe
fc
11
f7
f6
cc
0d
0e
28
11
e4
25
06
f6
f1
e6
ff
f1
29
fa
11
f8
19
ef
0d
e0
12
31
11
fe
19
4a
21
01
23
17
eb
07
eb
f6
f2
f7
dc
ae
1a
e4
e3
ef
23
eb
e9
c9
1a
e8
1d
02
eb
0e
f9
09
ff
12
e7
20
e9
f8
27
0e
06
db
1b
10
02
fc
e7
f0
f0
0d
07
17
17
0f
f0
ed
14
f3
1a
dd
15
1e
e2
29
13
e0
fe
05
3b
e6
f6
04
ed
4d
ee
26
fa
dc
16
21
1f
f4
25
14
27
e9
bd
25
2a
38
fe
09
ea
d1
f5
e9
14
33
fe
0d
07
20
2f
dc
04
06
1f
e4
eb
07
fb
20
d5
0c
d6
e2
29
fe
f7
cd
2a
07
02
02
09
de
08
1a
fb
f2
e5
f4
29
f9
fc
07
0c
08
f6
e9
20
22
23
14
ed
fe
f8
e0
f6
06
26
e1
db
05
e8
f5
e2
05
06
12
fb
32
df
13
05
de
f9
13
0a
e5
2c
e4
f8
fe
05
f1
bc
01
1f
fe
f5
0e
fd
f0
14
c1
00
eb
37
c5
0f
fd
06
4c
f1
f5
3e
08
12
0e
ee
01
ee
13
14
c8
e4
e5
ea
e3
fe
05
ec
e2
08
1a
f0
20
10
ea
04
13
23
28
fa
ea
03
14
db
1e
2a
06
09
ff
25
ea
2f
fd
03
14
ec
02
e9
1d
05
06
ce
04
14
e8
f2
10
02
21
eb
05
fd
07
24
fb
15
16
01
fb
f1
de
0e
12
f5
e1
e4
fd
e8
10
1d
32
f5
0d
39
07
d3
d5
de
f5
fd
12
e3
e0
d6
01
e6
15
17
e5
09
09
0c
22
0b
c5
31
41
10
c8
1d
01
18
ec
cb
03
f9
dd
15
02
f9
30
cf
39
0b
f1
e8
2a
15
d0
31
fc
12
cf
db
2c
22
23
f5
01
f7
0f
26
17
e3
0e
31
08
10
c9
00
d3
18
2b
ed
07
16
1a
30
f2
04
e4
18
fb
e4
25
0f
13
0d
f7
e9
ef
10
fd
ef
d9
de
1c
20
f0
01
f9
e4
dc
3e
1a
0f
e3
e1
f1
3f
27
eb
de
08
fe
25
0d
03
f6
19
21
e4
dd
f7
0a
f0
1b
fc
1c
15
05
22
12
00
06
fd
16
dd
01
ef
fb
0f
e5
fe
1d
e5
07
fb
eb
2f
29
f9
ef
24
1b
fe
25
cf
e9
17
02
ec
14
1a
01
02
03
00
14
1b
12
16
ec
e4
f3
e8
0e
f3
fd
0c
d0
ed
d7
f5
08
23
e5
1d
ec
ea
ba
27
12
13
ed
09
ff
ea
e6
ee
f3
f5
10
f0
cc
c7
d8
f2
06
dc
15
0e
e2
f3
03
d9
da
e3
fa
f4
10
04
cf
ff
04
08
06
cb
f5
24
1d
ee
c4
02
0d
e7
e7
2e
00
38
18
e8
18
06
1e
ed
3a
e6
21
10
15
03
f8
f8
fe
32
18
11
f9
08
06
fc
f2
64
ef
ff
eb
03
23
df
c5
e4
1b
01
f3
11
f1
ec
29
0d
ef
d5
dc
12
0e
02
c5
fe
dd
d2
f8
ed
e6
c4
f6
f1
08
16
fc
3e
01
f6
0d
03
f9
05
f2
ed
f5
e6
fc
08
02
f8
02
ef
0b
e0
fe
37
0e
05
02
fb
e2
0d
fc
12
4a
14
12
09
bf
2c
0a
34
1c
05
2c
37
d9
f1
0c
57
ff
c6
18
2e
ce
04
f0
1b
f3
de
18
18
d9
42
06
e6
ec
f3
08
00
e9
26
03
ff
da
e8
09
09
2b
3c
fe
e5
13
f2
1d
d2
15
fc
f9
20
26
ca
f8
e8
12
16
0a
ef
1b
02
17
0e
ea
dd
00
f1
16
de
2a
eb
19
f1
e3
f0
fb
1b
fb
e2
e8
ef
f8
1e
e7
cf
f4
c3
09
eb
27
01
2c
14
fb
09
0a
f2
11
ef
17
0f
e7
0a
23
09
e2
05
07
f6
1c
e2
14
f9
32
09
0b
b9
04
18
f5
e3
f9
df
43
0b
f0
46
02
ea
fc
37
1d
f5
00
01
03
14
0c
bb
0d
20
e6
0d
f1
27
1c
f6
05
25
10
c6
18
05
fb
fb
13
13
07
fa
0a
0d
10
f0
2f
ec
04
e4
e2
ec
24
06
f9
0f
02
e8
16
dd
e4
13
fc
fd
39
db
f2
0b
f4
14
ff
c0
cb
ea
08
f3
d7
e3
05
ee
16
0c
db
e9
11
04
f2
09
f2
1c
07
09
0d
08
df
d4
f1
02
e5
18
ea
fc
00
df
da
15
13
d0
f5
1c
15
f6
08
10
18
fe
03
f7
cf
ea
2f
1e
dc
06
04
fa
38
d9
0e
32
cb
f8
e0
07
24
06
24
56
17
01
f8
08
14
15
f7
3d
e9
e2
22
d5
e6
df
19
ff
ca
10
0a
02
13
0b
f2
fc
f7
1b
1c
c9
0c
f8
f7
d4
3f
03
d3
ec
f1
ca
09
e7
ee
f3
0a
31
c4
fc
51
00
fd
e5
1a
ec
26
ca
0e
1b
19
40
ed
1b
fc
fc
e6
21
f1
e2
ff
0b
0b
d4
34
50
0d
f8
04
f8
41
e6
df
e7
e0
f4
1a
23
1e
16
e3
fc
fd
03
0f
fc
00
19
dd
11
0f
31
e5
0b
1e
e9
2f
0e
dc
06
f3
12
f6
15
ef
d0
f4
ee
04
f2
1f
0d
da
18
07
13
e7
e7
cf
eb
ea
b3
19
00
15
42
27
20
ea
d8
e7
05
0d
c8
e4
12
f7
19
eb
e4
05
ed
de
e9
f3
f5
20
e6
ff
fe
f8
06
20
e2
ce
1e
2a
0b
c9
f1
0b
23
2e
1a
dc
f3
0a
ce
f3
f3
19
08
fa
fc
f8
e6
03
1f
df
1a
42
04
11
05
dc
15
05
f0
09
0f
fb
f8
fb
e2
40
ef
e9
14
d3
de
a5
14
de
e5
07
2e
fb
0e
05
d8
f5
0b
c3
f0
f6
27
07
f9
23
f1
14
e7
df
08
0f
0b
e7
ff
e1
19
15
fb
f0
1b
11
05
fc
10
fb
00
f5
18
3a
09
11
06
05
09
00
c8
22
21
f5
f9
dc
ee
da
00
0a
03
fe
cc
fb
07
ed
ff
e8
1e
08
cd
ec
fa
d7
ff
ff
23
06
19
ed
f8
f4
eb
fb
f8
fc
09
e6
ff
08
09
00
14
1b
1e
fa
f9
e4
e7
db
19
34
28
0e
f1
1c
e3
eb
d0
1d
e2
0f
0e
0f
ff
10
13
d6
05
19
f7
11
cb
fe
eb
ba
17
e7
e6
0b
1d
2f
fc
1f
10
fb
f3
1a
f8
19
f2
1e
de
06
f3
f6
11
27
39
0a
e7
db
1d
1c
06
ec
ff
ee
04
cb
0d
f0
1e
29
28
04
13
f2
3b
e9
05
ec
0e
1b
ed
17
33
35
10
04
01
02
02
14
12
05
f4
fd
39
12
f7
ee
17
dd
02
fb
0f
2a
f9
00
36
2d
12
dd
e0
e4
15
c9
fe
18
de
f7
fa
f5
e9
df
2c
be
f1
1b
0d
e0
f6
da
f1
f6
cb
33
ec
d9
f7
04
fa
d5
2d
be
21
1e
dd
f9
11
ff
c8
24
07
e0
fd
2c
15
10
01
d5
06
20
df
1d
30
05
f7
f1
be
09
fb
bc
f3
05
1b
ed
28
d8
fa
02
ef
09
03
13
11
fd
02
20
2a
fd
f7
07
29
0e
dd
e2
f6
fc
fd
03
05
fe
e6
fc
da
10
ea
fe
2f
0d
02
40
0b
e5
18
f2
df
06
0d
4e
ea
ed
fc
02
07
16
dc
0f
04
fc
1e
fc
f5
18
26
fa
0b
d5
f6
1b
0b
01
0f
12
ee
d2
e7
c6
ef
f4
e2
df
02
e1
11
2c
f8
43
d8
fe
13
14
e6
fb
f9
e5
c6
09
f4
01
2f
ed
00
13
19
23
00
19
07
05
0d
35
31
dd
37
fb
05
ec
dc
d4
fe
c6
0b
04
18
f0
40
fd
3b
07
1c
c9
02
02
f2
f9
de
06
fd
e3
de
f9
d1
c9
4a
23
f8
16
e0
fa
06
12
fe
22
e0
ed
ed
3e
32
d8
e4
f2
04
31
09
dc
d5
14
ee
fd
ea
04
08
15
c6
fc
01
f4
fc
f3
ce
17
f6
cd
22
1e
30
0b
fb
2a
be
36
e2
e2
f0
c9
3f
f8
10
0f
06
f3
f3
2f
fc
04
24
4e
23
f9
dc
0f
0d
13
ff
15
f3
0c
e8
e9
ff
f0
0d
15
e8
d9
07
01
ff
1d
0a
13
28
16
f0
3b
e5
e6
25
ec
16
fb
e8
d1
c3
04
fb
d5
01
fc
03
f6
15
0c
16
20
f2
39
fc
f9
13
df
24
0c
fb
e2
05
fc
ea
f2
18
fd
f3
e6
06
11
de
bf
23
05
41
fa
0e
06
f1
e9
4c
aa
20
08
22
0f
ee
28
de
27
0d
f7
ec
19
20
17
fe
1e
12
f0
f3
01
c3
ed
11
fb
3d
e3
22
25
d9
08
dc
29
ea
22
f2
f1
04
08
e7
ff
e8
f6
24
0c
d8
20
fa
15
16
ea
17
19
e7
2a
16
07
1c
29
07
ee
1b
02
10
ee
32
e1
fa
ee
21
1d
f2
e4
21
ed
16
35
24
d7
f7
1a
0b
4e
ee
25
dc
f5
0a
07
f9
e8
f3
e0
bb
ed
0e
ca
33
f7
ec
f7
e2
f6
2e
1f
1c
f1
14
2a
0b
f3
db
f4
da
1d
fd
0e
0c
f7
13
f8
e2
0a
06
18
03
0e
37
e5
d5
fe
fa
dc
00
28
07
d5
e9
25
e5
fb
05
ee
03
24
cc
f8
f3
f3
f6
ef
f5
26
2f
0b
17
06
ec
17
f0
fb
0b
05
f2
fc
0a
30
f8
1b
10
05
2d
ec
2c
1d
0d
10
f4
e8
08
ed
c4
cc
1c
13
0d
23
f3
15
ff
d8
34
19
fa
fb
12
f9
d7
f3
22
06
ce
05
08
28
1a
e3
fb
0a
08
fc
e8
e2
06
04
15
25
dc
f5
28
fd
0b
1d
f4
db
ff
ce
23
1c
eb
02
d0
42
08
3e
d4
d0
d7
db
1a
1c
fa
3c
f7
34
f2
ee
f9
16
06
13
f5
fb
0c
0e
24
2d
ec
f1
0b
0a
27
ef
0a
18
1b
12
bc
2a
f1
b0
1f
f6
08
f6
c9
0b
d8
d7
30
17
f9
ff
29
e8
cf
1a
1d
ea
1e
31
ea
cd
02
14
fe
df
e7
06
de
cc
d3
fb
d9
e0
dc
12
f2
0b
3c
eb
f5
05
ee
07
e1
1f
d4
27
ea
db
e9
00
f8
0e
09
e4
29
0e
0d
21
fd
02
0d
f0
11
ee
fb
ef
f1
dd
f2
10
b9
ff
ed
e1
fe
00
24
fe
fb
f5
cc
bd
16
fe
05
32
03
13
f2
dd
26
05
10
1f
12
e7
fd
e8
12
2c
25
e9
09
eb
e2
08
ec
03
fd
f8
da
05
10
19
e0
22
e7
da
34
26
20
20
e5
33
20
40
e0
b9
e7
dc
31
dc
ff
f3
fa
c0
e4
c6
f8
fd
13
f0
f7
f7
0b
06
e7
3c
22
17
f9
e4
e9
1f
f5
f9
fe
2e
25
12
3b
fe
fe
f3
0a
f3
dc
f4
f8
2e
f5
05
c2
e8
f1
25
08
c6
fa
f6
e6
0e
f9
10
03
0c
ea
02
ed
21
dd
24
e9
de
d5
dc
dd
bb
ff
dc
ee
d0
f5
f9
02
ff
14
27
1e
17
c6
21
1e
24
cc
ef
16
c1
33
1e
0a
fa
25
03
01
18
e3
d4
e0
01
d6
17
eb
1b
08
cd
13
f4
fb
f9
09
f3
1d
0e
eb
fa
04
fd
00
12
f0
e9
1d
f4
48
17
02
f0
04
fe
f0
f9
f5
0d
15
04
f1
06
2b
0f
f3
f2
b5
21
fd
0a
15
eb
f2
11
ed
22
c9
e5
ff
1e
27
ed
db
01
d1
cd
e9
ec
1a
fa
07
0a
20
2d
04
05
e0
f3
11
13
f9
03
ff
ce
ff
eb
19
1e
19
07
0b
17
1b
df
df
f4
ea
f4
25
c4
21
17
bb
e8
e2
2d
f4
eb
33
1e
05
f7
cc
17
2b
09
de
e4
f9
1b
f5
fd
0e
e0
f4
e7
36
e3
ef
29
c9
e8
dd
24
fc
eb
ef
e6
28
09
1e
fa
ee
1f
e7
1d
ff
e1
e3
01
19
f7
f7
f2
fe
03
09
f8
eb
ed
e4
f7
08
29
f5
e5
f6
15
e6
09
d5
1e
1a
02
3a
15
07
f1
01
08
26
2b
fa
14
1d
f7
0b
11
f2
f7
e5
f6
e9
ff
f9
09
c2
1c
17
dc
f8
d9
d4
0b
05
0a
cc
ce
f2
05
dc
c1
cc
1f
ef
ee
16
e3
06
06
2c
09
fc
ee
35
18
d6
ed
ed
e8
08
fe
07
17
04
dc
f0
19
e6
0a
eb
20
ed
dd
f0
f1
18
e1
16
1b
18
f4
e6
0b
f0
f6
1c
0d
08
fe
07
28
e2
18
b9
0d
16
0b
e9
ed
f8
ff
b8
d7
04
1a
25
fe
cc
01
1f
06
16
ed
fa
f2
2f
e1
aa
fd
f6
f8
21
db
fd
16
1d
5b
ff
00
17
e4
fe
e1
cc
31
22
fa
0b
03
d6
24
e1
f7
17
0c
e1
06
fe
e4
f2
14
fd
d9
f2
fd
fa
fb
ce
0a
09
01
1c
16
02
f7
e8
1c
05
e1
f8
01
15
f9
02
e1
ff
02
e5
29
e1
d7
10
fc
15
18
ff
df
04
01
17
0d
28
e6
f8
ea
e6
df
d1
eb
19
2d
22
c6
40
0e
0e
e3
07
db
ff
ee
0f
1b
e8
e9
e5
f1
e4
29
25
f7
12
f2
e3
25
1e
1b
2e
11
f2
d2
31
0a
16
fd
f1
09
36
2b
49
ff
ed
fc
0e
f9
d4
23
eb
37
01
f5
db
13
e3
20
fe
da
1f
c5
d1
19
f1
f9
04
fb
e1
01
d9
22
15
1e
ed
fe
15
fb
23
06
18
b3
18
16
f4
12
02
13
ed
df
24
cd
e5
1e
fe
0d
f1
da
ff
15
c7
d3
d4
02
01
f7
d4
14
01
e1
e8
06
0b
08
ff
19
0d
fa
0a
e6
68
da
eb
da
0e
f9
f2
ec
14
2f
00
1c
1f
d7
08
d2
e8
e4
bc
ed
f3
cb
e3
eb
ef
0e
15
ef
ed
ee
de
f6
e8
05
2a
0b
20
e4
2f
16
29
ef
f0
e1
eb
11
e8
e6
e0
1f
d9
db
d6
33
03
12
ea
f2
10
e1
fb
1c
06
e2
15
f7
36
bf
03
13
f5
00
23
ff
1c
15
24
f6
cf
f7
23
0a
12
fb
1f
18
06
2a
f8
fe
f1
f2
e0
05
f0
2f
ef
33
32
04
e6
fb
01
ee
24
16
e6
3e
14
e8
e6
4d
13
02
05
e0
ed
fa
05
23
f6
dd
20
12
e8
fa
f7
cf
1a
28
f4
e8
2f
0d
ee
00
0f
fe
05
f7
ca
e8
08
1f
0f
01
ec
06
3b
fd
15
2a
02
cc
f2
f0
2d
f4
3d
e2
eb
0a
f4
06
f2
05
de
0d
f7
eb
ec
f6
06
01
e8
20
ef
e4
c1
13
ff
21
dd
fc
09
cf
f0
f0
ef
10
09
ef
01
f1
f9
17
03
ef
da
13
fb
01
f4
c6
f0
f7
0e
fc
38
07
11
d8
ee
23
19
f0
d1
d8
bd
da
ed
06
c3
28
0a
18
24
19
22
ec
14
04
ef
16
28
11
ec
e0
da
a4
fa
0d
e7
18
1d
12
d8
ee
02
dd
db
1d
14
f6
06
05
ed
25
e6
09
fa
e6
10
01
0f
f5
e6
23
17
13
27
f7
07
00
38
ef
0d
df
00
d6
f2
0a
2b
29
f9
03
e7
11
28
2d
d2
e8
0d
d2
10
f8
d1
18
f8
2d
df
02
fd
0b
09
09
08
10
f7
d6
13
fc
21
f4
e6
2d
e4
13
04
df
e4
16
da
03
cc
1c
09
ec
02
04
16
fc
e7
15
ed
d9
ee
fd
d5
f8
31
e7
ef
f3
1d
fd
03
d7
e8
fc
f2
e2
cb
05
d7
01
52
42
ff
17
0b
1b
1c
fc
07
c1
e6
fd
e3
f3
dc
01
f6
f0
17
02
39
08
f8
d8
08
f5
f0
28
17
0b
3e
18
21
10
2b
03
c9
e4
28
20
24
00
04
02
4c
07
f6
dd
00
fb
13
d4
14
ea
09
fe
21
22
1f
db
e6
25
26
0a
fd
ee
02
1e
22
0a
d4
f3
07
20
e8
11
1a
62
f9
eb
27
24
06
10
ed
30
0d
f0
eb
b1
d6
05
16
ff
ff
20
e4
05
f6
0f
ee
08
ff
fc
c4
18
0f
ee
31
1a
2d
c0
f4
fe
df
ea
ee
d5
05
1b
2d
29
10
0e
c9
06
1e
11
fc
d1
0c
ec
f2
1f
f9
3b
eb
18
f9
32
e9
05
0c
11
fc
03
fc
fd
1f
18
d1
fd
d1
52
12
04
f0
dd
f0
03
0e
25
2b
08
07
d4
29
30
e0
ff
ef
15
d7
18
f4
fb
df
27
12
24
25
ed
33
af
f4
fa
e4
03
e3
f1
fe
16
f1
ee
3b
f3
1e
ef
ff
1a
09
da
15
18
e8
fa
34
0a
1b
20
12
f3
e1
23
e5
f9
1c
d1
dc
0f
40
09
46
1b
15
de
e0
f7
00
01
1c
ed
32
fe
26
ed
08
cf
f7
14
f6
f0
fe
0c
20
12
f6
f4
18
e3
23
f1
08
0f
fb
ec
dd
f6
12
24
f2
3b
1b
00
d7
ec
41
41
e9
2b
ed
11
51
ae
04
16
ef
00
fd
ed
0d
06
e9
e3
ee
e6
ef
12
fb
10
16
ff
01
12
e7
0f
1c
2c
07
00
fd
0e
28
e0
01
11
03
30
e0
02
18
f3
02
d2
2e
fb
fb
02
07
ef
e1
1d
10
e2
0a
3b
0e
de
dc
d9
e2
fd
f0
10
ff
06
12
2e
01
3e
1a
f9
09
06
f7
e3
1d
e4
20
10
03
20
e6
c8
13
f1
f6
cf
03
0b
f7
0b
e6
fe
0e
15
d7
05
14
1a
ee
10
03
05
22
2a
fa
f5
df
ff
f9
f8
03
0a
e7
13
0f
10
2a
00
10
fb
0a
1d
f9
19
f3
c5
15
fd
ff
18
e9
dd
10
f0
22
e1
f6
26
17
f4
15
2b
0f
fa
e0
13
e0
e3
02
ef
e1
f5
1e
fe
02
f8
0b
f2
07
12
28
db
11
25
0e
03
0e
e8
13
15
13
0a
e3
05
e2
21
f0
2f
05
23
1c
f9
ff
ff
01
f0
e6
f2
2a
04
21
f0
dd
e9
c2
f9
18
ed
09
e0
19
10
01
02
f8
f1
09
f7
dc
06
3b
08
f2
1c
d4
03
1f
f3
e7
f9
f7
da
f5
0a
0e
a5
22
f5
1a
08
28
df
0e
e2
d6
2f
07
c7
10
ef
07
0f
ee
ed
38
f4
f9
33
e8
1a
e5
00
29
ef
d2
f2
14
17
e1
29
cb
2d
c0
1b
ff
0b
0f
02
f0
f0
ea
cc
04
ca
0d
11
eb
12
ef
1a
05
0a
23
13
08
dd
01
20
e0
21
ed
f1
f1
ef
16
cb
38
e7
22
1b
22
cc
ea
25
d6
0c
ed
f7
19
3f
ee
fa
d7
bb
05
e6
ea
21
ff
f8
e6
e4
53
04
e0
07
00
f1
fb
31
d9
f1
05
1d
30
22
2a
23
f5
fb
27
ff
37
d8
f5
1d
0b
c0
f5
21
20
07
15
07
f9
ec
06
35
3d
0f
c8
eb
13
46
0d
d6
14
1f
ef
04
31
ef
ba
27
ff
f5
f5
26
f7
28
1e
f7
30
de
25
f0
04
f5
e9
ff
c9
07
e4
d1
11
26
12
de
1d
f8
da
07
fd
f4
dc
f7
04
18
39
10
f7
fd
44
e1
eb
f8
ec
3c
34
e5
13
17
e9
ff
1a
5a
d1
ce
dd
e6
d1
08
f3
f1
dd
f5
fd
24
14
1e
e3
1c
0a
f1
22
f9
eb
e4
22
fc
1f
05
f0
d1
fe
ec
0a
0d
f2
21
3a
f5
20
f9
0b
1b
03
04
eb
ea
db
b7
10
2c
dd
ec
13
10
f4
fc
2e
26
0b
fc
f5
dd
23
f4
14
ff
21
f0
26
1c
e2
cd
24
f9
1d
28
32
14
cf
24
fa
08
e6
12
f0
21
f5
fb
08
01
de
dc
fd
0f
ed
0d
13
f0
2d
1b
fd
28
c9
0d
34
38
14
e4
20
13
31
e8
2d
f7
1a
12
d4
f1
fc
bc
ff
07
f8
08
0f
d7
dd
f7
fd
1a
1c
dc
09
19
e8
f8
df
ff
19
f4
40
f6
1e
19
d3
17
1c
e8
e3
29
0e
f3
e2
e4
f5
ff
e0
0e
e2
2a
f7
de
13
01
fb
f5
e7
d7
29
f7
f4
29
f7
14
ee
f2
32
18
18
0e
13
e0
26
ef
27
dd
1b
fe
e7
00
08
ff
11
21
19
d7
e0
eb
d2
fa
13
25
01
0c
02
03
45
0e
0b
07
df
eb
21
da
1f
0b
fc
27
26
f4
f6
fa
fb
ea
f1
0b
d2
07
f4
03
0e
2f
cf
ad
3d
25
06
f9
e9
16
05
cd
12
0a
d0
d4
14
e7
ec
ff
bb
07
f4
f7
e0
0b
f3
eb
ef
ea
e7
1c
f3
f0
0a
f7
09
fe
0e
e8
ea
c3
da
e5
e9
e8
d9
02
d4
d3
ff
c5
06
fb
10
30
24
0f
00
e9
f5
dd
de
10
37
0f
ed
49
ec
11
0e
07
ec
f4
29
21
00
e5
d3
fe
13
26
fb
df
ff
f3
23
d7
17
f9
05
11
f0
d8
f2
fd
f0
f6
03
0b
fa
ea
e9
07
e8
32
0e
1b
1c
e3
ff
f0
ed
fd
19
1c
1d
d9
d9
10
0e
f3
2a
ef
00
1e
e6
f2
2f
33
19
1c
35
0a
05
f1
1a
26
14
06
25
f3
1d
fd
d4
06
1e
dc
e8
f8
05
39
f5
4e
0a
ec
ff
e1
f7
f3
e5
f0
f3
12
12
f5
16
fb
f3
ff
0a
eb
ff
e4
f5
d4
3f
12
b8
0b
06
0f
ca
fb
f3
19
05
01
25
ee
0c
07
f2
01
01
0b
cf
0b
1c
1c
ea
f3
e0
38
fc
2a
09
03
0e
1b
f2
f1
06
ed
e8
41
e3
fe
c8
1d
16
f0
1a
22
d5
07
d7
e8
03
15
1c
10
e5
0e
1c
0b
fe
22
fd
10
15
01
0f
29
ee
e4
39
e4
1e
11
d3
33
12
2f
19
c1
17
fc
03
fe
03
47
31
c2
dd
db
24
f9
e1
e6
ff
17
df
2d
29
23
00
fa
e3
15
fa
f6
f6
fd
1d
f7
11
ed
3a
2e
f8
2d
ee
2a
ff
46
ea
0d
06
11
fd
1a
f6
1d
df
e8
25
08
26
f0
dc
22
0d
10
e5
18
d0
db
f6
fb
24
19
0e
d9
d8
df
f8
1d
19
d8
e4
f9
32
08
d5
08
f8
01
24
0a
0d
13
35
12
15
ff
e6
fb
f0
e5
e5
14
1f
18
01
12
f8
d8
13
1b
f7
3f
c0
0f
22
e6
f9
03
e6
f4
28
33
53
31
13
eb
35
fb
01
16
17
ff
f1
0e
03
f3
f4
f2
e3
e7
01
0d
ea
cd
c5
0e
01
e6
12
10
25
05
1e
03
10
0e
f3
00
f0
ed
e7
f1
3e
fa
dc
05
08
ef
08
2d
e2
01
16
fb
fa
03
0a
f2
04
de
28
fa
b0
fe
06
29
24
1d
fb
d5
1e
f0
1d
0b
e6
13
96
f0
e8
e8
05
19
fe
09
e2
1e
fa
fb
dd
df
ea
01
fb
0d
02
c1
ed
ca
fd
2f
ff
de
18
13
eb
d6
26
0f
18
27
f6
17
02
1c
e9
12
fd
19
3a
e1
f8
e2
f1
2d
f3
2e
ff
f8
05
fe
e7
13
ed
10
de
fa
ff
0d
1e
34
e8
1c
e8
d6
02
cd
02
f7
d8
05
2e
04
fd
ed
20
41
30
f1
f1
15
e9
f4
c6
ed
29
09
ca
22
cc
1b
f3
f2
04
f1
f9
1a
11
fd
1e
35
2b
1d
d9
23
0a
0f
f0
e8
e7
39
f1
04
20
11
fd
dc
ed
eb
0b
20
1a
01
ec
d3
fe
de
f6
ec
eb
f8
ed
09
14
0e
df
1d
24
1a
0f
0e
f9
fe
ff
00
fc
12
f6
17
ed
fb
fa
fd
fa
f6
32
1b
29
c7
08
e7
df
c2
03
ca
fa
07
1b
00
0b
2d
16
ec
e5
20
eb
1b
f5
30
cc
c6
ec
bc
ec
f0
fb
1a
12
d8
1c
df
14
f0
0e
fd
2a
3c
f4
18
f5
03
2c
01
ea
e0
3c
e5
02
00
0c
fd
df
e5
d1
c7
e9
02
ef
1a
cc
09
e5
01
14
f6
0c
c5
d3
0f
e5
f9
f9
ca
f5
01
04
ff
ff
fe
0d
f8
2a
e1
1d
f5
e1
f0
11
0a
0b
fd
b2
f4
d1
f8
df
12
0b
28
12
1f
3b
39
29
e3
d2
ec
ff
16
00
22
ff
06
14
28
25
02
fc
19
f6
35
12
df
07
f3
03
fd
53
eb
f8
f3
e0
d9
0b
11
25
fa
17
cf
32
f6
e1
eb
e3
d4
0d
00
ef
00
1e
e3
02
0d
f9
e3
4b
e0
dc
10
eb
f6
09
e4
03
d4
09
30
02
e3
08
01
f8
11
fe
e7
fe
fb
2a
09
23
d9
0c
16
b2
08
ec
fa
19
fb
d6
12
fa
24
f7
ea
23
1e
14
fe
f8
24
10
27
f0
ff
13
01
e1
06
22
2e
30
63
13
12
49
10
0d
c0
1d
20
d3
f9
ec
e0
f5
1c
0a
f7
cc
1d
e2
d1
ce
fc
1b
ef
18
13
de
25
f3
0e
dd
2a
fc
2c
fe
19
d7
1f
1f
de
11
0e
2a
14
13
d9
2d
f1
1c
fc
ed
0d
fe
d9
f8
e0
fe
cc
06
0d
05
fe
06
e5
04
fb
1a
00
0f
0b
04
c9
2a
1d
f9
47
e9
0b
d6
07
09
e7
0f
ed
16
28
ef
e4
15
29
00
53
09
36
0a
f4
15
07
ea
14
b8
07
c8
fc
f9
f3
c3
1f
09
fa
0a
f0
e4
18
05
eb
03
2e
14
fb
0a
e4
0e
06
ea
1b
f7
f7
f3
ec
29
e4
2f
0e
c1
20
ee
eb
0d
be
08
0c
fa
d5
01
29
fd
18
e7
0d
e4
1d
12
f0
e2
ff
dd
0e
10
04
fd
22
f0
fa
d8
f7
22
15
07
df
14
e4
f6
e5
f1
f0
c1
07
12
39
f3
c4
26
11
10
ed
40
e8
10
07
29
fb
ec
17
2f
f3
f1
f6
04
12
e5
25
04
1f
22
03
1c
eb
c4
14
15
10
ea
11
37
d3
16
22
08
07
f8
c7
0d
1f
ff
1c
0d
e1
f9
dd
0d
a8
e6
f8
05
11
12
00
fe
07
16
14
0a
2a
0f
f2
eb
12
e9
dc
08
05
10
f9
06
24
d6
df
03
da
c9
e1
12
22
ea
ef
e3
e3
33
cc
bc
0e
21
00
d8
1b
0e
d9
25
f0
1c
1d
d5
1d
f2
f1
ff
1c
e0
06
1f
f5
fd
06
f1
b7
c6
10
28
e0
e1
1b
f4
ef
fc
fd
fb
07
03
00
da
f2
e0
17
25
35
12
fc
00
1e
e1
e1
0e
56
03
18
ce
17
36
e4
23
f5
e4
fe
d1
fd
05
fe
e9
ed
d6
ea
0a
fe
3c
ef
f2
de
f8
ef
1c
eb
fe
f5
26
e5
22
12
d6
fa
cb
2f
e3
f9
e4
0e
1f
11
fa
22
09
f1
de
1c
fd
e6
e2
da
16
03
e1
02
00
3f
28
3b
2a
11
26
fe
e1
06
f5
ea
48
1e
06
3e
38
05
f2
22
12
dd
08
0b
10
fe
03
fc
d6
20
ec
e4
ee
0b
11
f4
ec
d2
f9
01
02
e5
f9
ea
1c
1c
ce
d3
f1
23
dd
11
e6
e7
24
0c
f9
07
ec
02
1d
15
e3
17
e9
ed
f9
fe
3f
33
00
ba
e7
e6
0f
12
ff
1f
fa
de
0c
03
be
e8
08
ff
d9
1e
10
09
fa
c9
0a
d8
03
f0
18
e5
07
03
fe
b8
1d
03
d7
eb
12
fc
01
fd
d4
f8
ec
ee
15
11
d9
00
05
e8
08
f9
13
e8
e0
e5
ec
ee
fd
f9
e1
e7
ff
16
f0
f0
0a
2e
d8
27
f0
08
ee
f1
03
1d
d1
e5
09
ef
dc
0d
f5
d2
db
f0
1b
23
ef
03
f5
ee
23
c4
fc
3e
e7
1f
e3
0d
d1
d2
02
00
20
11
21
0f
d9
09
d1
ed
32
21
dc
f9
38
ea
06
d0
db
0a
d1
01
c1
f8
f4
0e
ee
08
08
08
e3
e7
fc
d2
20
de
05
f8
08
f6
fd
09
d5
f2
f3
eb
06
fc
28
06
18
e4
e2
01
07
0f
f1
03
22
f7
f8
fb
11
fb
15
06
de
d5
e2
95
11
1a
1a
1d
25
ee
dd
00
23
03
cc
34
0d
40
da
0a
eb
0b
cb
d3
f9
01
05
07
d0
0a
fb
21
2e
fd
d5
ec
29
f3
19
eb
01
f4
e6
10
fd
ec
04
f5
4b
f8
e0
e5
ef
fb
25
09
f6
d9
10
fd
0c
f5
17
32
fb
2c
f8
40
03
00
01
04
de
01
da
ff
08
38
e5
ed
03
e8
f8
d3
e3
f7
08
f5
07
d1
db
24
d1
ee
27
f8
c3
df
f5
ff
17
f5
13
16
1b
36
2a
fd
f9
0b
1a
05
0d
f5
c1
15
0d
f8
15
f4
f8
fe
eb
c7
1d
fd
f9
11
0a
fe
f1
f3
e2
0d
f0
d6
f6
08
22
06
d9
fb
39
20
be
ef
eb
dc
1e
c7
eb
e6
f9
07
00
d9
f7
fb
52
0f
e0
2a
f2
db
de
f7
ff
f1
2e
fd
03
29
14
52
cd
ea
f3
c9
ea
eb
43
e3
1a
07
f8
1a
0a
c1
0e
f2
5c
2a
05
f2
eb
fb
2d
04
ce
f2
03
fa
fa
32
19
de
26
3a
0e
9f
34
e9
f9
f1
1e
34
27
44
f8
19
06
28
0e
fa
1e
42
20
02
49
d9
da
2a
44
eb
e3
ff
ec
e4
23
bf
28
0b
2c
20
f1
e6
03
15
09
e3
f9
52
26
0a
ee
df
3b
e9
e8
dd
d6
3c
ea
f9
e1
08
0e
16
00
e5
3d
0a
0f
ea
ec
f8
fb
bc
d2
fe
e6
37
06
f7
07
fb
e8
ec
20
05
07
0f
e9
fb
0a
fe
11
1f
b3
1f
07
06
ca
de
f1
f5
0c
f0
f3
e7
e7
08
1f
e8
dd
f0
bf
ed
19
e7
f5
f4
21
fe
02
30
f1
24
ef
22
2a
3a
14
ff
e3
fe
0d
10
1c
f4
0b
ee
04
f2
03
b6
d0
20
b4
36
15
27
14
cd
c6
1d
29
fe
0e
03
12
e0
01
e6
e1
0e
e0
0e
20
04
04
05
19
e5
29
f6
18
c5
08
f2
00
ec
05
11
ff
20
15
02
de
29
12
16
0f
13
01
05
fc
17
29
2a
26
b0
e1
e5
17
0a
f3
03
d5
1c
1f
06
01
07
05
0d
08
eb
d1
1b
f5
16
1e
fe
1b
e4
fe
ee
03
0f
ca
f8
17
04
02
30
fb
f8
f1
e3
e4
03
09
17
0a
09
e2
ea
2b
df
1a
00
be
0f
2b
c6
06
d1
ff
e0
21
e2
18
05
04
1e
c5
bf
ee
3b
05
c9
07
0b
fe
17
13
e1
d6
03
e8
fe
ed
ef
e3
e8
10
db
fd
41
16
0e
17
06
c0
0b
01
d4
f3
24
0b
31
e4
ee
e3
29
04
cf
10
2d
fd
07
12
08
fe
2c
15
2d
13
0e
08
29
ef
0f
01
fe
fb
4d
08
0c
24
fe
02
f6
eb
05
0f
17
0c
4f
fb
f2
0f
11
f4
f5
24
0d
22
13
0e
f1
33
d8
fc
01
01
fe
e3
1f
0f
15
14
fc
fc
e0
0f
f2
f3
40
ce
10
12
40
10
f7
2c
1d
0c
3a
0f
20
0d
02
11
32
06
11
9d
e1
0b
19
34
e5
36
0f
f9
00
f8
1a
0d
e2
0d
13
14
e6
f6
05
21
f1
11
1b
1f
c6
37
05
dd
d2
3d
e8
d4
08
18
09
f3
a6
ef
ee
fb
24
19
f0
19
f0
e4
02
fd
39
fa
06
ea
ed
fd
c5
10
29
fe
13
40
f4
2f
11
32
d5
d8
0b
02
f7
d9
13
fc
cb
3e
0a
fc
12
fb
f5
dc
f6
ee
01
fb
e2
d7
09
25
d2
0a
2d
03
1d
2c
cc
d4
fc
05
12
f4
fa
1f
28
0f
df
f3
1b
20
fe
0b
09
3b
ec
21
31
fd
f1
d7
06
00
1d
e8
ef
f0
ef
bf
06
13
21
00
05
06
fa
19
1c
2e
fa
2b
f0
48
e3
e3
f5
11
eb
34
36
25
08
fb
31
04
f0
31
eb
18
d4
f9
e4
f9
0a
f3
17
00
38
fc
f2
23
0c
16
f5
fb
ee
fd
00
fc
16
00
d0
c5
45
0c
ea
0d
f7
f1
ef
01
19
0a
15
d2
00
e2
20
e5
14
07
ee
f9
e4
0d
2a
30
d9
08
06
1f
05
04
3b
fb
db
f8
18
f8
de
e4
18
f0
fc
fb
2c
ff
c7
f1
cf
23
f0
ee
f0
16
07
03
e0
f1
3d
ee
02
0f
ef
10
de
2f
00
20
08
ee
fd
e9
ed
28
e0
d2
08
de
01
00
06
f7
e9
f7
f8
0e
10
f2
f6
12
15
00
c1
f6
fd
0a
11
20
07
0c
fa
f5
e5
14
e5
fa
00
0a
d3
14
ed
3d
ff
e1
db
dd
fd
d5
01
ef
26
d3
ee
f5
40
f0
0c
f9
f0
fb
0a
1f
20
03
02
ff
d6
22
f8
ff
ee
0f
0e
f2
ef
f4
f3
05
27
18
f3
e2
fc
c7
f6
d4
13
d6
c1
e8
bf
38
16
e3
fe
20
f3
0a
0f
06
3b
ff
1d
15
30
1c
00
20
05
2c
e1
02
25
d8
11
2d
f0
0f
fa
2a
ec
0f
e4
f1
02
e3
de
08
e5
d8
de
21
fe
ec
f7
24
28
dc
dd
0a
1b
fd
04
1b
1a
cb
4b
0f
fa
ed
01
f1
24
f4
15
41
f5
d5
01
fa
e5
e8
dc
1a
d1
11
ee
e3
dc
13
0b
f0
f5
ef
20
db
cf
03
02
03
de
f0
14
9c
3c
df
d6
f5
ec
11
05
18
ea
ef
f9
05
e6
e4
fa
14
e7
ea
13
02
10
0a
f3
e5
2f
05
16
02
28
24
dc
f3
10
06
f8
0e
05
fb
ef
31
df
e3
36
fe
14
ed
f3
ec
30
08
27
0c
04
ec
2a
07
de
0c
0d
ea
22
02
ee
31
f0
13
12
45
e9
f4
ef
dd
10
05
ef
fc
2d
e5
cb
30
19
16
1c
f6
0b
36
f1
f1
14
04
0d
f4
e7
06
dd
00
fa
f6
da
05
1d
e7
eb
fc
00
a8
24
bc
f9
f1
ed
ce
06
05
12
fc
f1
0e
07
1e
f7
2a
10
10
f9
ea
21
ed
ec
fe
23
f8
03
31
0f
fa
ee
00
f6
ef
00
eb
f3
f2
07
f1
0a
dd
20
cb
11
00
06
21
e9
07
e7
eb
e3
05
02
0f
42
03
05
ea
ff
20
23
11
22
04
03
09
fb
03
0b
f9
1f
f3
f2
13
1d
db
13
fe
ec
0e
06
fc
34
fb
1e
fa
fa
df
d3
10
3c
fa
f7
e7
00
c6
d9
02
1e
08
36
f5
17
fc
26
fe
32
f1
fe
28
05
ef
ec
f0
3e
ec
21
fa
f9
fc
e8
07
da
ec
fa
d4
e4
cf
d7
fd
10
08
f5
e8
cf
f1
18
02
08
fb
24
09
fd
21
eb
37
ce
05
1c
2e
e2
41
0b
03
3d
42
f4
ec
f3
fa
ee
f1
11
2b
32
43
e1
df
0d
23
ff
04
dd
ff
1f
0d
f9
0f
00
04
05
11
f9
1b
11
1a
11
05
18
1d
00
3f
f8
f8
03
fd
25
fb
df
ed
07
ff
14
cc
02
12
f5
08
1d
00
e9
f9
f6
cb
04
ec
1e
1a
08
f5
e9
f8
f8
26
fb
fc
49
32
04
00
ee
03
19
d7
09
1e
fa
d3
ed
14
d7
17
04
5b
12
ee
df
15
f9
e7
b8
ee
ff
22
f8
15
16
54
fe
0e
f3
3b
03
05
f6
d4
10
f9
f6
fa
06
de
ca
f4
06
fc
ef
0f
ef
05
e9
20
03
f9
eb
ff
e4
23
db
ec
e3
ee
21
ff
0f
f5
18
18
e0
f6
d7
09
d3
04
ff
fe
ff
39
07
16
02
f3
23
1c
15
14
e0
ae
e7
cd
fa
01
12
0a
16
d6
f8
d2
ba
25
3a
14
1e
17
0e
f5
16
31
00
ff
09
10
25
0e
d2
33
f8
40
04
0f
1a
03
0a
14
10
d0
fd
39
fc
fc
e5
1d
e4
27
02
13
04
0b
0a
00
2c
fa
1f
cc
09
f4
06
3c
0b
10
3e
3e
e6
01
ee
34
37
04
0b
1e
cd
04
2b
ad
f6
28
ed
11
c9
d0
dd
0b
e4
d2
2e
e7
f4
e4
2e
fa
16
41
08
fa
db
00
fb
1c
f2
dc
09
e9
0a
31
35
30
fa
1f
07
cf
1b
08
24
f9
e7
eb
ed
b9
26
cc
e7
01
e2
e7
17
d8
fd
08
46
fa
05
e9
38
ff
e1
d9
f8
e2
13
eb
f9
0c
f2
ed
f4
f6
f1
df
bd
24
06
07
ec
1b
16
09
fb
08
02
d6
00
1d
ee
ee
ed
e6
f0
0c
ec
f0
f0
f0
ea
f6
03
eb
16
06
09
03
13
15
30
14
16
02
26
06
ec
f4
0b
fc
fa
09
f9
16
20
f6
f4
f8
db
00
30
22
2d
05
ee
15
1d
17
f9
0c
f5
25
ea
f5
1d
fd
cb
e4
ec
f1
12
12
d5
12
19
2b
fe
d7
26
2a
f5
16
14
f9
fc
f5
ff
55
3f
1e
c2
1c
dc
31
ed
de
f4
57
d5
fd
f5
f3
0d
f0
2a
fa
d6
0b
01
0b
0a
eb
14
ff
36
22
0a
2b
19
e4
fe
db
fe
03
06
0d
be
0d
10
e8
00
fc
0b
e8
e0
ff
39
e9
d3
f1
22
fd
fb
0f
ee
03
13
dd
04
f5
15
e5
10
f0
fc
ee
e7
dc
e0
dd
1f
dd
f5
24
de
06
ce
3b
fc
f5
fa
db
d3
01
09
e5
f6
ea
f9
fc
14
03
c4
1e
16
f8
2e
00
ee
26
ff
06
ed
df
f3
32
dd
f9
f7
de
e3
f9
fd
17
05
f3
e5
d6
03
cb
e9
08
ed
e1
13
fa
29
f5
0f
20
26
fc
0a
25
17
3f
16
f4
e2
e7
1c
d2
2a
f9
1a
0d
2d
01
20
0e
f9
0b
05
04
00
ee
e2
13
cc
10
04
07
00
21
1b
23
db
32
e8
f0
e3
e7
d2
02
20
d4
fa
01
d3
02
ce
dc
05
fb
36
e0
1e
20
46
f3
26
06
1a
47
fc
fd
11
cc
3b
f8
10
1c
fa
f2
d4
0d
28
dc
36
21
00
0a
ed
ff
f8
d5
ee
06
fb
e8
25
fe
03
0d
08
06
f0
ee
f9
18
ff
fc
ee
08
f7
fe
ed
26
f0
0a
ff
1a
15
e2
3b
0f
0a
f5
0b
ee
23
04
40
ee
f2
06
00
36
f7
ce
1b
f9
1a
2d
f3
06
fe
2d
f9
f3
f4
04
06
2e
2d
00
df
d7
1d
2b
db
df
fe
15
13
d2
0e
db
12
31
2c
e4
1c
f0
e9
02
cf
0e
f2
e6
22
12
e3
27
0b
fc
0e
e0
d5
f0
11
0d
fa
0f
1c
03
08
1c
f0
10
ea
f2
dc
db
4d
20
e2
cb
ee
f9
f3
1d
02
ff
1a
0b
e2
c1
f1
0e
c9
ff
fa
02
f6
11
07
21
da
09
f0
10
06
d6
fa
02
20
17
dd
07
00
16
d2
ff
f6
f5
00
f6
1b
04
1a
07
cc
23
ec
f3
05
e8
e2
fe
fe
ec
eb
05
ef
02
ee
11
1d
ed
f7
29
e6
07
06
f7
27
f7
3f
09
ed
ea
cc
19
c2
d9
38
f7
f0
f9
07
e0
d3
f9
d0
ec
d8
29
0a
33
ff
e7
0d
c7
13
1d
f1
f0
2d
42
1c
3c
1e
36
e2
f6
06
02
fe
ad
06
ed
20
d1
f3
f5
d5
16
e9
db
dc
13
17
e0
f0
ee
dd
03
02
00
09
fb
f7
16
12
ce
09
c6
d1
10
f6
e4
21
e0
f5
0a
f0
ed
e1
14
f5
39
e5
fc
2d
11
08
e9
ee
fd
eb
f2
00
2b
03
d3
11
09
25
2d
13
f7
ea
10
0a
da
f2
f8
31
f1
18
07
c9
04
05
09
d6
10
06
fb
fd
25
00
f7
fa
dd
0f
f0
0d
e5
0d
ff
d4
0a
f3
e0
0a
ee
e9
1d
ee
fc
23
10
cb
f4
e4
f7
e9
d2
03
14
0b
05
e8
32
da
f7
2d
f5
10
08
c8
1b
f6
2b
21
15
24
2b
ce
b7
04
e6
d8
e1
16
d1
f0
f6
e1
da
e7
14
f5
c2
1a
0a
13
05
eb
0c
09
24
0f
f6
f0
08
0f
f4
ef
c7
0a
11
e8
fe
2c
30
26
32
0d
f1
02
0d
25
e7
cc
db
27
db
06
d7
25
0d
f2
e3
fa
fe
22
f7
f7
08
09
0a
f3
23
13
01
19
db
03
e2
be
ed
01
0a
ca
fb
f6
db
fa
fa
12
15
ef
42
3d
0e
f1
25
fc
dc
0f
df
0f
19
30
07
fc
39
0c
f3
38
15
f7
1d
cb
34
08
f4
de
ea
05
0b
e7
e9
1f
0c
1e
08
24
d3
e5
12
ff
af
fa
cc
cc
d2
fb
0b
05
f3
0c
b0
23
ef
21
06
14
0f
dd
20
1b
15
02
e2
cb
f0
05
16
d3
16
0a
e1
de
f1
e3
18
38
de
11
f9
1a
f1
4e
26
c3
13
05
e1
de
fe
da
da
13
ed
0b
15
e9
f5
f3
f4
ee
e6
3c
d9
0b
06
12
3c
e4
f5
20
d7
f9
fb
00
05
03
f6
21
e9
21
df
31
a7
d7
dc
0b
ff
b3
23
30
43
1a
ec
07
f6
14
f0
04
19
c6
0e
04
2f
3a
d2
08
38
15
0b
ef
ef
13
0a
10
0f
02
16
0b
1c
e1
f1
f4
eb
fd
e3
e4
23
d9
1d
0a
e2
e6
08
f6
f3
09
11
2e
00
fb
17
f7
da
f5
e0
f3
04
3f
04
dc
c5
af
f7
15
e4
fe
e2
1d
25
3c
0f
29
03
18
0b
53
13
fd
fa
d8
0d
02
ef
23
12
09
ef
2e
02
28
11
d7
00
39
fc
01
27
0e
12
21
d3
16
da
00
fa
1e
e8
1a
19
fa
fc
12
f3
fa
e9
22
ee
fe
f5
f0
f1
fa
01
06
03
44
0a
13
de
f1
e7
fb
f2
07
0b
03
13
f2
19
f8
f4
31
1e
02
e7
0e
cf
11
02
43
e5
ed
16
f9
02
28
e1
fc
3a
05
f4
d7
2b
e2
f1
ff
1e
f8
33
fc
13
10
f8
f0
12
02
d8
ce
c9
ef
eb
23
14
24
fc
db
f0
0b
ec
19
14
fe
de
16
2d
12
29
41
12
1f
bd
40
13
e9
22
d6
0b
0e
2b
ec
27
3e
1a
12
ed
13
d5
4d
38
f8
f5
ed
cb
f7
de
fb
eb
f8
ff
33
fb
ea
12
1c
14
d1
cf
f1
d7
17
04
11
01
ee
1a
c9
01
22
19
f3
fe
d6
0d
f8
f6
20
2e
f5
18
21
e9
eb
0e
29
e7
08
f7
e9
0f
15
f9
de
0a
d9
02
02
e6
c1
06
29
09
0b
e7
e3
37
e0
01
00
18
10
e9
f2
30
1a
f3
f4
f6
04
1c
05
0f
df
da
e4
ef
ee
e9
f7
ee
f6
22
15
fb
1f
e7
f1
da
02
e0
03
fd
d3
10
12
04
07
37
0b
fc
2c
f4
29
bf
14
ef
08
07
27
17
13
ca
44
b1
07
0e
32
e3
31
19
e4
ff
be
e1
06
f4
fa
c1
2c
01
17
23
ef
f8
e3
e4
da
e9
fa
f3
11
44
de
1d
fe
f5
ff
ec
1e
11
16
e7
29
1f
fd
0e
01
fe
1b
1a
06
0b
df
23
c7
f3
0a
f1
e2
f5
ea
ea
02
00
08
36
fa
f1
30
de
0c
f4
fd
f0
09
e0
1e
11
f8
12
0f
fe
12
2a
f3
f3
da
f0
f5
ea
d4
cd
f4
f2
e8
f9
ba
df
e0
d9
1f
f6
da
ba
de
0d
3d
f6
09
07
e8
27
3f
ea
0f
23
06
1d
1a
fd
ee
e8
03
b5
f9
3a
e7
13
fa
e9
0d
dd
db
03
0e
23
fb
de
d4
fe
08
cf
ee
b9
25
fd
01
fc
18
e9
fa
fb
1e
2f
f8
03
f7
b5
d1
f6
e6
04
c1
f7
fb
f7
1d
13
46
e3
06
07
eb
23
f7
ec
40
f2
f4
e9
20
ef
00
f3
07
c7
0f
0e
fb
ec
f9
f2
06
ee
f6
29
20
e0
0e
f4
d3
fc
0e
f9
ee
03
03
22
2d
1f
2f
28
04
ef
da
45
fc
10
20
f0
00
00
1c
e4
f3
bc
13
fa
f5
f9
57
37
f7
fb
f2
f4
f4
04
e9
1b
07
ec
0c
f7
fa
e5
b8
d8
1a
ed
e9
04
2d
01
03
f7
fa
1e
02
01
f5
e9
18
e6
07
ff
f5
e3
04
ec
e6
02
14
1d
db
27
02
15
18
1e
18
da
de
1c
fd
0d
0d
fc
de
25
ff
13
1b
0e
fd
0e
25
02
ef
13
1e
e6
cc
05
4b
fb
1e
03
f9
31
02
05
ff
22
c4
c9
00
15
ea
1d
0f
fd
f2
eb
1d
ef
d1
fe
11
d6
d6
09
0f
12
ef
ea
da
13
dd
13
fe
12
04
0e
18
02
e7
e7
f3
04
15
02
fe
12
fd
f6
cb
ef
f5
12
ed
f2
f3
e5
1c
04
d3
1d
dc
f5
fb
ef
0e
ff
1c
c1
10
dd
08
0f
ef
0e
f3
e9
06
27
e0
06
13
14
ba
f7
fe
16
f3
11
fb
27
e4
1c
f2
30
fa
1a
db
30
e0
35
1e
03
32
e4
f6
e0
2d
1a
1a
f3
c8
0c
e9
f5
fd
01
03
34
b0
e5
09
14
17
15
f4
00
0e
08
e0
f1
eb
f9
19
53
39
25
0f
0a
21
f0
29
14
05
0e
1f
2c
ac
15
0f
fc
db
e4
04
15
fb
21
23
2a
01
08
e6
1b
22
01
f7
0a
00
07
09
2a
1f
d8
e6
42
e2
ee
07
0f
0a
df
e1
f7
f1
d4
23
04
e1
32
0b
fa
fd
e9
0a
22
43
ee
1e
fc
28
f2
12
e1
0f
24
ec
0e
fc
15
05
d6
0e
23
2b
3e
ff
fb
fa
07
e5
0a
14
eb
f7
f4
fe
10
14
17
fb
fd
0d
f5
d1
19
ea
10
f6
33
0f
13
34
1d
2a
dd
2a
04
fe
14
eb
d9
23
d4
3b
e5
11
ec
f7
ed
0d
1b
09
ed
16
03
fe
40
d9
17
21
e4
0a
42
f1
cd
c2
fb
ff
fc
2f
06
e1
fd
dc
f4
ec
ee
11
e3
07
00
41
1d
06
15
f1
30
e9
f0
fb
f8
f7
ea
50
08
e7
09
d2
ba
07
f5
eb
ef
16
df
2b
ec
e2
fb
ef
cc
22
fe
0a
17
fa
1e
1d
1c
0b
f6
46
16
fe
cd
fe
0f
25
15
e0
f8
17
f2
3d
ea
0b
1d
fa
e3
fa
0f
0e
f2
f7
ea
26
d7
0d
06
0b
1a
17
cc
ee
21
eb
00
f3
04
30
f4
ed
0a
e4
09
13
f8
c9
e3
a6
10
12
12
13
fa
34
f7
f0
1f
dd
fb
01
d5
ff
f8
0b
28
f0
fd
eb
eb
d2
f4
27
1a
44
fc
09
e4
d5
b1
1f
eb
fb
f8
06
04
45
f2
fd
d7
ff
12
f7
06
0b
d3
e0
1a
01
0d
fe
d7
ef
0d
fc
39
ed
20
f8
fe
e1
f8
eb
1f
02
4b
de
09
25
d0
d8
fc
e8
d0
e7
ff
f5
2f
f6
c0
e1
fb
29
fd
0b
cf
f6
1e
09
14
1e
e7
17
0d
18
38
d5
26
2e
1b
13
eb
fa
ea
10
1f
22
e1
17
28
08
1e
c7
1d
fc
e0
e5
fc
0b
f4
f5
fe
05
da
d4
17
e2
cc
dc
ff
c6
07
fb
eb
0e
fd
e2
fe
01
25
15
05
fe
f6
f6
f3
21
1b
0f
0d
f1
07
ed
0d
f0
f5
1d
da
f3
fd
01
ee
e9
19
de
ef
f0
12
f4
23
e4
58
2d
a6
07
f7
e2
19
cd
e5
f7
08
c7
04
f2
10
c2
dc
e4
e1
26
d6
dc
23
08
1c
0b
06
11
1c
f4
d7
03
1b
c3
cc
f6
f4
04
23
1b
0e
e3
f7
ef
f5
08
44
11
1b
27
db
0b
f0
e1
06
05
e0
f1
09
0e
e6
ee
d6
e0
27
e3
1a
ea
0e
e1
e2
17
f7
f8
fb
f9
03
c2
de
ea
fa
e6
3b
19
15
e8
e7
0f
ad
26
2e
18
09
eb
10
da
e7
06
1f
18
f0
27
1d
f5
06
e0
11
15
bc
12
2c
0a
e6
10
f6
ee
0b
10
03
fb
05
1b
0c
12
f0
eb
1c
05
f1
0f
13
1a
fd
c5
27
cf
1b
e3
16
02
d9
f2
de
f3
2f
f7
29
1d
0d
fd
cf
0d
e7
13
e2
e2
fa
ea
07
de
ef
04
2a
ed
e2
01
1d
d9
f4
04
e2
dc
0a
f8
ed
04
ef
fc
11
29
09
ea
ef
dc
07
2f
e5
f9
07
0f
03
27
04
f6
03
38
08
21
e6
fd
29
25
c8
bb
ce
41
24
f9
d9
f7
01
08
3f
f4
1f
f1
1c
dd
1c
fb
ff
a4
29
14
0b
ea
48
f9
d7
3a
2f
03
0c
fe
05
c1
e3
f8
d3
1a
e5
2e
07
fe
e9
cf
1f
00
24
dd
e3
2d
10
31
fc
d5
16
eb
f6
35
ea
d6
cc
02
00
12
11
26
fc
ef
d6
18
db
09
dd
e6
df
ea
fa
07
e1
32
1a
e2
fe
1c
02
ef
2c
f9
df
24
0b
03
43
ee
ec
db
11
04
16
19
e5
0d
fe
0d
34
f2
e3
31
e5
2a
f0
10
03
ea
02
f5
f5
f7
e5
d0
13
f4
3b
dc
0b
e9
c1
48
1b
06
10
15
0b
38
f0
de
2f
eb
fb
16
06
fa
d7
0d
0f
1f
e5
f0
df
f3
32
da
1a
e1
ee
04
db
0f
f6
e6
d1
07
f5
ef
14
c2
10
c8
04
12
f6
1e
e4
1f
13
03
f0
47
fb
23
2f
16
1b
1b
13
0f
30
f4
13
02
fb
23
0f
2e
05
d9
18
0e
19
f3
eb
1d
d1
f6
f1
0f
fe
0d
07
0a
0c
09
d4
e8
29
c8
ee
ca
da
e4
ed
ee
d9
df
e9
08
fb
f5
10
0b
ed
1c
24
ee
f4
da
e7
e3
f0
dd
e2
3e
f4
f8
cd
18
e6
3b
e1
d1
06
e7
f1
ff
2b
f7
f7
f5
12
fe
1a
06
07
00
e9
ee
07
e8
da
1d
0b
fa
15
c9
09
ef
f3
db
f5
33
01
08
ec
01
fb
10
e6
0f
eb
0f
f7
15
fa
f6
c2
d5
25
ef
ed
ea
24
04
03
ff
00
eb
35
f5
0e
05
d2
0a
eb
dd
de
fe
14
02
17
d1
c0
cb
23
d5
07
f9
f3
d9
d8
0a
03
12
e4
28
fa
2a
f5
fa
f7
e1
41
30
df
fe
f8
2e
08
01
f5
ea
ea
51
15
2b
29
01
0d
c1
05
1a
0e
fb
e4
ff
0d
f2
23
31
06
c3
dc
e5
db
1d
14
dd
00
29
0f
20
fc
09
45
ec
f0
fc
03
d5
ff
01
18
d9
14
df
ee
16
05
f1
e9
24
17
df
08
f4
1f
f7
ec
c7
da
f0
f8
df
fa
e4
f9
fa
01
11
f6
fa
08
dd
04
09
16
f6
f5
fe
f6
c4
f5
1c
28
f2
01
04
09
d7
00
06
ef
bf
1f
07
2f
06
c9
29
fb
27
29
c4
d2
f8
04
09
03
16
07
2c
38
ea
07
c2
09
e9
ef
07
03
02
ba
0f
e2
d3
15
1e
13
fa
38
1a
f4
04
eb
f3
2f
00
e5
c2
f3
e8
34
df
2a
e4
15
0e
df
27
0a
fa
2f
07
00
e5
08
eb
ff
12
d6
16
26
10
c9
03
2b
ec
c8
fa
0d
23
e5
fa
e9
d3
ce
21
19
07
fe
c8
45
12
e0
15
f4
18
06
03
26
eb
e0
09
09
04
dc
08
03
00
1e
bd
f9
25
17
28
fa
04
f0
14
20
c9
e0
15
ef
2d
f9
f1
d0
06
c4
10
0d
c6
1c
f9
cc
c2
16
c7
16
33
0e
1c
0a
0c
f7
ff
f5
1b
23
19
e3
e8
cc
3f
f0
0b
dc
f0
ef
24
1e
19
18
27
1b
17
0e
0d
fb
17
06
0f
fa
30
2a
38
c3
44
f0
15
36
f3
20
f8
14
f7
c1
35
ef
03
0b
f9
eb
12
f4
03
f1
fa
38
01
0e
fa
15
d3
f5
0b
01
ff
2f
05
e5
02
f6
f9
df
0a
1c
d5
de
cb
d4
44
19
fb
ef
08
01
07
e8
d6
0d
09
fd
43
e5
f3
1d
0a
d6
ed
e8
d2
21
46
21
4b
e9
07
f3
21
13
f2
f7
c1
0f
de
11
fa
14
ee
35
14
d5
05
f3
0e
e6
eb
12
0f
00
33
19
06
0d
eb
e2
3b
10
f4
03
27
ee
32
f8
dc
b8
f4
eb
c9
f1
11
02
ca
f6
11
08
16
18
05
ff
13
ee
10
2d
f1
fe
fa
e0
30
cc
fb
31
d6
07
26
f6
da
07
f6
ea
03
db
d1
33
02
1d
20
ea
08
0d
22
34
ec
e2
08
0a
19
e2
14
12
1c
36
f5
0d
02
fa
dc
dc
1a
0f
f1
f5
b8
eb
e2
f7
15
2d
03
ea
1c
d8
0d
22
cc
f4
f7
11
08
00
e6
f1
f4
fd
e3
ee
e8
f1
fb
0f
e0
44
fa
e1
fb
e3
fa
e8
30
d2
08
fc
e7
13
f0
19
11
f5
1f
ef
ed
28
14
d9
da
18
e5
15
dc
cd
11
07
d9
df
f9
1d
ed
19
f7
e9
09
da
f2
dc
01
23
f7
06
e8
f3
17
e1
e3
1a
f1
fc
fd
04
34
15
ef
e7
14
dc
09
e2
ec
0d
00
f8
de
25
de
25
e9
f1
12
1c
00
06
13
2c
f5
15
0e
f1
1e
fd
e8
de
e8
2e
cf
1b
f2
fa
29
28
2b
05
ed
1a
10
fb
2b
46
14
e6
1c
0e
2a
d6
00
18
39
97
e6
d5
0a
f7
f1
fe
0b
e7
c9
18
3f
e8
05
cd
14
04
ec
19
37
3b
e3
ea
cd
39
e3
12
00
09
04
d1
16
eb
f7
1a
3a
e7
37
42
d8
ed
e1
15
ce
ff
1c
10
4c
04
18
00
e1
1c
0f
15
19
3e
fe
fd
21
06
15
ea
eb
db
d9
1b
eb
f3
13
f2
29
f9
fe
2b
10
2e
1f
fb
f1
f9
fd
e6
00
eb
e9
e8
da
db
05
03
00
10
e3
06
16
c2
f0
fc
03
07
07
08
0b
ed
37
10
f7
d4
26
16
f4
f4
40
df
d0
fd
f9
e7
09
f4
20
06
0f
e6
09
37
07
d7
05
09
d9
3b
43
0e
0b
00
f9
1c
1c
03
18
fb
e4
1e
30
da
f8
f2
2d
f1
00
0d
cf
d9
dd
0e
fe
f1
fe
f1
1c
21
1d
05
10
18
05
fc
05
06
22
f0
fc
3a
04
32
df
12
18
08
19
f0
20
37
da
e7
05
37
e5
f9
22
fb
0d
c4
fe
20
0a
0d
c4
e3
fb
08
ff
1b
ca
e5
0b
d2
01
1a
e4
11
31
f5
14
18
e9
08
f0
00
e5
16
f2
24
ec
f2
39
11
ee
07
24
d8
03
d3
ec
0b
f8
f1
11
13
11
0a
21
15
13
1f
e4
04
bf
31
13
f4
07
05
23
12
fd
ef
08
e6
1a
f3
fe
17
32
00
04
0f
27
ed
0a
e1
f7
d6
00
20
2b
ff
cb
d3
d3
08
d3
e8
11
e9
fd
ef
0a
48
28
00
38
f9
14
22
34
f2
c6
0c
f1
23
11
28
01
16
0b
e9
0d
e5
15
d8
e1
2e
ee
01
1f
07
00
ee
35
03
12
d2
35
fb
f7
e2
e2
e0
d6
1a
2d
1f
09
f7
dc
13
3e
26
01
ee
17
ea
06
f3
f8
1e
35
0a
39
e7
2b
09
2a
f1
f9
16
1e
fc
00
1d
df
31
13
1e
0f
19
e4
2e
10
bd
0a
e0
a6
0e
1f
24
f9
04
29
2d
f6
f3
de
1d
fd
2f
22
f7
ea
01
d9
ea
12
f3
e8
fe
e4
03
fb
db
00
fd
f1
cf
ec
fb
53
21
f0
03
22
1e
ef
40
f5
f8
fe
09
29
ce
23
f9
04
15
32
25
ee
30
02
fb
df
0d
fe
f7
30
1d
2b
03
19
dd
dc
c6
04
fb
cf
c5
21
e6
f8
fb
fa
1e
f9
19
36
d9
0f
ee
06
14
36
ff
02
22
28
d4
04
13
f0
21
2a
1d
13
08
39
04
e2
f5
ca
1a
ea
fd
26
e6
1c
04
f5
08
0a
35
0b
03
f5
de
14
fe
01
d7
cd
05
dc
e2
e9
0e
d8
ce
e9
f3
12
ed
e8
f7
ea
2e
d6
10
de
02
2d
2f
0b
15
d7
f6
df
10
d2
fe
0f
ed
c0
c1
09
2d
e8
ec
f4
00
fa
0a
af
f3
ed
38
0e
06
b1
f9
e3
d8
f9
b1
e7
08
2b
0e
ed
fd
10
df
19
01
ee
ff
e3
06
fc
05
29
e7
fa
0a
24
cb
f9
07
02
ee
09
32
20
18
df
1c
f7
ff
06
d2
04
fc
e6
f1
01
fd
ec
18
09
08
1a
0f
0b
27
1d
f7
03
fd
08
d2
f4
0b
0b
fa
31
09
0f
1d
15
17
00
00
1f
f9
b0
fd
d7
01
f3
fb
f0
2d
f0
f4
03
08
fa
07
23
1d
fb
25
fc
f8
32
2a
ff
09
fc
f4
17
e7
20
e2
eb
e3
ea
c5
eb
f0
0a
f8
fe
fc
ce
f1
16
f7
f5
23
30
0a
06
e2
1a
06
fe
f1
07
10
fe
00
e4
f4
c7
0f
11
1b
fd
f9
fa
dd
fd
f4
0c
06
f4
f7
de
1b
24
d7
0a
fc
f6
f5
eb
1e
3d
17
14
e2
01
13
ff
07
25
f9
ff
f9
f0
19
1d
32
ec
37
e8
f6
16
14
12
17
31
ed
05
18
2e
f5
10
03
ea
1b
ec
e2
df
06
16
13
f8
10
e2
fc
01
15
cd
03
f0
0d
fc
24
fc
32
20
21
e0
fb
c1
2e
c3
1d
d8
f5
da
ea
01
07
1d
11
ff
da
01
1a
ff
f1
f3
04
3f
08
dd
ed
29
12
d7
fb
ee
22
2c
f6
f2
e4
e9
04
28
f8
f3
06
1a
e9
02
5f
e7
ea
01
0d
c5
f1
2d
42
ed
fa
0b
1c
0a
ed
11
35
f0
e7
e8
ff
ef
da
fb
d2
f6
1c
03
1d
32
bd
3a
ef
f7
f1
05
e2
d6
13
2c
f6
01
f6
2c
ed
fe
04
0d
4b
0d
15
fd
fb
39
eb
50
25
de
f7
e2
1b
03
02
11
fd
2e
27
f6
ee
01
0c
04
ec
eb
ec
2d
f5
fd
ef
07
02
f9
f5
ec
ec
d7
0f
c1
02
e3
ee
f5
f7
bc
18
d7
e5
08
ed
13
46
10
0b
33
26
f0
23
24
10
11
1e
b5
f4
1c
f5
d8
25
f1
d3
f3
2a
e8
f4
f6
f4
03
0f
fa
12
f2
e2
1e
e7
e2
f4
0d
0a
05
e7
02
d3
d7
14
16
f1
f4
17
07
25
0b
08
e0
e1
ee
ea
f3
f4
f6
d5
f0
f3
04
48
e2
01
11
22
02
e4
f4
1e
00
0d
e5
ec
aa
ea
f5
f4
e7
f6
21
03
07
f3
0b
f8
13
2f
16
db
10
17
10
15
04
16
10
20
1b
31
15
0e
f6
14
ff
2b
fd
fd
f6
14
d8
01
20
12
3e
1e
fd
27
f9
f9
2f
fb
f6
01
cd
f3
01
07
0e
0f
03
db
f1
c3
b0
e4
d3
20
0c
f9
0d
d3
1a
21
5d
1a
32
fb
0b
29
16
03
06
12
f7
24
13
e8
10
ef
f4
07
f8
ea
03
06
f5
f6
f2
e8
0e
0f
ef
fc
f6
17
dc
e9
f4
12
28
05
ee
fd
16
ed
36
ff
35
21
2f
f5
21
ff
09
ec
fd
e0
f2
03
de
0a
42
fe
07
ea
e8
fc
f1
0d
11
10
f6
0e
11
0c
06
35
08
ce
3d
1b
13
14
0a
02
30
00
e5
0a
21
ec
e9
d9
02
e2
c4
ed
15
ef
11
e4
1b
d4
0d
be
15
e3
ef
46
f6
fd
1b
e0
3b
14
04
f3
e6
03
00
0d
19
fc
0a
05
dc
e5
04
03
0d
f0
13
e4
1b
c0
26
26
05
ee
ef
01
20
d3
01
15
c7
03
db
05
f5
d1
0d
d6
ec
04
ea
11
04
06
1c
e9
f5
f8
05
07
0a
f0
fb
ff
0a
f6
fe
13
20
06
0b
02
ec
18
f0
dc
cd
36
27
f0
ee
ea
38
1e
12
e7
0f
dd
d1
00
28
e6
18
06
0e
e1
07
fc
2e
de
13
12
b6
fd
20
17
c2
0e
e4
1b
f8
2c
fd
1e
f2
d8
ea
58
23
0c
14
c5
f7
c3
18
e1
15
30
d8
f4
e7
f7
06
4a
d3
2f
f9
07
40
f5
ed
ce
e1
06
0a
29
10
d3
cd
05
fb
eb
06
1e
15
1b
00
ef
f6
23
b0
f0
ed
f5
12
f6
14
f6
01
1f
2a
25
fd
25
2b
db
0f
18
ee
f5
2c
da
06
1d
dc
dd
22
d2
02
07
11
e3
00
0c
55
f6
10
13
06
db
f8
03
2e
0f
02
d9
f3
ea
e4
1b
cc
e0
d3
15
f3
09
1a
0f
0d
11
ac
e9
df
fc
f7
d9
ef
0f
f9
42
fc
e5
c7
e1
ff
ff
d3
f3
fe
1d
d8
02
18
2b
14
25
04
e5
37
df
da
e8
34
46
e2
de
0b
db
22
d3
17
f6
23
2b
16
25
0a
46
0f
26
07
ef
fe
09
c8
eb
15
04
09
05
fe
0e
20
f7
00
db
3e
1e
17
fa
1f
f1
0e
18
1b
0f
e3
0a
00
c6
f6
d8
29
ed
00
1d
c2
e4
d9
07
ef
f6
c9
05
06
f5
e9
e2
eb
e8
16
f4
fe
f3
11
e4
ed
fd
20
d6
ee
1a
f6
fa
ed
ed
ec
00
e4
34
e2
10
ce
09
20
d7
1c
1d
19
e5
ee
0f
eb
e9
fc
19
db
10
0f
ec
05
29
fd
e9
0b
44
fa
e5
dc
10
fb
05
fd
24
eb
1b
0d
17
14
e9
31
28
19
11
29
f4
34
33
24
00
07
e9
11
e8
f5
0e
2c
e9
ec
31
cb
2a
04
f4
0f
fd
fe
15
e1
fa
4d
12
fa
ef
07
0b
08
ec
f3
05
f8
1d
36
08
e9
ec
04
2e
1b
e2
f4
f0
ff
14
1d
25
27
1e
14
0d
26
18
0a
34
13
02
33
22
f9
35
c8
e1
0f
da
f0
f6
03
ef
f3
25
17
1a
d2
10
f3
f7
02
0d
00
ea
f2
09
27
1f
04
31
28
e6
23
fe
32
ee
c6
e3
f8
1d
33
f5
f0
29
15
f9
2a
11
e0
04
e5
11
0e
fe
29
22
f0
f7
e4
df
e5
15
f3
f9
ec
f8
0d
20
e8
00
31
f4
02
f8
12
ea
ee
c4
0d
d1
12
f6
16
f7
03
df
e6
e2
e4
14
4b
f4
1f
c3
fa
e9
e8
23
f1
14
ee
0e
f1
f8
00
d6
0e
eb
21
07
13
12
e4
1b
fc
12
f5
31
01
38
26
fe
f7
fb
e8
20
18
fc
04
d9
14
1e
0d
0d
0a
02
01
23
f9
02
f6
17
23
f1
07
ec
12
db
b6
e6
ce
0a
07
1b
fc
07
9c
ff
f0
ea
dc
1c
f1
e6
fe
fb
05
fc
ed
da
ec
12
23
ec
00
03
23
f1
24
10
f6
09
1e
11
e9
32
f3
26
fe
01
0a
1c
f2
10
ee
09
eb
e6
cf
10
df
0f
f8
b8
c8
1c
07
fd
01
18
10
f4
d8
3c
fa
f7
07
41
10
10
26
f7
01
18
d8
fc
14
d3
fa
34
26
02
f8
d1
fb
e5
f8
f3
0d
f6
2e
0b
fe
0d
1f
d1
f5
1b
0e
f0
de
dc
d6
df
08
23
0b
ee
19
0d
df
e1
06
d8
08
e5
de
f5
ad
0c
00
10
1a
fe
c7
dd
f7
e6
10
19
c7
fe
08
0f
ea
0f
fd
e8
00
2e
05
fe
f9
de
f7
d9
f7
0b
f1
1c
ed
db
e1
d3
24
1d
1b
f0
e3
2f
31
e6
ed
f9
03
d9
e4
06
11
21
02
10
03
04
f5
20
f1
ff
16
d8
fb
f7
28
fb
2a
e5
e8
f0
05
df
02
03
0a
0b
14
09
0d
02
be
da
e9
e5
1f
e7
ea
2e
1a
03
fd
05
09
e7
f1
09
02
0a
c0
1a
fc
cb
b6
cd
07
eb
11
12
0a
1e
f5
e6
f3
27
52
32
15
10
e2
18
19
0c
e3
16
07
0f
22
c4
ff
ef
0a
20
18
13
14
10
ec
45
4d
0d
0c
e7
15
f1
0d
00
04
05
e7
0b
ed
fa
19
23
f0
2f
1e
e1
f1
04
17
16
12
f3
fd
eb
f9
ed
1a
fa
f9
04
d1
18
f0
20
03
e6
dd
0d
1f
02
f3
de
02
1b
19
f8
d3
eb
06
07
f9
14
e4
08
f1
e4
16
06
f5
d7
f9
ea
14
d7
25
2d
0a
e4
06
08
ff
ee
16
e6
e2
27
1e
ee
db
f7
cb
f2
17
e8
02
e1
15
dc
08
20
0b
12
ec
e7
29
1b
0f
21
f6
2b
10
08
ea
f9
07
ec
1a
33
11
01
03
eb
0f
3f
fc
2c
e0
28
d6
ef
f6
e8
1c
d7
24
fd
e6
f5
f7
e6
f8
29
1a
f7
e6
c3
fb
0b
fd
54
0f
28
09
0f
20
05
f3
03
fa
ef
14
04
e9
eb
10
03
18
06
27
fe
09
ec
19
05
f7
fa
e8
3f
1a
ef
32
1a
23
00
17
f7
be
f9
08
12
f7
05
c6
df
06
0d
f8
3f
ba
23
fc
13
19
fc
f7
fe
e4
d9
f8
f1
12
25
16
11
16
d2
c6
1d
02
2e
ef
d8
13
0a
0a
29
0f
02
10
0e
1e
06
ff
d1
ef
e8
08
42
e1
f2
3a
06
fc
15
36
f1
ef
f6
f7
16
b4
ef
04
36
06
29
eb
e1
f6
20
ef
c7
f4
ed
fe
fa
ef
25
fa
ef
fb
f1
e0
3d
1a
32
19
17
e3
0f
09
17
f9
e5
df
1f
27
1b
e9
f1
f5
19
e6
f0
26
21
07
e0
26
ef
0f
01
12
0c
0a
09
10
ed
fd
fc
2a
de
fc
fa
05
e4
16
ed
cb
f6
08
ed
18
e3
ea
ec
02
2c
cd
23
0f
20
db
1a
e6
e1
e1
fc
f1
13
0b
fe
f7
e8
f3
27
05
d6
ed
0f
d6
14
da
2d
1e
32
c9
1c
ff
05
11
14
d1
fa
01
40
36
fb
f2
e9
ed
0e
09
f7
ee
30
01
04
f8
f7
c4
0f
1b
09
db
10
ff
1c
e1
ef
22
0a
d7
26
c5
19
ef
3a
0b
2e
02
2f
e7
e6
12
f7
29
f8
0f
e4
d1
28
15
f3
f5
f9
1f
37
2f
1a
f8
fb
05
02
dd
dd
ee
d3
e8
de
03
fe
de
e4
f0
3c
00
01
02
e2
f5
e7
d2
f9
1a
3c
be
f7
07
0e
f1
b6
f5
fe
ea
13
0d
f8
06
de
f3
ff
0d
1c
d2
08
fe
e5
ed
e1
f6
0f
0c
1f
15
42
0a
e8
f5
e1
09
ea
d0
f8
12
11
05
ec
4f
3f
08
dc
b7
fb
09
ec
f3
19
f7
19
3d
3f
25
24
19
de
05
0d
26
04
20
0a
06
26
1a
c8
16
da
22
01
ce
e0
ed
0c
1c
f0
fc
3e
0e
17
d2
d5
22
08
d5
37
ee
f2
2b
fc
ec
05
33
36
e6
08
e9
10
ee
0b
dc
09
0e
d7
dc
f6
28
fc
fe
d9
0c
12
f6
14
e2
ea
c9
07
2e
25
ed
e8
12
ee
0b
30
d7
e5
e7
39
f9
ed
f8
ef
36
31
06
d2
ff
31
e3
15
be
10
f4
23
0a
e3
06
f5
09
0e
12
09
f6
07
04
fe
08
26
22
07
cd
12
1d
14
05
19
c8
cf
40
db
d6
e6
ff
03
10
2b
0e
ef
37
cf
fa
df
ff
11
25
17
ee
f1
ef
de
fe
f2
f6
07
1b
11
2b
0e
e4
17
0f
12
bf
0a
fd
f2
f0
fe
fd
1e
e9
f3
de
ea
e4
02
dc
de
e1
ef
0e
e0
f6
fa
35
04
23
07
10
1a
e8
08
0b
14
d3
e6
0a
17
22
c8
f3
0b
ee
e8
32
ee
12
df
10
2b
0e
03
fb
f1
d6
0b
25
12
e6
16
e0
20
f0
30
04
14
d2
ff
00
ee
fa
db
27
05
c7
11
f8
45
0d
2f
ec
d7
e2
f9
0b
03
16
f5
14
0f
18
0a
fc
17
f7
1d
41
01
0d
06
fd
f8
14
01
16
06
20
f1
ff
08
13
34
04
05
d9
18
ff
0e
2f
03
d6
de
26
14
c9
fe
1c
23
d1
1d
0e
d1
f9
05
08
02
cc
e9
f6
e3
de
e9
04
00
c5
be
ec
e9
29
e3
d4
03
fa
ef
24
c4
09
ff
e1
e0
13
fa
ec
ed
ec
f1
13
e5
d3
c4
07
f0
d4
18
02
08
e8
fd
0a
01
f3
e3
f5
f7
e5
16
ea
fb
16
57
ff
04
fd
25
10
e0
f4
16
18
ce
13
f6
14
05
08
14
07
f8
09
43
f7
0f
f1
1d
0a
fd
ff
0c
ff
da
fb
ee
09
fa
28
f8
03
f7
fa
09
20
16
ef
e3
f0
30
d4
06
e5
06
e9
0d
0c
1f
c5
d5
49
f9
d8
df
0e
e6
f3
23
ec
05
08
fa
da
0b
f5
e4
c4
c8
43
2e
df
3e
e5
17
fc
f8
3a
1b
bf
0e
c8
e4
1f
1f
e4
e6
27
04
d7
06
f6
1d
0d
e6
b1
0d
f3
f0
24
2c
00
08
1d
d0
ec
e2
27
2b
3d
de
fb
de
0d
0a
be
ff
02
20
fd
ee
15
24
12
fc
cd
e2
f1
05
04
06
fb
e9
2f
07
01
f8
fc
08
36
d9
0a
04
18
14
26
d7
eb
ef
14
e6
e2
1a
c4
04
0b
e0
fd
32
27
19
08
d1
f3
09
15
db
0d
07
fc
28
d8
09
0e
08
e5
cd
07
28
ef
2b
e3
15
05
3d
29
f5
2e
4e
dd
fb
04
c6
08
26
19
05
0d
f2
d2
04
29
23
42
e6
f8
26
de
17
0a
fd
f6
f2
f9
d6
06
cb
14
bd
2a
24
08
0a
fc
c9
f2
01
fb
09
ff
f0
02
ff
1d
e9
dd
f6
28
16
e5
1e
dc
de
fc
0a
13
ca
fb
e8
03
eb
3e
17
03
09
e0
13
ee
03
e6
eb
fb
eb
f3
0a
0d
2e
f0
09
13
01
18
e5
28
0f
14
0a
0b
21
15
0c
fc
22
2b
f0
36
2d
ea
f1
18
ea
0f
ec
d6
11
04
52
11
35
56
dd
e1
22
05
0f
12
fd
19
f2
d4
0a
fb
c5
0c
c4
0b
f6
d6
01
17
e6
0d
30
fc
e7
e7
fb
05
fb
f4
f7
1f
38
e8
d0
13
16
0f
17
00
11
36
e2
2a
f4
0b
db
da
03
d8
05
ec
2f
c3
32
06
f4
18
f8
05
d5
fd
ec
02
43
f5
e8
00
28
e6
f8
07
d9
fc
d1
d3
f7
ff
fc
15
cc
f1
06
19
e3
f2
2b
07
02
18
f0
d0
f7
09
06
f7
13
09
bf
13
1f
e7
05
ee
fb
e2
ee
ed
35
fd
03
19
2a
14
04
eb
15
1d
39
f7
e4
0f
f0
f5
15
10
e5
e1
e2
12
d7
f1
e6
15
05
f7
da
20
1f
04
fa
55
0a
fc
25
d3
d9
13
08
da
14
de
f3
e6
20
21
e6
e3
de
18
f1
cf
f6
fa
23
fa
23
1e
e4
25
eb
cd
0d
24
eb
f9
f0
f0
0e
2d
ec
0c
d4
e3
c8
df
0c
2c
22
ef
01
f0
f6
1a
08
c9
29
21
0d
0b
e6
20
11
d5
fa
e5
d6
eb
22
15
d2
b3
15
1e
ca
e9
d1
06
e2
3d
1a
3d
06
ea
04
f2
3e
ea
01
03
0c
db
00
35
30
de
d9
00
24
ff
ba
f1
c5
ec
e9
08
f5
ed
eb
d9
e2
f1
fe
10
f8
d6
f8
26
1d
ca
ed
de
05
ef
f6
06
f6
fe
0a
f9
2c
f7
34
dd
14
0d
ee
ca
27
12
31
cd
2c
d4
fa
fd
c3
13
d1
fd
f6
0a
34
2f
02
e4
14
00
00
15
d5
01
cb
00
31
14
03
f9
02
d8
ff
09
28
1c
f9
ff
0e
e6
03
ea
ea
18
0d
1b
07
e2
27
c7
ee
dc
ce
06
1c
24
0d
1e
0d
0a
dd
43
fa
f8
1a
ee
be
fd
fc
cb
e4
eb
de
ff
0b
30
18
fe
07
e4
04
f0
05
27
0e
e1
05
40
09
0a
2c
13
f4
f4
08
fe
07
48
dd
08
e2
0c
eb
57
28
0f
06
00
fe
f3
15
16
f5
fa
fa
e3
da
fe
e1
e3
f5
fd
42
01
df
fd
00
d5
cd
09
0f
38
2d
f6
3a
f6
f6
e9
3d
2d
f2
3f
fb
26
05
15
ff
02
ec
fa
e0
2d
04
e6
0d
07
e4
1b
0e
10
ba
f8
f1
c4
03
e7
ff
ca
03
1e
14
e1
01
06
08
a9
15
2a
e3
0f
16
1c
e1
18
f4
18
3a
00
f7
c2
cb
e1
ee
07
23
d8
0a
dc
2e
0f
ef
d6
f1
fd
14
28
df
ec
37
eb
02
da
15
2f
dd
1b
06
cf
2b
ea
1b
d7
f9
f6
01
fe
d2
00
e0
ee
1c
05
eb
f2
0d
c9
f8
f4
dc
0d
e5
cd
f7
15
f6
40
15
07
00
2d
1f
ed
15
1a
50
16
e8
07
26
db
1f
1d
ed
ce
2a
cb
f0
db
1f
e2
18
fb
12
f5
e1
d3
06
b4
f7
23
f2
0a
37
0a
fa
e8
db
f2
08
f8
1f
ef
ec
12
e0
18
de
0f
f2
e1
0b
02
27
e5
ce
e5
e5
00
04
fc
15
da
10
1d
0a
f9
24
10
02
e7
15
14
fd
e3
28
fe
01
e8
fa
e5
e2
0a
11
ed
ce
30
c2
12
39
e9
08
d1
f9
f1
14
10
0a
18
4a
f3
d5
fd
eb
fd
04
2f
d9
00
f3
07
e9
11
ba
11
02
df
0f
d6
fd
15
e7
17
21
fe
23
f9
e2
c3
db
1d
db
3e
05
f3
16
d6
0d
fb
d8
f6
ff
3f
e0
dd
fa
28
fe
09
09
ec
ff
17
03
04
09
00
e2
12
c4
1e
20
ee
0b
17
ee
0d
0d
f7
e9
f1
fd
01
dd
fe
db
f6
e1
16
08
f0
28
e7
0d
e9
ef
08
07
31
b6
23
24
f7
07
11
d0
10
e0
2c
e6
db
d0
f9
ec
11
b7
d8
cd
ff
0f
1c
0c
ab
02
f3
07
1a
f6
df
f4
09
fb
f0
0e
c9
ca
f7
17
04
26
fe
f4
e8
1f
ed
01
08
fa
eb
48
f5
c6
e3
16
f5
34
03
f6
3c
14
cf
24
08
1b
f9
ee
cb
f1
d1
25
00
cf
12
d5
07
12
f8
01
e9
01
f9
20
e0
fe
04
25
e9
0b
00
0e
f9
ea
13
0a
27
fc
fe
e6
0f
dd
08
f7
d2
e3
1f
d7
16
23
3b
f4
eb
1b
cd
45
ea
e0
f5
1f
de
c8
26
10
08
bb
e1
17
0e
ec
da
e6
fb
04
25
f2
ed
f4
06
12
0b
09
03
e4
d2
01
05
06
f7
19
06
25
16
0a
e3
2b
27
0d
fc
de
25
09
e1
ca
cf
03
0a
e2
f7
07
b2
04
12
09
00
ca
f3
08
f6
19
19
0a
c5
1b
df
f2
d0
2a
b6
32
f8
c0
1b
f3
fc
f0
26
ee
24
ea
e8
1a
31
20
eb
1c
01
25
37
c6
30
3e
d4
f7
d4
10
fa
12
ff
e3
0e
0d
d1
1e
fe
14
ec
10
22
09
19
26
fc
17
dc
31
16
0a
e0
01
dd
fe
0b
0b
28
ee
27
de
01
25
f5
bc
e2
1b
20
15
fd
cb
fd
ec
2d
eb
d9
14
f3
12
1e
23
e0
e3
eb
0a
e8
fe
1e
29
0d
ff
12
03
2c
f5
ea
04
e9
23
fe
e7
fb
e9
26
24
02
0b
f5
22
41
f5
39
1a
13
f0
bb
3e
1b
d5
e0
24
16
e1
01
f0
ea
09
02
03
de
fe
32
0e
12
47
00
fa
ff
1d
e5
f9
ea
38
0e
d8
0c
04
ce
0d
e9
09
fd
f2
3f
04
fb
d5
05
31
11
15
37
f8
e5
03
22
14
e4
0b
f9
04
ee
dc
fd
18
f4
0f
e3
fc
d6
25
0f
e4
ee
f6
14
1b
fb
fb
33
1d
17
e6
23
fa
fa
27
0d
17
0f
44
1a
f4
0f
fa
12
ef
13
ed
d8
ff
ed
28
f6
e4
16
1a
19
41
f8
19
be
dc
fb
17
cd
ed
dd
14
10
0d
01
e3
eb
1c
25
e8
2c
fd
11
e8
e4
30
f5
b6
fe
25
ed
f6
01
fc
fb
0f
09
e8
fd
1d
ed
fc
0d
f8
22
fc
17
04
e7
1a
08
ff
dd
25
00
13
ee
dc
05
f8
1d
f7
cc
2d
eb
2f
ea
ed
2b
a6
cb
08
fd
cd
0a
fe
f7
fd
d6
fb
ef
03
1b
de
11
e7
de
eb
d0
08
4b
26
de
02
fc
c0
ec
f6
16
f2
20
f4
f7
f7
0c
05
fb
f3
3f
0d
0e
de
fb
40
36
14
db
ee
f8
13
13
fa
e2
e1
15
0a
f0
fa
e0
e3
0f
eb
e9
fd
0d
f1
e7
f6
fb
ea
05
05
f0
4d
cb
09
fe
27
17
04
fc
ff
0e
d9
f1
17
23
16
f1
18
15
ec
d1
25
16
d0
db
f2
12
2e
e6
2f
e8
f8
d7
19
1e
f6
0e
02
23
f8
2d
31
34
f2
c1
d9
05
16
e8
fb
0d
2f
f2
f5
25
2c
e2
e4
e4
f4
08
e6
00
02
18
15
1b
04
13
d9
1e
e8
0e
15
05
e7
25
1c
e1
08
ff
04
1f
e0
05
1a
e5
1e
09
e7
ed
fc
1d
35
00
20
ef
17
1a
22
fa
1f
14
e5
d3
f4
0f
cd
27
15
06
d2
04
15
08
2a
e6
e6
21
f3
d4
1c
e0
2e
01
01
f2
e3
f8
0a
ea
d2
21
04
1a
f3
fe
d4
ee
08
ff
0b
e4
ea
03
08
10
13
f9
fa
00
01
fe
e5
17
01
e7
d9
e5
dd
2a
f6
d9
c9
16
26
09
19
f7
f7
e5
38
20
f9
14
ed
d5
ea
e1
e8
d1
e0
eb
23
dd
1b
26
3e
3b
ea
f7
04
20
0f
06
ad
0e
0d
04
0f
ef
ff
26
e2
f9
19
e7
0e
fd
f3
fb
1d
26
e4
ed
f2
ff
2a
e2
e6
e5
24
fc
ff
f0
11
11
04
3d
1e
17
fe
3f
04
f6
f9
1b
31
df
0f
31
cf
fc
cc
15
10
f8
12
22
f2
ea
f5
f6
40
27
fe
24
e2
04
0a
13
0f
06
19
da
31
f0
d1
19
14
3c
2f
f9
44
f6
35
07
29
11
06
2b
01
1e
ee
ff
13
ff
0d
de
0d
ff
ff
24
23
fd
02
c4
29
fc
e6
20
fa
09
17
20
ef
03
09
02
ff
f8
fc
0a
08
19
20
f3
f9
12
e0
ea
d2
ec
1f
da
08
d0
15
ff
cb
1d
f0
d5
e1
07
f5
12
05
02
26
04
f4
10
2f
0b
28
19
e6
03
15
1c
19
fe
0b
ef
de
fb
f7
02
15
f8
f9
1c
ec
fa
23
c5
1b
ea
f5
17
0a
22
df
02
f1
d4
e9
ef
ee
23
cd
14
fb
fe
fe
20
f8
1c
f0
18
f5
e0
c0
fa
07
e8
14
01
fb
4c
e7
0d
d4
03
de
dd
eb
f0
00
06
d6
30
22
3e
df
16
11
ed
e6
11
f7
0f
1f
ec
25
fe
d7
02
36
13
f7
05
ae
13
e8
1d
2a
dd
da
32
11
01
25
16
f7
2a
f7
d8
fa
ff
e2
09
fc
05
f8
33
ef
50
c4
e6
1f
0b
0e
f9
fc
e5
21
09
ef
34
b9
f0
0f
b9
30
10
f7
33
35
dd
06
23
fe
e5
1d
18
10
ee
10
2a
0d
26
d4
f9
ee
0a
24
dd
1a
1c
08
1b
ea
18
f1
1c
0b
20
f1
19
df
0e
e9
d5
e4
0d
1f
31
ee
e5
0b
24
0e
19
ea
fa
da
24
f8
26
d3
10
17
f0
01
eb
e8
bf
e4
e9
c2
d7
f4
d8
be
f6
dc
0b
32
c2
0f
0f
f7
fd
eb
ea
f8
00
13
2b
15
0b
1a
e8
fd
11
05
e4
08
fc
27
4c
ff
f8
f8
c2
d5
04
d8
ea
14
0d
1f
0a
0a
fb
19
d9
e2
f5
ef
da
f8
16
26
ed
ef
e2
ce
0a
f4
12
24
d2
05
14
f7
cf
f0
07
10
e0
1b
ee
f3
fe
f9
2a
1f
0d
22
2c
f0
fc
ef
42
21
14
f5
fd
02
d9
e9
20
08
e5
13
15
10
06
f5
03
df
1d
0e
03
f7
db
f5
21
eb
1b
2d
08
04
09
e4
e9
19
3c
f8
fd
0a
d2
14
26
ed
06
f8
fb
13
07
d2
ea
34
f4
0d
da
1b
18
26
10
1a
16
bc
d3
ff
e4
06
f2
04
1f
06
08
d0
ef
04
e4
16
1c
20
fb
f4
1e
15
10
cb
ef
06
f1
00
fd
23
df
d0
0d
24
51
bb
ff
ed
bd
ef
23
fa
2d
f3
e8
2c
2a
0c
f4
03
da
d9
03
18
e9
e8
d8
c7
17
ff
ef
13
f5
27
f0
f2
cc
f8
03
db
13
00
00
e5
26
08
1c
e5
f1
b5
1c
fa
f6
09
1b
ea
e5
ee
e0
01
07
14
05
e3
e7
fc
0d
f5
1d
df
ca
31
29
21
15
f0
f4
e1
d5
cf
f4
fa
2d
00
0b
db
d5
34
e6
29
f4
01
21
03
e5
1c
11
f8
f8
23
1a
13
fd
fc
fd
04
17
c2
33
e1
09
f5
25
05
fe
f6
17
48
0d
fb
21
03
fc
00
25
f0
de
1f
00
db
f6
0b
15
07
29
40
ec
0e
fc
05
36
00
ef
0a
f3
05
1c
e8
00
f7
f5
30
e1
fd
f1
e0
fc
fe
0e
03
2a
dd
fe
25
0f
2b
1b
1e
eb
e2
f3
f7
f7
d5
0f
fe
e4
03
df
28
d6
24
12
b0
19
09
f9
bd
d8
cd
ea
07
df
fa
02
f1
ee
02
02
f3
08
19
e7
e4
0d
ee
dc
ff
df
c6
d7
08
d8
0b
01
f1
ee
12
0c
27
11
fa
e3
03
e7
f4
f6
fb
39
1c
f9
14
ee
ed
28
15
29
17
cd
f3
09
12
05
db
32
2d
08
1f
00
0b
1b
ff
fe
01
19
f4
f6
fb
22
eb
1e
f3
e3
08
34
dd
f7
2a
06
21
03
fc
e4
08
26
cc
1c
e4
e8
00
0e
f2
1f
26
09
fb
da
02
13
e4
ef
09
e7
db
f3
10
ec
04
0e
e5
fc
ff
fc
0e
41
1d
18
e2
1f
0f
f9
e8
f0
1b
08
1b
e4
14
cd
fa
f1
dd
07
e9
1d
08
0a
e8
15
1d
fd
29
14
ed
e6
04
f1
22
df
bf
0d
d7
f0
ee
fd
1e
fa
ff
12
16
31
e8
0a
07
ed
e6
0e
fa
f0
e5
10
03
fe
1b
05
0e
05
0b
ed
0d
ec
0a
f8
28
0d
fe
15
f5
19
22
15
d0
0d
0a
fd
24
12
1f
24
0d
fa
d3
10
f4
f6
29
ec
fe
f9
1c
1d
17
0e
15
21
32
02
45
29
d5
e4
1f
09
39
ea
f4
21
dd
ed
09
27
cf
31
e7
22
fa
2b
16
03
ee
39
f8
aa
00
02
fb
4b
14
15
eb
1b
1c
f8
3c
f7
01
fe
0d
ed
1d
09
07
ef
03
0e
df
f0
f7
ea
ea
d4
dd
f5
00
07
c8
07
0a
0e
03
fe
cc
24
2a
e7
12
fe
fc
0e
1c
0b
22
c3
1c
e9
f2
f9
2c
04
53
fd
f0
af
da
fa
fa
26
0a
45
02
c6
19
22
f7
0d
37
e4
04
dc
31
1e
06
e3
0e
26
16
36
02
f1
b2
f4
fa
2b
f1
18
0c
12
1a
1c
fd
ee
0a
15
fd
f9
04
ec
f6
f1
08
01
2a
ae
06
0d
0a
fd
16
fc
ec
97
22
2a
20
29
eb
04
e7
1c
ed
0a
0d
e0
fa
c7
fc
18
e1
ea
04
d8
f4
fe
00
bf
2c
d7
17
4a
19
da
20
eb
06
1a
ff
17
ee
10
ea
f6
55
1e
f9
0b
01
28
dc
20
f2
06
fa
ea
0a
f5
2c
f1
12
30
e8
0c
d6
2a
c8
de
10
ff
ea
f4
f3
f2
33
e7
d5
05
19
ee
dd
04
fe
db
0b
1b
fc
05
fd
e4
f8
e9
3d
18
10
e5
db
12
fe
0d
24
ec
13
dc
e3
fc
ff
13
01
0f
da
bc
fe
1d
05
e7
04
12
5b
d5
1f
05
e2
f9
00
fb
d6
e8
f1
f4
03
da
0a
ea
29
db
e1
ed
de
00
10
e3
01
f6
1d
ff
f9
30
f2
cd
0f
23
f1
d8
1d
f9
fc
f8
f2
ee
cb
0a
e2
24
f0
2c
17
06
07
db
22
fe
f1
f4
fd
f5
02
f1
e0
ff
1e
0e
d3
03
0a
f9
f9
b7
00
27
17
2e
f9
e7
25
2d
08
ec
eb
13
0a
e8
17
47
0a
c2
ec
fa
0a
00
fa
27
41
ee
dc
22
01
0b
0e
e0
13
22
1d
0e
de
11
fa
14
e0
09
06
ca
08
f2
f6
1b
df
06
e8
e5
ed
ec
e5
e2
13
f8
cb
df
0d
ec
14
32
2a
ef
f7
1c
05
f8
21
ec
00
15
fc
0e
f8
0a
fa
fe
0f
01
34
30
1b
3b
f0
14
02
e4
06
f8
fc
0e
2c
ea
d1
0a
13
fa
27
d8
e9
03
04
18
18
fb
e8
09
f4
20
d1
ca
b7
21
e8
0a
30
0a
f8
ea
fb
0d
00
dd
ec
fc
d9
ff
e4
f2
e8
17
1c
09
03
2b
eb
09
02
e4
04
dc
16
f4
e9
0f
ba
f3
e2
0d
f1
f3
f1
28
14
cb
fe
07
17
e6
f5
28
d5
0b
07
15
04
f7
e2
19
fb
da
f2
2a
27
07
25
b7
0c
09
f8
2f
02
21
24
fc
d4
fd
ee
f7
fd
2b
fc
0a
df
da
e1
fd
32
00
cc
0a
fe
13
04
3b
27
18
1a
28
12
d6
05
13
f1
00
1a
ea
1d
f2
0f
df
11
1a
fc
cd
e5
1a
ef
1e
15
f2
f7
e4
f8
d2
08
20
1f
19
08
fc
18
ec
10
ed
0c
0a
e7
db
0a
1e
08
0a
1c
f2
01
1f
ea
ed
16
f0
fd
b2
0d
e7
e3
f7
1d
09
e4
06
27
1c
f2
32
f7
fd
3e
05
0f
11
c1
f3
e5
e5
d8
ec
e5
fb
0b
24
25
11
30
05
a9
ec
ec
04
e0
0e
27
ed
d5
ff
0b
ef
07
fa
0d
ef
40
21
0d
fd
f0
dc
e5
ed
0e
fa
ea
3d
1c
f0
34
f0
06
44
0a
f7
2a
03
fc
ab
1b
12
ff
e9
f8
2f
2f
f0
10
db
18
f5
ef
ee
e8
04
f1
ca
f3
16
03
f1
dc
e2
f5
cc
04
e1
2e
e1
fe
05
21
ec
05
14
04
02
35
10
09
f9
0b
e0
fa
10
06
14
2c
e8
df
0d
fa
f6
e9
d4
e0
19
ce
e0
f3
29
e3
f9
11
07
46
20
2d
f5
19
f7
10
e0
ee
dd
cd
1c
e7
1a
17
13
c8
f4
0e
16
02
f9
ee
24
03
d8
0e
1b
f9
e9
b6
af
f5
df
e3
d5
f0
19
1d
fd
f5
df
fa
0b
cf
0d
e5
11
0f
f6
f1
e9
fe
ed
d8
d9
e0
0e
ee
10
cd
e6
bb
10
ee
fb
2d
ea
33
e1
27
ec
2b
f0
1e
e5
27
3a
f1
f4
1b
de
ee
01
06
0f
f3
3c
e6
e3
16
fe
b9
fa
fa
04
f7
cc
e1
c3
fa
00
1b
eb
11
0b
fc
fc
e2
3e
fe
03
1f
10
ff
ec
19
f1
f1
1a
e6
21
12
e4
0f
00
f1
1c
fb
02
e5
f7
ff
d9
38
14
0b
37
e7
fc
24
02
f0
01
f8
f0
26
d6
f4
fe
1c
18
21
2e
0e
08
16
e0
f7
09
d3
cd
fc
da
0e
04
12
f8
10
1b
ea
16
be
fd
fb
07
d2
fd
3a
2b
09
cb
16
f2
eb
18
fd
f3
0b
16
04
0d
18
2e
e4
1a
05
f3
d1
f9
04
e0
f2
01
0e
2b
39
04
43
00
06
20
23
e8
ee
f3
f3
0e
1a
e1
25
09
fe
de
f3
47
08
e1
e8
08
f9
11
08
f6
0f
11
fd
10
02
02
ef
e8
eb
3f
fb
cd
31
dd
d3
f9
fe
10
f1
0d
f4
f8
da
f6
1f
24
ff
21
f7
dd
05
11
1d
09
ee
0f
e2
e4
00
e7
0d
e8
fb
cd
e8
f7
f3
04
2d
1b
fc
1a
05
db
da
f2
02
ff
0c
14
06
f5
f4
f4
21
e0
fa
fc
23
0d
e3
fa
f3
ed
c0
0d
f6
fb
08
ed
f7
03
ed
0a
28
e3
dd
24
06
11
11
0f
10
f4
d7
dc
f3
f4
05
dc
e9
f6
35
05
fd
e7
12
23
f6
e6
17
de
de
0f
d8
11
fd
f4
2a
fe
e9
13
14
10
fb
14
37
16
fc
d3
28
01
fa
d8
28
00
1c
ec
fc
e1
2e
0b
e1
ea
ff
08
09
1f
26
25
f4
10
e5
fc
f2
ff
16
03
0b
33
e3
04
14
eb
d0
fb
14
31
f8
27
db
0b
2f
ff
ec
10
01
0d
fb
f3
2b
f9
10
d7
05
f7
fc
f0
1e
11
00
15
e1
28
e5
0c
da
1e
f7
d7
02
0a
cd
ff
bd
f5
fc
fd
d6
fa
ef
f3
d3
39
d7
1f
e5
16
15
e7
03
1a
e2
de
f9
01
22
04
fc
e6
13
d0
0b
e3
42
09
ed
19
0d
3a
ff
b0
fe
18
1a
2a
cb
db
14
30
ea
08
03
f8
25
f4
eb
ed
2d
12
ea
e5
ff
e7
d8
07
cc
e4
fe
06
15
18
fc
e9
00
06
d2
00
ff
16
f8
00
02
d3
19
ed
d2
fc
3c
10
ff
1e
15
07
17
22
fe
23
05
00
0d
f8
36
f8
0b
18
ee
31
10
e0
25
fb
d5
13
05
d0
3b
2c
25
28
ec
e6
e5
04
e9
2c
f3
24
17
f9
f6
0d
02
55
e1
09
29
e5
05
d1
d2
14
cd
f1
d7
06
29
f8
e8
2e
d0
f9
eb
f7
f9
ff
14
c4
0a
20
f9
10
28
f6
e2
d4
06
e6
39
d2
f5
17
26
2f
e9
06
eb
fe
f7
04
f6
dc
f1
0f
09
ed
18
35
0e
22
07
0b
fb
ba
15
18
16
27
07
e4
ea
f2
f5
0f
20
dd
10
11
08
0f
bd
fd
fb
ee
ee
24
ff
37
05
e2
f0
f3
fe
fc
3c
21
f5
20
d2
da
f8
ee
00
0f
f5
ef
e9
09
02
19
f0
fd
2e
f2
0f
eb
f5
0c
dc
15
da
f0
07
20
21
21
51
e4
0d
09
9e
2d
fb
14
23
17
e4
19
2d
ec
e8
06
04
0c
2c
0d
f8
ff
2f
10
e8
16
fb
1e
ec
00
f6
f2
10
06
03
e1
15
06
e8
df
fb
09
07
2f
3f
11
f4
18
b5
08
f5
16
fa
e2
35
13
f0
e0
04
0d
04
f5
23
48
dd
20
02
f5
23
37
13
b4
ec
13
17
0d
0d
ef
00
1b
36
1a
00
06
1d
ff
de
14
d3
21
f6
de
09
1b
de
27
09
17
ce
2f
0c
d2
ea
dd
fe
cf
fa
cd
ec
f8
13
29
f6
e9
0b
ff
e8
08
e8
d0
16
f3
e4
01
dd
12
01
f8
c7
11
3e
de
0f
15
df
d2
19
06
f9
1e
d8
dc
10
1e
f3
1f
f8
0f
fd
f2
d7
04
fb
f2
1e
05
1e
f3
e0
ef
d7
23
f5
ca
06
2e
11
24
fc
05
03
19
c1
03
02
e8
12
2d
10
f1
17
02
22
09
ff
df
fa
39
12
23
c9
08
20
fe
07
19
ee
df
23
32
06
09
0f
e4
21
0d
d4
45
e1
f0
fd
20
05
e6
03
f9
28
16
09
ed
07
c8
f7
18
f9
45
d5
e3
18
1f
19
03
ce
eb
13
d9
30
1e
11
d6
13
48
03
f4
18
f5
05
ff
19
f3
ff
1b
f2
f9
41
de
ea
08
01
0b
1c
23
0d
0c
0f
03
e4
07
e4
f6
eb
32
34
fc
13
03
08
f7
30
de
0c
0f
c9
f3
b7
1a
03
20
1f
08
f5
f5
fa
d9
e8
da
1f
11
05
28
01
11
11
2c
ed
f6
20
1c
de
e4
da
12
1b
01
d3
e2
ec
08
16
02
f7
2b
e0
ed
0a
05
f3
01
f5
0a
11
d6
bf
ef
f4
f8
dc
f6
23
06
fc
d8
07
20
02
f0
eb
02
20
0a
00
ed
1e
1a
07
03
fe
23
25
18
13
02
e1
e8
ef
00
17
f6
0e
13
05
23
04
f0
e6
08
08
30
10
16
04
f1
ff
ee
00
ea
ef
0a
d8
b4
05
c6
f0
1f
0d
e4
08
f8
0e
02
18
f0
00
0b
f8
df
01
2c
24
09
f2
da
fa
ef
d7
ff
27
00
2d
0a
29
e4
28
0e
1a
f8
08
f6
17
2f
eb
00
fc
f5
0b
f0
f8
f3
ed
00
ee
14
ea
06
00
16
05
d7
0f
16
19
0b
ff
18
0f
44
fd
01
1c
ed
e2
e3
e9
fe
2d
07
07
25
f8
0f
f3
31
e8
06
1e
03
3d
01
e4
f3
09
f6
ec
48
c8
f1
1a
24
09
04
26
e8
bf
00
20
17
e3
0d
27
e1
fa
08
fe
f7
ee
e3
f3
f4
46
28
2d
25
d1
11
f9
e9
cf
cb
1c
03
de
28
f0
00
df
f4
08
f8
ef
29
ee
fe
ab
ea
d7
dc
fa
f9
2f
fc
18
e4
f2
d2
21
c1
e0
0b
24
f2
e9
1a
07
09
13
ff
ce
0b
fb
06
eb
08
04
dd
09
0f
c6
12
33
dd
e3
e3
03
03
ea
2b
08
04
f8
3a
14
0e
f4
da
c4
11
fa
d9
f4
f6
03
05
e5
f6
0a
06
e5
01
f7
22
13
f5
ec
3a
1a
e0
e9
05
e7
fe
d4
03
12
0c
e8
03
cb
fa
fe
00
e3
07
df
28
0a
fe
ea
39
02
f9
08
f4
e8
b3
d2
05
fb
1c
f5
fd
2a
08
de
15
03
08
f5
fb
17
d5
2c
12
0f
ed
39
d6
fc
01
12
c0
32
13
11
a7
fa
18
f1
e9
0b
57
13
f5
dc
0f
06
02
0f
fa
c4
de
18
e8
28
f6
1c
01
0b
16
23
0e
f7
08
dd
05
fe
23
1d
38
f1
16
f7
05
0a
b3
16
21
ef
f9
0f
00
43
0d
c6
07
06
2a
b6
ec
c8
1c
e6
fa
db
f1
ec
28
17
f8
0c
f2
f5
2b
cc
07
0e
f0
02
21
f3
11
4e
c3
21
07
f4
4c
fd
03
f9
09
fd
0a
c7
f4
f1
04
03
20
fd
ee
f1
0a
fb
d1
eb
07
c6
0d
0c
1e
f9
39
06
f3
e6
f3
05
f8
03
07
1d
e7
df
ec
06
21
df
f8
18
15
0e
cc
2a
2a
16
bf
1b
df
10
17
17
f7
e5
f0
15
f9
2a
d9
41
13
f3
01
fe
e9
19
e0
fb
e7
c1
e7
04
f7
09
12
11
ed
d8
07
13
d1
e1
00
0e
0b
e4
58
3f
02
06
04
01
e5
09
03
e0
00
e0
3f
fb
ff
c7
11
35
f9
d0
1c
2f
1e
11
eb
1b
0d
24
ff
c8
20
d9
f9
07
04
f2
1c
f6
19
28
f9
19
16
f0
fd
ff
43
12
2a
01
03
0c
eb
e4
5e
17
ee
3d
c2
1d
0a
21
ef
e7
28
e8
e0
0a
03
ee
f1
1e
f9
b2
fe
ee
ef
1d
45
08
51
01
f0
29
de
08
d2
36
e7
e8
ba
05
d6
fe
31
51
15
f3
fb
18
18
fb
0f
dc
07
27
ea
14
fb
21
f5
60
e0
dc
10
e1
19
00
25
49
dc
21
0d
10
e4
e5
09
fa
ec
c9
d8
23
41
11
ea
0f
07
e8
25
03
ec
ee
12
28
15
27
0c
2c
0d
0e
05
ed
d7
f3
19
19
06
27
00
21
2d
e1
0d
09
3c
d9
ed
ea
f1
f0
ef
d5
08
17
0a
29
28
eb
ed
d1
15
e6
14
52
06
f3
06
0c
cf
18
d9
28
1f
d2
1c
1f
5d
fe
e2
ec
33
e7
f9
ee
ef
fb
2c
16
49
26
07
1e
bd
f1
f9
ef
f3
07
00
02
f0
fb
ee
d7
09
e4
ea
f4
10
12
e4
d9
e8
0f
20
c6
df
15
d8
e6
1a
35
dd
2f
13
13
fa
03
e3
f4
fe
02
ee
40
f6
01
1f
ff
14
ef
e4
f9
f3
04
ec
ff
0d
e7
10
f1
06
10
e9
e8
10
09
2f
f7
19
bf
09
0f
eb
f0
17
f2
25
2a
f8
01
0d
26
09
0f
07
dd
0f
05
e6
fc
d8
04
23
f3
00
f7
db
ce
1d
fd
51
08
00
e3
f2
0d
e8
e9
ed
eb
fd
13
fa
0f
0d
f8
17
09
cd
f3
0a
1d
cb
06
0a
ff
f2
08
f1
19
f5
0a
d7
f9
f5
fd
fc
c9
e5
e8
c7
1b
ea
0f
e0
03
10
18
13
c8
18
01
1c
fb
fc
2a
f9
fc
e6
21
1b
28
4f
f8
f8
17
d7
16
ff
fa
14
e0
f5
08
2a
c3
04
fb
fd
07
18
f0
19
f6
2d
eb
20
01
d3
eb
fe
0e
e8
04
f5
2f
0b
eb
12
17
ff
0c
f8
17
17
f8
03
0e
fe
2e
f4
ff
0a
df
fc
d6
f4
22
18
eb
15
eb
08
13
e5
1d
e3
fa
d9
00
08
18
d2
1e
fb
25
03
03
12
21
eb
f8
0f
03
23
ff
fb
1a
01
24
f6
ee
ee
0e
15
d5
e4
0e
f5
ff
00
de
2a
ee
d8
ff
01
d3
0c
01
d3
06
2c
ed
0b
ec
15
1b
15
09
f7
11
17
1c
d7
48
da
bf
e6
e4
f0
1b
05
ef
f1
bc
1d
ea
14
05
17
fd
f7
f6
36
03
0b
11
04
19
14
30
12
15
2d
0a
e5
fa
d7
f2
1b
0f
19
b4
1c
06
d2
18
02
fd
d7
e1
c8
2a
02
09
fd
fd
fd
fd
fc
11
09
e2
08
f0
e4
e6
f8
24
09
f7
0c
cd
00
e6
c4
2d
c8
25
e4
14
1b
ca
f4
fa
da
f3
dc
d2
19
11
24
17
f4
2e
1d
e2
06
1a
30
ca
07
00
09
16
37
09
04
f8
dd
f5
44
e9
da
0a
09
19
f2
f5
11
49
18
ac
f1
20
04
ee
f8
23
d6
09
af
00
0c
f6
f9
10
fa
dd
fb
ed
1a
f3
03
1b
dc
12
1b
16
3f
31
f2
a0
10
f8
17
0b
1e
e4
d7
e8
de
f9
e8
0b
db
f8
03
ef
f6
d2
e0
ea
cd
ed
06
0f
e6
c7
e4
0d
d8
ec
1f
25
1a
e9
f7
17
46
fa
09
e4
fc
e6
14
f3
f6
0c
d6
fa
47
34
fe
03
f6
00
04
d1
e6
d1
ff
f6
f1
fb
fc
16
10
fc
df
03
13
f6
1e
cc
d6
29
e7
ec
f6
fc
e9
25
e6
f9
12
f8
01
ec
e7
00
0d
24
ec
f8
ca
e3
22
f5
ea
f9
2d
e1
0e
f2
ca
0a
07
f1
11
eb
2f
01
e8
4b
21
d5
3c
16
d7
e5
2a
31
f5
1a
16
1a
fe
f3
0e
c4
fd
1c
fc
f2
36
f2
0b
e8
df
f2
16
00
07
02
07
01
1b
eb
08
fc
f0
01
0e
03
ea
00
04
f1
f3
fc
05
ee
ef
fe
14
d5
35
ea
e4
2d
04
04
04
d4
18
d9
c0
0f
da
08
01
19
ed
23
e9
0f
2f
02
eb
d8
eb
1e
e4
17
e4
f8
dc
1f
06
f0
18
ba
1d
09
1f
2a
07
19
31
17
ca
fe
e6
f7
f7
f5
21
ff
d1
0f
ea
dc
16
0e
26
17
37
07
fc
01
21
28
f3
f1
e4
d8
e0
f0
3f
e2
21
fa
22
f0
de
cf
0b
fb
ee
fc
fb
17
dd
07
02
eb
ea
d7
f9
db
fe
d9
e3
c6
e7
00
d5
eb
fb
f4
dd
e4
1c
eb
15
e1
0b
df
d5
05
2b
06
f1
13
11
20
02
fc
16
e8
29
27
17
0d
f1
e0
c7
1a
18
02
ed
fc
d6
1a
0d
f0
0a
f6
24
01
c4
1a
1a
c6
f3
23
0e
01
1f
ec
e3
3d
0b
d6
cd
ec
18
f1
db
d6
29
f0
22
1e
e6
ec
32
eb
f6
07
12
db
10
0f
11
0c
f5
40
17
f0
e9
01
05
22
ff
e6
03
12
1b
32
f5
0b
03
1b
14
1a
16
1b
22
fb
e7
15
11
f8
15
09
27
1d
ff
e9
f5
23
26
06
06
f1
39
23
f9
f6
e5
fd
f8
f4
fb
2d
e4
1d
28
09
ee
fb
fa
3f
da
e6
13
1a
e9
fb
1f
f1
ed
ff
19
e6
e6
ea
09
00
f3
d7
eb
0c
ec
ec
0b
14
13
ec
01
24
d9
f9
0a
df
17
ea
f4
f1
bc
15
03
c3
04
f7
1a
5c
f5
df
fd
04
10
2d
11
fe
02
21
29
1f
0d
14
0a
09
e0
fa
e0
e9
0c
bf
e8
e2
e0
f6
f7
e7
08
08
ff
06
25
04
05
ee
13
f4
02
ee
f9
14
ff
04
02
00
07
00
2a
fe
1c
33
30
f0
f8
07
0f
f8
1a
06
0f
11
f0
f0
f6
0e
09
30
01
e7
f8
f9
07
10
13
ff
29
0e
0b
04
e3
15
f2
da
11
23
f1
0f
25
da
25
ed
27
03
fd
09
00
ee
ea
01
ff
19
ee
ef
34
df
11
dd
dd
07
f6
ef
05
e4
dd
0d
0b
d9
15
0f
ea
c2
dc
fc
0a
df
f0
08
b1
f4
0e
ca
20
e0
d4
11
21
e5
f7
ce
e1
f5
f4
09
e3
fb
f2
ef
db
21
08
d3
0e
08
07
f1
e4
f8
16
f6
f0
20
14
f5
fa
f2
ed
f8
35
0c
29
f6
0d
0f
09
e3
ec
f1
12
fd
f7
cf
09
15
03
26
fa
17
d7
0e
1f
2b
4d
0d
31
10
24
ff
ed
f6
01
0d
30
1e
1c
ea
09
05
d9
f6
28
e9
13
04
1b
f5
f9
f8
d4
bf
05
14
1f
10
f0
36
d4
fc
df
07
e9
bf
dc
f8
e6
e1
f5
0a
d5
d9
e4
06
f8
fa
2c
0d
e5
22
1d
f9
09
f4
f1
fa
02
fa
fa
09
ea
2a
1c
16
08
fb
ce
16
20
e9
0e
01
fd
fe
17
0b
47
1f
ff
ce
31
03
f0
fc
14
01
22
14
f6
fa
44
06
c2
30
03
eb
fa
f9
ee
37
fd
eb
ce
12
fc
0f
23
28
17
fd
ff
07
1d
32
dc
d7
1e
07
ea
e5
bc
49
38
fd
05
fa
34
ec
05
d4
26
d6
cd
fd
23
04
16
fb
0e
ff
f6
0c
19
17
e7
dc
48
d2
fb
de
2d
e6
05
d1
1f
01
28
00
c9
13
e1
e4
ed
fc
0a
21
2f
eb
15
bb
21
03
00
28
17
31
f6
15
1b
1a
ff
03
0b
1b
da
f6
ec
0d
39
03
f9
17
33
34
f0
b2
27
30
e6
13
27
f4
08
dc
ed
15
eb
0b
ad
10
14
21
fc
f1
16
13
02
1c
fa
fd
61
fa
16
eb
df
15
e5
eb
39
dd
19
02
1f
ef
fe
da
17
ec
0f
ec
f9
0d
15
0a
16
f1
11
05
e3
0b
05
ee
2c
2f
00
ff
bd
9e
f3
ee
2b
dc
0b
19
e1
08
13
0b
f0
e0
d6
cb
22
18
e4
f1
f9
ee
12
1e
10
f8
fb
f4
0a
f6
01
1c
e8
1f
f6
0b
f8
f8
0f
06
f6
09
fd
f8
c8
00
fa
1e
fa
d0
21
f7
14
04
0f
cf
be
ff
da
08
ff
dd
fd
e1
d3
0e
4c
08
b5
0a
19
e2
1a
e6
0d
fb
2d
04
f6
df
12
ff
e3
fe
27
f9
12
0d
ec
1d
04
e5
06
f2
fa
05
fd
16
23
f0
fe
13
e4
09
12
14
12
d8
0c
0d
fe
0f
ed
d8
25
15
20
05
04
ed
05
13
26
1a
1d
21
0a
f7
2e
05
45
1d
27
ea
eb
ff
ea
12
0d
24
14
05
0e
eb
19
fd
14
04
05
13
fb
21
f3
30
ff
fa
10
e8
fd
37
f0
df
18
21
f1
23
fa
07
ed
d3
fe
22
ec
c1
d7
25
ec
f6
ec
3e
12
ee
f9
4a
13
1a
1e
13
2b
da
f6
dd
de
11
21
0a
e9
25
17
1c
ec
e4
f7
f9
ff
d1
26
11
1c
22
21
e6
39
f3
0b
fd
20
01
e2
c1
fe
fb
19
36
50
06
f2
e7
13
18
cd
db
f1
06
0f
26
f8
dd
10
1d
fe
05
01
dd
fb
36
07
f2
07
e7
0e
05
36
34
de
1b
11
07
db
19
16
b4
00
d0
f5
f5
ff
ef
fe
e2
ce
11
04
e9
f0
3b
e4
e2
1a
fa
e5
dd
d1
05
dd
0e
ff
00
e3
ca
1f
28
c7
00
16
fa
cc
0b
1c
bd
cc
e3
15
0a
18
0e
fe
f2
1e
24
e0
ee
bb
03
d4
c4
f8
c6
08
f4
eb
e3
dc
13
0d
f9
fd
1c
2c
01
1e
ec
fe
1a
fb
f3
0f
d2
2b
16
e7
1f
f4
0a
15
f4
f8
35
f6
dd
1c
0a
17
e8
f2
16
28
0c
f8
ff
11
ec
0f
db
09
da
3f
e2
ef
1c
1c
2e
f2
fe
00
f6
25
f8
08
09
2c
05
0c
01
10
f8
0a
07
fd
07
f0
ee
31
d3
0f
f2
d1
11
15
03
f1
08
f0
f7
f8
1f
f6
13
04
cd
00
0a
f2
cf
cd
dd
0d
01
0e
e6
25
b9
04
db
0e
fd
39
04
f4
d3
d9
27
f2
0b
fe
e8
08
08
ea
34
18
d2
ec
32
e1
16
fb
15
e0
ff
e6
ee
f3
04
fc
07
14
f7
37
0d
12
ff
2a
d0
09
c2
0e
23
39
18
d9
dc
37
f7
b7
22
01
d9
ed
fe
03
06
12
fb
0f
12
12
00
ee
e8
20
21
d7
10
0b
33
eb
21
f8
21
08
cd
e8
17
03
f2
12
ea
d8
49
13
11
2c
10
de
18
d8
d7
33
06
10
df
13
f3
33
0d
eb
f1
cd
ec
dc
14
c4
e0
19
f1
5f
d1
21
05
07
37
f5
08
0d
d8
19
2d
fe
2c
dd
24
05
55
df
11
0a
1c
f5
f9
f0
db
fa
dc
04
f7
03
ef
df
36
12
1a
f7
0c
3d
18
05
01
d2
f9
c4
2e
22
1b
d8
e7
2f
0e
ea
f4
0e
28
39
34
eb
33
fa
ed
e2
1e
1b
fa
e5
e3
ff
f1
c8
2a
00
07
fc
d4
15
e3
15
0c
06
e6
26
ed
1e
e3
fe
0f
d0
e8
f6
0e
45
f1
d5
0a
f7
0b
0f
f2
24
04
ff
13
37
0a
dc
dc
f8
0b
0f
11
fa
f8
c0
02
fd
0c
bf
f6
46
f0
f0
1e
0c
e6
10
16
ec
fa
f9
d9
ec
34
02
05
e1
22
26
e9
fd
1a
06
ea
12
14
f7
17
eb
ea
16
2c
f7
15
e3
fd
00
f5
28
16
ed
e4
14
0f
02
f6
ef
2d
13
09
ea
03
e7
de
14
18
1c
d6
c6
b6
dd
0d
f2
ef
dd
28
e2
1a
e8
f5
f9
d8
f9
c2
05
fe
18
e2
0e
c7
fd
f5
eb
12
e3
15
cb
05
f7
01
b4
29
fa
ea
de
0c
00
24
fd
1f
0e
00
eb
eb
be
f0
00
f8
14
fb
09
0a
36
d7
fa
ee
14
b7
2e
f0
fe
fd
16
ef
fe
28
33
0a
09
2c
34
0e
eb
0b
ff
c9
eb
e5
0b
17
e4
09
08
20
22
13
1d
35
03
f4
1f
14
f1
1e
c9
0f
fe
da
0d
1d
30
ee
0c
f9
ef
06
f1
e9
0a
05
e4
e7
df
1f
1c
ca
e8
17
12
f0
19
1a
fa
41
11
0b
cb
26
f7
d7
29
03
d1
15
3a
37
dc
f8
e9
22
08
16
06
db
da
ed
fb
06
01
11
08
f4
ed
0e
f8
c9
40
24
09
41
16
ff
17
f8
e9
0e
28
1e
ee
dd
1b
fb
fb
07
15
15
ed
f1
23
f7
e3
ee
dc
0b
e9
f1
01
34
06
21
f0
e8
26
f2
16
fd
10
3c
f4
f9
39
17
e8
02
1e
01
e0
e0
05
e7
03
d6
de
d7
f7
f9
0f
df
0d
0d
0b
dd
2d
e7
ea
cd
d5
17
16
fb
06
f6
06
1f
f9
11
12
03
f2
ed
f9
fd
0e
e2
2f
13
ee
e2
10
05
20
fc
f9
1d
da
e7
e8
fd
eb
01
09
01
0f
13
e4
e8
fb
ed
f7
23
11
f3
f9
f3
e0
f4
12
07
08
d4
f0
00
05
38
d6
ee
ec
f2
fa
cf
10
05
fe
0f
f8
37
13
e4
4b
da
28
e9
d8
23
2a
fd
d3
d1
29
f7
29
1c
f4
11
1a
09
fb
17
09
f3
16
f6
f1
19
0b
14
df
03
ff
f8
ff
03
1c
f8
24
d5
20
00
17
fb
c3
f1
dc
ff
ce
13
08
d5
f3
13
30
14
fe
15
0d
e2
f7
f5
fe
06
15
fc
11
02
2f
11
07
30
06
f7
fc
f1
fe
f3
df
14
1b
26
20
06
0a
13
09
da
d9
0a
ec
d8
0f
28
1a
0f
14
e8
2a
03
d1
f6
fb
ce
f7
03
f2
ef
3a
e7
09
06
e8
f5
dc
fb
ca
f8
d3
20
fe
20
d1
24
f3
16
30
f3
c4
ff
e3
e4
13
01
e7
db
fd
1b
d5
1b
ff
e2
e0
20
12
f5
1b
02
e3
ea
20
02
fd
22
de
b9
00
f6
00
0f
e4
15
17
14
eb
02
1c
39
02
ee
c8
15
21
23
fe
f7
e7
f5
02
0c
ea
e9
02
1f
1e
df
ec
06
31
f9
e3
01
22
03
39
f4
f6
38
3f
1d
14
f0
1a
18
e6
4c
cf
e6
17
f0
ce
fa
0e
01
f0
df
f2
10
37
02
07
1b
00
2c
d8
f7
e6
01
e1
01
1f
00
0d
e9
41
fb
fc
df
12
ef
db
06
0f
16
18
01
14
f7
0a
ca
0c
d6
bf
f2
10
1c
08
ff
cf
cf
0c
e6
d3
e0
17
12
12
db
24
ae
02
12
d7
00
25
0f
f2
02
fa
f3
1c
ed
0e
f2
04
1e
15
06
f5
e3
17
3d
03
f1
fd
25
f1
1a
fd
dc
f7
11
ec
0f
cd
dc
0a
0a
03
e3
ec
ec
f6
28
13
04
0f
fc
18
ca
00
05
c7
eb
fb
eb
eb
e1
34
26
19
fc
1e
12
ef
05
29
fe
2b
da
f4
f6
e8
39
1f
0d
df
43
13
e5
fc
02
f3
f1
e7
eb
09
0f
28
0e
e9
37
ee
0c
18
e5
f7
e1
1b
fb
03
1f
54
f3
fe
dd
f3
14
f8
ea
fe
d4
fd
d7
ff
20
1a
22
13
0c
13
c9
05
15
fb
0b
d7
f8
0b
53
f3
0f
2d
09
dd
1d
e4
29
0e
ee
00
d7
26
e2
e7
f3
f0
ce
e8
da
22
17
04
e5
09
17
e1
cf
f8
06
f7
ff
18
08
0b
1c
e4
19
0b
11
d0
03
ee
08
1b
2e
e8
e1
22
08
0a
fe
04
ff
29
04
e0
ee
f8
14
02
ee
38
04
d4
0c
f9
fd
00
12
c5
c0
06
e5
f3
e7
e3
1b
15
d2
d2
f0
2a
00
e6
ef
08
ec
18
0b
22
f0
12
03
d4
03
01
fa
f5
16
01
1d
10
0f
ef
e7
d3
0b
0b
10
02
05
0c
e0
06
16
1f
e3
da
f0
e6
04
e6
28
e8
0d
00
12
fb
fb
0a
f3
f5
cb
fe
03
0f
1d
2a
f6
da
12
16
f2
29
5e
e9
07
d7
11
eb
17
2c
f7
e1
29
07
42
1a
ff
d1
ed
ed
20
18
1c
30
35
05
2c
0c
f5
1f
f0
e4
e9
25
1c
fe
c5
1f
0d
d5
00
e5
eb
e7
e5
24
22
02
1d
ea
fe
f4
af
25
a8
c3
09
02
fb
f2
fd
08
00
f9
05
2e
00
1a
f1
cf
06
bc
2e
01
f0
05
f0
0f
fc
00
0a
02
39
47
16
f1
07
f8
14
23
06
0e
fd
29
1d
ef
c3
27
f7
0f
21
02
2a
27
1c
c1
e7
e0
f5
f4
08
13
ee
fc
d2
f5
05
01
06
b7
20
e0
2f
23
25
2f
14
f7
fa
e4
ee
0f
f4
dd
02
fd
e9
07
12
19
ec
16
24
fc
fd
1e
cf
da
25
e6
33
fd
16
03
f0
e9
d9
1d
24
1f
10
4f
5a
19
e6
08
05
d4
f5
00
29
e5
07
00
05
f6
eb
29
ff
00
13
39
f3
ed
02
f1
da
0c
ca
07
f9
3c
df
12
eb
f7
17
d7
ca
04
ee
08
ec
fd
f9
1c
17
d9
02
ee
2a
cc
1f
0f
ce
2b
e7
c6
e8
44
e7
e4
20
fc
d8
12
f5
d0
db
e9
ee
04
37
03
f9
f3
1b
03
24
0f
c4
19
09
e7
fd
c1
38
00
0f
39
e5
00
c7
29
f6
01
22
fb
d4
08
f1
d3
e5
00
10
2b
ec
16
eb
04
04
e0
3a
ff
1c
d8
de
05
2a
0e
d5
32
33
2f
eb
e8
fc
07
ed
ef
d9
2f
0a
ee
e9
18
13
d4
06
e8
09
08
c4
ef
23
45
d8
30
2e
fd
ed
dd
0b
d3
27
02
3a
10
df
01
f5
ec
f8
e8
c4
0a
0a
e5
28
fa
fa
ee
00
0b
1b
d2
07
e6
1f
fd
fc
00
1f
e2
e6
1e
e0
10
20
e6
0e
ec
15
b7
1e
00
fd
05
01
ef
e6
4a
ee
ed
27
30
e5
00
39
11
fc
f5
06
0f
fd
10
e9
e8
16
20
01
cd
e2
06
f8
e8
e5
04
0f
0e
1d
db
41
d8
0d
ed
f7
09
f0
e8
e9
e6
e5
0b
06
fc
04
e4
3c
e9
20
33
e3
ed
de
14
ee
03
16
c2
14
fe
1c
12
ee
10
37
ec
13
f3
cd
32
04
d3
06
0e
de
37
ff
16
e9
fd
11
e7
1d
03
d5
0f
de
f3
10
20
c5
f3
00
17
0e
e2
33
13
f5
1a
d9
0a
26
00
f4
29
18
f0
fb
01
09
15
0a
1d
e8
27
01
d6
05
d1
e8
2c
05
e7
da
cf
10
f2
f1
d9
22
e5
e1
fd
19
e2
30
10
18
04
f3
dd
e4
1a
33
f1
23
13
0f
f0
0f
0f
e1
08
ed
ac
03
05
0e
e0
de
0a
dd
11
eb
f3
ec
37
c3
19
4e
fe
0f
f1
37
03
1f
eb
22
d8
14
02
29
e9
fc
11
03
3f
fa
e1
22
fd
22
eb
f5
e2
2c
e4
15
e6
f0
19
b6
2f
3c
ca
10
2e
e1
c9
bc
f2
e0
22
e6
31
e1
02
00
d8
0d
11
f8
20
df
f0
0d
ef
12
cc
f2
f3
df
eb
d8
0b
30
d5
e0
fc
ea
f5
30
03
11
1e
05
0f
13
f8
47
00
12
d8
29
f3
e4
f1
00
0d
dd
d9
00
18
d0
07
1f
11
09
27
12
e3
dc
32
10
01
f0
49
c2
32
b7
d8
f7
1e
ef
50
2d
02
b8
20
fd
0e
d8
01
e7
19
f4
e0
37
e9
f9
0e
f9
ec
e8
e9
e3
1b
d6
19
ee
05
f0
d6
cc
19
e2
f5
38
e6
f1
26
02
0c
f8
06
e8
09
f8
24
fe
04
df
eb
25
d9
1f
c8
df
06
1c
f7
e3
1f
11
2a
e5
c8
0a
e3
fd
ea
e8
fe
2a
06
27
f1
1b
fd
01
18
04
f8
f1
f7
fd
ed
44
0b
26
d3
eb
09
03
11
e2
f3
05
f2
04
f6
02
0d
20
08
ff
05
06
f6
18
05
e1
e9
df
f2
f1
e7
0d
0e
e8
c1
11
09
ff
0e
24
d5
01
06
00
f1
df
22
30
0b
57
fe
1a
dd
03
06
f0
f8
f4
19
15
0e
d6
09
19
e2
fc
20
fa
fe
41
1e
0e
04
0b
0d
24
1f
1a
f7
12
10
17
ea
f5
f9
fc
fc
ef
18
1a
18
12
02
11
03
f5
0c
1f
2b
1e
01
0d
24
f6
f8
19
28
e3
d6
cf
02
e2
f7
ca
f5
f1
f0
2a
3e
27
e1
18
e8
d0
e9
e9
14
e8
d3
00
05
f6
02
07
33
09
03
30
2d
ed
2d
e4
c1
22
de
f1
05
06
04
25
da
d2
ff
35
2d
e4
f4
ec
05
23
f3
ee
ff
f1
f6
fb
c9
ee
fe
13
e9
24
ef
e6
0b
dd
e0
cc
db
06
ce
f8
05
13
ef
ff
01
ff
dc
02
0a
ea
21
1e
0b
ea
1c
0d
fa
03
32
c3
09
da
fe
33
22
04
c8
dc
1e
21
28
16
0f
f4
0f
d6
cc
e1
ec
13
19
dd
d2
18
09
1f
26
df
01
2a
fd
f1
0f
03
27
01
04
2e
31
f7
f5
0a
0f
f7
0f
15
cc
0b
15
e8
33
15
1f
df
f9
17
16
d3
dc
fc
d8
0f
0e
0b
e6
1f
e0
2d
ff
df
d7
d2
e8
ec
f7
de
2c
0f
32
09
2e
3b
fc
23
11
e4
fb
f7
13
ce
e5
ef
e6
0e
0b
23
d9
37
00
05
e8
f3
1a
06
fc
fe
c7
05
e3
02
06
e0
00
fb
f6
05
f3
e9
e6
e3
37
f0
0c
37
f6
0a
07
10
f9
36
ea
e4
06
01
15
f9
e7
ce
16
04
fe
f8
de
14
ec
1b
09
26
d0
0b
0b
09
e4
e0
d6
16
ea
f4
fa
04
fb
0d
ea
f7
19
1a
f9
05
06
28
13
b7
1c
22
15
de
ec
fb
0b
08
bb
dc
f3
f7
e9
11
04
de
23
fc
09
29
e5
ec
11
37
e0
e8
e8
02
0f
ed
e7
08
0c
02
d6
14
f9
ee
00
cd
1a
f1
22
04
1c
f9
df
e4
f5
1c
fd
ac
02
1f
f1
f2
08
16
1d
f5
08
f8
2d
da
c7
ea
e5
2f
0e
06
05
34
0a
ef
ed
0c
0a
f8
e6
04
f2
24
1c
15
04
d7
03
0c
08
29
33
d3
17
d6
1f
1a
ff
01
26
dd
02
1e
0b
01
02
ce
fb
bc
d1
05
e6
e4
07
17
f4
09
39
0d
f9
ed
05
f5
24
15
eb
ea
24
28
22
f7
06
11
0a
14
05
19
0f
17
04
e9
d1
f3
e9
12
03
f1
fa
06
c1
c5
18
e5
f5
d5
ff
10
f2
ff
0d
e3
f0
e1
e9
0f
03
0f
d3
fd
10
f6
fd
23
25
1e
1c
e4
ee
d3
09
dd
13
00
1b
05
ff
f2
fc
0b
d9
d9
2f
e6
f6
0d
f7
d5
0a
2e
04
43
0d
28
00
e2
f3
f8
ee
