// fc2_weights weights - INT8 quantized (scale=0.005223)
// Shape: [10, 128], Total entries: 1280
// Load in Verilog: $readmemh("fc2_weights.mem", mem);
// Dequantize: float_weight = int8_value * 0.005223

38
af
e0
19
34
25
36
b4
01
21
da
f7
ea
06
04
1d
11
f6
f1
f2
ed
ed
43
f1
f8
f3
3b
e3
f9
ef
09
2f
f9
07
f9
13
e2
18
0c
61
ec
33
0d
f3
ba
eb
d8
df
f8
fd
fd
32
ea
4f
55
c7
04
16
20
47
c9
fe
4a
f6
d4
16
f0
04
b9
ec
18
2f
e8
0e
ee
ed
aa
08
2a
e8
b9
b7
ce
d5
0e
41
57
fc
f5
d9
0a
0b
d6
08
09
fd
15
ff
2b
cb
28
16
15
f9
0d
e5
1f
09
fe
2e
d2
02
e7
ec
db
ff
05
f6
09
cd
f2
d5
d9
b3
ca
e6
e0
13
19
c7
0f
da
1c
33
06
27
16
d6
ff
05
03
fd
fe
da
3c
d0
26
18
d5
02
25
38
de
9f
ec
fd
e6
e7
e2
ed
2c
fa
03
32
37
f4
de
2a
ff
ba
31
da
0c
ed
d1
d2
d9
f5
1a
f8
12
fb
ff
f4
d9
fb
13
e6
23
ff
26
ae
de
e3
08
4f
14
e6
08
03
f8
e2
0b
07
12
1d
1c
eb
20
f5
31
ea
eb
05
d3
00
4b
ea
f0
46
d9
02
12
0b
1d
e2
ff
fd
11
35
d5
e1
01
e0
ef
b4
b4
11
35
26
e3
d1
1d
17
03
e0
fb
17
02
3f
25
9a
08
22
09
f8
2e
d5
fc
38
e6
07
fd
f7
ca
25
07
36
32
0c
2c
32
d8
0c
18
0e
11
3b
01
45
44
ff
b3
dd
09
06
c1
24
f4
3d
d7
dc
f6
14
19
06
fa
f0
2f
ed
9e
1e
14
53
20
28
da
1c
52
fb
0a
a7
0b
1e
c9
00
f8
f1
ee
cf
0e
eb
19
ee
d5
c9
17
e7
0c
0e
19
21
11
f3
0e
e1
f0
dd
f1
51
15
3e
f7
e6
0d
3b
2d
0e
19
d8
05
0b
04
e5
fc
04
17
3a
0c
04
12
37
1f
1d
f2
03
0f
ff
f9
d9
42
39
fd
09
ea
fa
18
f7
f1
23
1c
ee
f9
3f
f4
1a
2c
06
0c
16
e9
c5
ea
0d
0b
a9
fa
03
09
e1
da
14
dc
e2
f2
16
31
e1
0a
2c
2f
da
40
53
36
fe
05
14
2c
d7
0c
1a
e7
f8
45
3f
41
ec
fd
e0
da
ca
12
fd
11
f2
35
c9
f1
91
11
07
06
ee
a8
14
cf
ed
17
fd
2d
0c
dc
26
3b
b1
e3
0a
ee
e4
0c
fc
00
40
09
f2
0a
ea
f6
5a
0e
f3
c9
cd
3c
03
47
e8
d3
f9
29
1b
fe
e5
d3
1b
3a
1e
e1
f3
12
27
2c
07
13
e8
f8
25
fe
00
26
f9
cf
19
02
22
fb
f5
fb
fc
0e
da
05
10
d6
36
43
20
22
c6
05
ea
22
0a
fe
ac
bb
01
dc
d3
19
11
ca
3a
e2
09
ec
2e
d3
3f
55
15
df
e8
01
17
09
fb
fe
0d
17
13
1b
fd
fe
e1
fa
ef
04
ea
30
f2
31
3e
eb
f4
db
f8
1e
32
e7
ff
03
34
27
cd
e7
d2
fb
21
dc
e0
1e
ef
22
2c
42
ca
0e
34
40
0c
3e
e1
26
db
d5
e0
d0
47
ee
f3
15
f3
08
f7
e6
fd
f9
04
4a
db
f4
23
37
39
f8
fe
f9
d9
1f
e7
fd
96
e7
ed
02
62
e4
df
31
11
16
11
01
d4
c2
ec
0e
af
1c
e7
de
df
1a
20
e6
1b
ec
d3
e0
08
0f
ff
ef
03
23
fb
dc
01
fa
b1
09
06
19
b6
fe
db
3b
0e
33
e1
43
52
5a
26
e3
18
00
06
c5
11
e6
ed
86
f1
f2
e1
d8
e7
f0
43
0e
11
f4
f7
df
fb
f1
e6
d8
b4
1e
20
22
17
16
fa
3c
42
53
c0
0e
ed
18
1c
25
05
08
1d
d6
f9
fb
f2
0a
2c
64
ef
46
00
2c
fe
cf
d6
01
3b
a8
f1
03
48
10
f5
e7
bb
09
f4
6c
f4
b2
0f
3b
f4
ea
dd
fb
28
3c
1a
f1
99
15
18
07
13
e7
02
05
db
0c
2b
f6
f4
d6
cf
fe
16
24
c4
f1
10
19
03
ca
ea
17
01
d7
23
fa
d2
17
04
2d
7f
d7
2c
ac
31
32
e4
0f
d0
f2
e9
fc
2d
e6
c2
11
e6
9e
09
f2
32
e0
11
20
34
49
fe
f2
5c
dd
44
00
e8
10
10
f7
0f
fe
02
11
fb
28
ff
f8
fb
de
c3
29
ba
f2
44
fe
1c
db
cf
b3
63
38
19
f4
f2
17
26
e5
35
bc
fd
24
0c
04
e3
db
c8
04
e0
db
1c
46
0a
d3
11
2f
ff
c5
2d
e7
18
4a
34
c9
2e
f8
ef
00
28
f0
19
e3
ce
1a
f1
f5
d3
46
42
e0
4b
23
44
2e
23
f8
ef
fc
43
1f
f8
e4
d9
ec
b9
e9
18
4b
2e
3b
fd
24
05
c6
e9
e1
43
0c
0c
12
e6
c5
fa
03
18
08
26
e8
db
01
0c
0f
26
46
31
f5
43
12
08
f9
f7
fa
eb
fe
0b
f1
2d
f9
e8
e5
10
10
99
e7
ec
0e
30
eb
32
16
15
ec
38
5d
0b
f0
23
df
29
47
1e
2d
15
e4
e7
ce
16
fa
d8
ee
02
2f
e5
18
06
f7
c1
1e
07
ee
db
e5
1e
09
48
02
e4
22
77
f3
3d
4e
f0
07
ff
f9
e6
37
14
d0
1c
a2
00
2c
cc
f1
1f
1f
3a
d0
2f
20
c8
c5
dd
a1
18
21
33
d2
f8
28
f9
0c
30
f3
10
37
f0
09
de
1f
e9
00
e0
45
1c
f4
dd
c7
06
ec
0c
03
20
d3
ff
0a
0e
d6
cb
e0
ed
c8
ec
08
d4
f9
2e
14
ec
fc
c4
e9
30
de
e5
fb
42
f8
f4
1d
e5
24
fe
11
e9
0f
23
0a
21
03
23
d6
0b
fd
db
d6
1a
14
25
cd
e7
20
e5
15
32
d4
f6
4e
f7
39
41
32
df
08
e5
0d
f6
1b
08
db
11
f4
0b
f1
03
c8
23
19
1e
f6
0d
11
04
0b
04
d9
25
2a
1a
10
e3
41
d9
e2
54
f3
13
12
39
31
e9
f4
15
b5
08
dd
e2
03
3a
ef
eb
e8
f8
c4
1e
12
e7
ea
30
e3
d9
dc
d4
2d
00
30
dd
fb
f7
1e
e9
e5
d9
ea
16
1b
f7
0d
e8
f2
11
1e
0a
2f
f4
bb
e5
0e
05
f0
2a
42
e9
0d
c1
0c
09
ed
ec
01
0d
fa
0b
3f
35
dd
b7
c3
1d
f2
f2
cb
fc
dc
f9
fd
ff
0c
3c
ee
d4
47
f7
20
0c
2a
02
f6
3c
1d
d5
e1
fd
0d
0d
fe
c8
c6
0d
d3
d5
e4
28
29
21
ff
02
12
e9
22
00
dd
ef
13
5c
45
e3
2a
1e
